<unk>	0
<s>	0
</s>	0
A	-3.02889
'	-3.34747
▁D	-3.50369
▁G	-3.58864
2	-3.59375
1	-3.70492
▁H	-3.88738
5	-3.95146
%	-4.0319
G	-4.08517
H	-4.18893
4	-4.19271
*	-4.21261
[	-4.25952
<	-4.27713
▁	-4.3726
"	-4.50167
▁K	-4.53716
D	-4.58362
U	-4.58888
0	-4.5891
9	-4.67664
6	-4.67914
▁:	-4.68105
▁Z	-4.68668
▁B	-4.70914
#	-4.73415
L	-4.84822
K	-4.91027
▁/	-4.96833
M	-4.96986
8	-5.0135
$	-5.04103
▁T	-5.04128
▁L	-5.06633
B	-5.11275
+	-5.11921
J	-5.12784
▁F	-5.14292
▁Q	-5.16001
]	-5.16322
I	-5.18187
>	-5.18873
▁J	-5.23918
▁I	-5.24985
@	-5.30622
"2	-5.31275
▁M	-5.32347
T	-5.33294
Q	-5.33933
▁/4	-5.36545
:	-5.39954
W	-5.42278
N	-5.457
LI	-5.45751
V	-5.46373
GO	-5.50356
\	-5.53211
▁N	-5.57934
&	-5.58623
3	-5.64759
6'	-5.64865
AH	-5.65847
▁GI	-5.66602
Z	-5.687
GI	-5.6939
F	-5.70825
51	-5.70895
▁W	-5.73547
▁C	-5.80486
E	-5.80862
▁\	-5.82539
!	-5.83897
HW	-5.84516
!'	-5.85829
P	-5.89078
8'	-5.92489
/	-5.93803
AG	-5.93908
▁GO	-5.94826
*1	-5.99974
▁^	-6.00795
C	-6.01635
9'	-6.02664
+'	-6.05558
0'	-6.08075
_	-6.10166
['	-6.11151
7	-6.13908
▁P	-6.15336
(	-6.15386
)1	-6.15683
>'	-6.17169
52	-6.18544
▁FU	-6.2048
AGO	-6.20546
▁KI	-6.21128
/5'	-6.21877
▁:8	-6.24277
▁/#	-6.24323
GE	-6.2594
▁LI	-6.29237
▁/5	-6.3029
4'	-6.3082
FU	-6.30968
AK	-6.32891
▁:1	-6.34738
S	-6.37098
AGI	-6.40005
=	-6.4215
▁HW	-6.4525
[1	-6.45306
=2	-6.46847
'"	-6.50361
▁DW	-6.50695
BU	-6.57575
OA	-6.59605
▁GE	-6.60488
02	-6.62398
2"	-6.63433
%1	-6.65646
TI	-6.66827
KI	-6.66875
AQ	-6.68679
+1	-6.68753
]'	-6.70526
*'	-6.71854
▁3	-6.72336
%'	-6.73025
AT	-6.73987
▁:#	-6.74043
!2	-6.74184
HX	-6.7572
▁S	-6.75824
%2	-6.75876
▁LX	-6.77441
AL	-6.77444
AF	-6.79124
9/	-6.81077
▁GXA	-6.85476
▁U	-6.8621
▁BU	-6.87127
▁E	-6.87171
<'	-6.87976
▁>	-6.89436
▁+'	-6.90255
AM	-6.90746
,2	-6.9081
(2	-6.91068
/4	-6.92051
O	-6.9241
X	-6.92772
AD	-6.95224
▁HX	-6.96543
AZO	-6.98454
▁R	-6.99645
▁;'	-7.01185
=:5	-7.01264
#'	-7.01589
('	-7.03824
HI	-7.04319
▁DI	-7.04537
R	-7.0508
:#	-7.06657
AN	-7.07099
-	-7.07469
▁:5	-7.08095
)	-7.10179
/(	-7.1029
▁HO	-7.11646
/8'	-7.13971
%"	-7.14085
[2	-7.14287
91	-7.14443
^	-7.14765
\1	-7.15077
▁O	-7.16722
▁31	-7.18058
(1	-7.184
▁IG	-7.18616
ZU	-7.19313
▁BI	-7.20321
LX	-7.24906
ZO	-7.26944
AB	-7.27587
QUA	-7.28106
2"2	-7.29601
7'	-7.29914
▁ZO	-7.29973
DOA	-7.30375
&1	-7.30632
DI	-7.30763
▁FV	-7.30776
:1	-7.32081
▁:(	-7.32148
2:	-7.32938
▁\1	-7.34837
▁:0	-7.36429
82	-7.38116
'"2	-7.38463
62	-7.38578
▁:('	-7.39662
▁+1	-7.39713
\'	-7.40686
HIA	-7.4071
▁MU	-7.42484
▁ZU	-7.42793
▁/1	-7.43009
DW	-7.43294
UA	-7.43829
▁%1	-7.44084
AJ	-7.44371
1"	-7.45793
31	-7.46302
'&1	-7.47375
ASA	-7.47631
DU	-7.49096
'/	-7.51004
92	-7.51395
HU	-7.5484
MU	-7.56442
:8	-7.56848
AXA	-7.57233
2/	-7.57389
+2	-7.58324
HE	-7.58516
▁QV	-7.58904
NV	-7.59338
LV	-7.59756
▁)	-7.60352
VA	-7.61443
'@	-7.62049
<1	-7.63068
/#	-7.63174
▁"-	-7.65575
GIA	-7.67508
AHI	-7.69056
▁GIAG	-7.69246
?	-7.69312
OM	-7.6961
▁SO	-7.69917
▁/6	-7.69977
▁/'	-7.70305
SA	-7.70323
▁TI	-7.70704
BV	-7.70807
LU	-7.7124
JU	-7.71913
▁HE	-7.71914
:(	-7.72539
▁IL	-7.73431
5'	-7.74117
▁/8	-7.74282
*"	-7.75134
0"	-7.7517
ALI	-7.75409
%:5	-7.75885
&'	-7.75895
▁/(	-7.77425
KIA	-7.77684
▁3)	-7.78333
▁2)	-7.78537
[1"	-7.79033
▁1)	-7.7914
▁TIG	-7.79437
▁?	-7.8038
/0	-7.81935
/5	-7.82353
AQV	-7.8242
(2"	-7.82835
▁&1	-7.82915
▁*	-7.83539
1@	-7.84828
)2	-7.84871
▁DIK	-7.85104
LO	-7.86621
FV	-7.86622
6-	-7.86859
Y	-7.87261
▁HIA	-7.87625
▁71	-7.87637
QV	-7.87817
1:	-7.88414
▁<	-7.88502
TV	-7.88858
▁/]	-7.8886
▁GU	-7.88908
AP	-7.89156
▁GX	-7.90265
81	-7.92228
2@	-7.92497
▁DV	-7.92664
▁CVAG	-7.93416
AKX	-7.93432
▁GV	-7.93817
▁QUA	-7.9388
ABU	-7.9414
▁/0	-7.95346
BI	-7.95365
▁\2	-7.96969
▁DOA	-7.97554
BE	-7.97835
▁QU	-7.98775
▁GIH	-7.98847
72	-7.99239
▁SVA	-8.00615
4/	-8.02784
AC	-8.03841
▁HXAG	-8.03976
▁BUM	-8.04226
LE	-8.04273
▁HOD	-8.05298
▁TUP	-8.05307
▁Y	-8.05726
GXA	-8.05865
:'	-8.08211
%"2	-8.09
OGO	-8.09995
MI	-8.11574
QU	-8.12088
SO	-8.12564
>':	-8.12644
▁+	-8.13277
':	-8.13618
▁10	-8.13701
▁TU	-8.14652
▁LO	-8.14707
▁BUG	-8.14799
▁:5,2	-8.15236
:#'	-8.15808
*"2	-8.16572
▁X	-8.16698
▁JU	-8.1694
HEA	-8.17084
HO	-8.18162
0&1	-8.20747
AGE	-8.20851
/8	-8.20993
!\	-8.23531
▁:'	-8.23882
AHO	-8.24242
5"	-8.25989
▁YG	-8.2603
GX	-8.27391
AE	-8.27505
▁/4>	-8.27909
▁<1	-8.28729
▁NV	-8.29461
▁/#/	-8.29638
ZA	-8.30002
▁IHEA	-8.30592
▁BV	-8.31211
▁ZW	-8.31368
▁IC	-8.31541
▁4)	-8.31542
▁:7	-8.31544
▁HXA	-8.32312
TU	-8.33001
_/4	-8.33339
AS	-8.33542
▁TV	-8.34281
AJU	-8.34379
:01	-8.35538
▁GVBU	-8.35715
UAGI	-8.36214
▁BUD	-8.36632
▁7	-8.36688
6"	-8.38542
JV	-8.39119
*2	-8.39798
▁ID	-8.40005
SU	-8.41242
AW	-8.41797
GU	-8.42182
_1	-8.4238
;	-8.43691
0"2	-8.43958
▁WAGIA	-8.44724
>+	-8.44819
▁6	-8.45752
▁9	-8.45942
1"2	-8.46313
▁KV	-8.4711
/4'	-8.47249
IBU	-8.47617
▁:0'	-8.4796
▁HV	-8.48016
▁DVAW	-8.48783
▁/7	-8.48863
HV	-8.48942
▁ZWG	-8.5022
"2^	-8.50443
SW	-8.51068
▁1997	-8.51671
▁PU	-8.52021
-"	-8.52107
▁MI	-8.52328
:('	-8.52618
▁/]'	-8.52806
NI	-8.53902
▁LU	-8.54229
▁:1"	-8.54434
=2"	-8.54446
▁]1	-8.55804
▁GIAGI	-8.56353
▁$	-8.56562
▁BUF	-8.56908
$"	-8.57024
▁MV	-8.57525
▁DII	-8.57561
AFU	-8.57907
*1"2	-8.58959
HXA	-8.59278
▁HI	-8.59961
2:1	-8.60057
#:	-8.60267
▁:8"	-8.60339
AZ	-8.60939
DV	-8.61584
▁GXAZ	-8.61682
AR	-8.62079
AI	-8.63291
▁NU	-8.63535
▁IF	-8.63616
▁SW	-8.63736
▁_	-8.6439
▁ZOW	-8.6456
▁TIQUA	-8.64584
▁:2	-8.6465
%;'	-8.64764
5"2	-8.64854
>"	-8.65037
▁CU	-8.66417
KE	-8.66921
▁CO	-8.66965
▁KXD	-8.66997
▁GEA	-8.67484
▁20	-8.67614
▁GIAQU	-8.67882
*1:	-8.67904
\:	-8.67994
9:#	-8.68322
▁<'	-8.684
▁ZOQUA	-8.68877
▁GIA	-8.69219
ADW	-8.69772
▁3'	-8.69963
▁%'	-8.70022
8'"	-8.70165
▁HU	-8.70178
["	-8.70809
DVA	-8.71615
AKI	-8.72643
!1	-8.72672
)1:#	-8.73865
▁:1:	-8.74045
:0	-8.74106
#"	-8.74113
;'	-8.74145
1/8	-8.74318
:5	-8.75983
8'3	-8.77736
▁ZWH	-8.77979
▁VAK	-8.78472
AHIA	-8.78791
▁CVA	-8.7881
,'	-8.79166
▁GIAB	-8.79188
:"	-8.79665
GEA	-8.81022
▁HXMU	-8.81584
▁:01	-8.82154
▁/#:	-8.83012
▁DU	-8.83067
>':"	-8.84295
ADI	-8.84708
▁IT	-8.84862
/6	-8.84866
▁GWAD	-8.85136
"2;'	-8.85149
KY	-8.85756
1/	-8.86002
▁TWAG	-8.87055
▁KX	-8.87203
▁*1	-8.87304
/7	-8.87487
▁(	-8.87511
</	-8.88335
▁1998	-8.88744
▁51	-8.88925
▁JUH	-8.90139
▁GIN	-8.90273
▁BIH	-8.90342
▁/_'	-8.90382
6'"	-8.90965
▁QUAHI	-8.91119
>2	-8.91254
DIR	-8.91416
▁GEAD	-8.91508
▁WL	-8.92031
4"	-8.9256
:6	-8.92869
▁1	-8.92894
0:	-8.93189
'>	-8.93273
/1	-8.93332
51"	-8.9395
DUA	-8.94292
+"	-8.94443
)'	-8.94956
^"	-8.95007
>1	-8.96311
▁7'	-8.96773
▁QUAH	-8.97546
▁30	-8.9792
%:	-8.98577
/_'	-8.98985
4:1	-8.99172
"2/5	-8.99568
$'	-8.9996
*1/#	-9.00431
ASU	-9.00867
VL	-9.01202
▁12	-9.01525
▁SU	-9.0232
^"2	-9.02779
2^	-9.03326
%2-	-9.03611
=2"2	-9.03681
%'"	-9.0373
'^	-9.03783
▁BUN	-9.03796
▁TE	-9.03963
AHW	-9.0416
%2,2	-9.05016
]2	-9.06139
ADUA	-9.066
▁15	-9.07562
▁IN	-9.0772
:6'	-9.08123
▁HIT	-9.08459
MV	-9.08579
▁13	-9.08867
▁V	-9.08928
9"	-9.09735
[':	-9.09773
[/#	-9.0996
*1"	-9.10032
TUP	-9.11175
▁:#'	-9.11262
TM	-9.11266
▁BUT	-9.11507
VAD	-9.12121
▁*'	-9.12724
KX	-9.12748
▁21	-9.13532
▁KIT	-9.14058
2&1	-9.14193
ASO	-9.14898
*/#	-9.15779
HWA	-9.15884
▁/5/4'	-9.1608
PU	-9.17137
▁19	-9.17174
JW	-9.1764
▁PIA	-9.17807
▁11	-9.17828
▁SAHX	-9.17886
▁ZAG	-9.18331
NO	-9.18615
▁TWAD	-9.19907
1,2	-9.20233
▁:5:	-9.20404
&':('	-9.20624
▁BUH	-9.20966
▁KIAG	-9.22036
▁IKI	-9.22511
':#	-9.22919
8:	-9.23046
52"	-9.23553
>/#'	-9.23701
▁HXAH	-9.23797
61	-9.24225
!'&1	-9.24945
AKY	-9.25
HY	-9.25054
':8	-9.2506
▁23	-9.25199
▁BUDW	-9.2559
▁BVG	-9.26407
▁BUK	-9.26431
4:1"	-9.26544
["2	-9.27055
4"2	-9.27087
1\	-9.27108
ADU	-9.27192
PV	-9.27196
▁,-	-9.27239
AKO	-9.27401
▁IH	-9.27629
ZW	-9.28522
;1	-9.28941
▁IW	-9.2924
▁18	-9.2925
#&1	-9.29447
9:'	-9.29937
&:	-9.30044
▁VANV	-9.30123
▁---	-9.30474
▁DISVA	-9.30573
$1	-9.30599
AMU	-9.30884
+'\1	-9.30957
▁?'	-9.315
\1+1	-9.31717
▁BVF	-9.31918
5/4'	-9.32731
%,2	-9.3293
▁&1<	-9.33662
ALU	-9.34329
UG	-9.34598
▁14	-9.34679
GV	-9.3489
▁16	-9.3489
▁100	-9.35289
▁KVD	-9.35747
+\	-9.36035
#"2	-9.36118
SVA	-9.36385
\"	-9.36417
▁%1/4	-9.37072
)1&	-9.37218
*'+	-9.37237
▁IK	-9.37363
▁ZOTV	-9.37617
▁:'?	-9.38006
▁/#'	-9.38035
%7	-9.38381
4':	-9.38389
8"	-9.38502
[:	-9.38758
GWA	-9.38949
▁1996	-9.39278
<"	-9.39896
:1"	-9.40152
▁IHX	-9.40415
]"	-9.4099
▁17	-9.41439
▁;	-9.42307
%2"	-9.42811
7"	-9.43344
▁24	-9.44274
AHXA	-9.44743
6':	-9.45447
▁QUAK	-9.45996
▁^"2	-9.46083
▁:1\1	-9.46255
▁25	-9.46982
▁GILU	-9.4713
▁TA	-9.47188
6'/#	-9.47402
▁GXASUA	-9.4745
▁VALI	-9.48073
▁ZWD	-9.48167
▁@	-9.48193
%'"2	-9.48504
8'"2	-9.48536
▁NVF	-9.49034
▁_1	-9.49305
▁4	-9.49581
/"	-9.50238
41	-9.50455
KIQ	-9.5058
▁]	-9.51213
+"2	-9.5128
&1"	-9.52162
9%1	-9.52404
▁/':	-9.52493
▁12)	-9.52544
UAJ	-9.52641
?'	-9.53028
▁^:	-9.53609
ANV	-9.53759
[1"2	-9.54054
AQU	-9.54089
?1	-9.54176
PIA	-9.54356
▁50	-9.5514
SAK	-9.55271
▁NVG	-9.55547
9'"	-9.55649
2)	-9.55945
AHX	-9.56262
1/5	-9.5651
▁:_	-9.56644
':1	-9.57089
6'"2	-9.5765
▁GOK	-9.58226
QUAL	-9.58299
▁]'	-9.5854
▁5	-9.58733
?"2	-9.59622
▁^"	-9.59705
▁HUA	-9.59898
▁LILX	-9.60207
▁IB	-9.60237
ALX	-9.60869
▁28	-9.61229
UH	-9.61657
▁26	-9.61716
TOA	-9.62486
▁LV	-9.62844
1/4	-9.63612
6-"	-9.63767
AKE	-9.63775
%/	-9.64523
▁HIAZ	-9.64594
▁GIADI	-9.65046
▁DWY	-9.65098
▁2	-9.65969
!'&1"	-9.66153
VAK	-9.66372
!2"	-9.66533
▁8	-9.66708
▁VA	-9.66942
1/7	-9.66999
4:	-9.67042
▁DIW	-9.671
2&1"	-9.67297
[\	-9.67704
8/0	-9.67872
▁IP	-9.67933
▁PV	-9.68332
▁:8:	-9.68815
!2/5'	-9.68876
▁&	-9.68879
▁ZV	-9.68917
02/	-9.68963
▁LII	-9.68979
▁40	-9.69141
*'"	-9.69219
▁ZOP	-9.69925
▁SQ	-9.70021
>"2	-9.70243
▁DIG	-9.70788
▁QUAB	-9.70984
*,2	-9.71047
'\	-9.71206
'+	-9.71207
=:#	-9.71427
8'/	-9.71816
AGIA	-9.71996
AGXA	-9.72137
▁22	-9.72202
2,2	-9.72823
▁BUL	-9.72828
▁/4:	-9.73169
6"2	-9.73375
]'"	-9.73508
,-	-9.73883
▁GIAC	-9.7401
▁27	-9.74075
▁KE	-9.74276
!':#'	-9.74734
2-	-9.74881
APV	-9.75098
9'&	-9.75607
▁GIAQ	-9.75949
▁HWD	-9.76575
'&1/8'	-9.76947
:01"	-9.76954
▁TW	-9.77123
▁"-/4	-9.77603
%:5"	-9.77771
("	-9.77807
VAHIA	-9.77949
6'/8	-9.78542
'/8	-9.78553
▁200	-9.78795
▁LE	-9.78814
52"2	-9.79044
>'/	-9.79114
UABV	-9.79309
%':6'	-9.79419
DOAG	-9.79595
▁GWA	-9.79731
#2	-9.80044
BVA	-9.80054
▁QH	-9.80545
▁LIDU	-9.80557
2/5'	-9.80579
▁IPIA	-9.80702
▁/6'	-9.80752
3"2	-9.80924
▁VG	-9.81887
7"2	-9.8201
(1"	-9.83722
;1^	-9.84026
',2	-9.84239
▁]1:	-9.84271
▁SVAG	-9.8429
51"2	-9.84462
DOAM	-9.84635
UM	-9.84695
WAM	-9.85546
3"	-9.8586
▁HUB	-9.86319
>:	-9.86371
&:#'	-9.87425
KOD	-9.87452
▁TUAQUA	-9.87628
AMV	-9.87813
▁BUZ	-9.8807
\')	-9.88222
▁ZOF	-9.88293
CO	-9.88575
▁DWU	-9.88686
▁&'	-9.88838
&"	-9.89591
▁ZOH	-9.89628
?"	-9.89632
▁HUNV	-9.8973
52:	-9.89753
>'"	-9.90026
▁SWAJV	-9.90034
[']	-9.90087
AVA	-9.9038
9'"2	-9.90569
▁BUHW	-9.90623
ATV	-9.90681
▁VAP	-9.90973
▁[	-9.91779
▁SUDU	-9.92196
▁GW	-9.92321
UF	-9.92873
▁TWAQUA	-9.92877
+',2	-9.93188
&2	-9.93354
▁KVAQ	-9.9364
▁IX	-9.93682
:'"	-9.93711
▁LIQ	-9.93788
▁WAH	-9.93932
▁29	-9.9425
TE	-9.94358
:9	-9.94412
▁DO	-9.94556
▁GWAFV	-9.94661
"2/4	-9.94858
▁ZOL	-9.94994
:7	-9.95052
▁SA	-9.95165
]"2	-9.95222
▁HWGWA	-9.95423
▁%1/	-9.95584
▁QUAL	-9.96005
+2"	-9.96011
▁"""	-9.96281
%2"2	-9.96455
+'"	-9.96552
▁JUG	-9.96688
▁^/4	-9.96708
▁GOQ	-9.9684
LIL	-9.96863
GW	-9.97424
#'"2	-9.97679
SAT	-9.98022
▁KY	-9.99004
VGO	-9.99135
▁:6	-9.99407
▁3-	-10.0021
/=	-10.0058
1/5'	-10.0105
▁GIS	-10.0107
71	-10.011
AJV	-10.015
KU	-10.0151
▁DOAC	-10.0159
:"2	-10.0159
ALV	-10.0159
:6"	-10.0163
'/4	-10.0174
1:1	-10.0183
▁NVZ	-10.0189
▁:5*'	-10.0211
&1"2	-10.0218
4&1	-10.0233
AX	-10.0281
▁:0/	-10.0292
=:	-10.0293
1/(	-10.0294
ABI	-10.0329
BUL	-10.0345
IF	-10.0382
▁JW	-10.0384
ALO	-10.0407
/'	-10.0422
02"	-10.0426
9:	-10.0471
▁7)	-10.0475
1^	-10.0481
+1/8'	-10.0489
<'"	-10.049
3'	-10.0538
/5'-	-10.0565
▁2000	-10.0566
9/4	-10.0566
UAJV	-10.0572
▁ZA	-10.059
ABV	-10.0596
▁CV	-10.0598
)1"	-10.0625
02:	-10.0634
ATO	-10.0653
('"	-10.0659
▁IM	-10.0728
3':	-10.0732
AQUA	-10.0774
LIK	-10.0793
▁GWAH	-10.0809
▁TO	-10.0822
9'/	-10.0824
▁:9	-10.0828
0,2	-10.0847
APU	-10.0858
IG	-10.0859
9"2	-10.0862
▁BUI	-10.0934
8"2	-10.0935
'/7	-10.0939
\"2	-10.0985
','	-10.1024
DEA	-10.105
▁GXAHIA	-10.1069
$/1	-10.1095
▁DVAJ	-10.1113
▁DIIG	-10.1127
▁LIL	-10.1151
HILE	-10.117
▁1995	-10.1249
▁,8	-10.1273
2/8'	-10.128
UAH	-10.1299
▁:2*	-10.1304
8'&1	-10.131
▁9)	-10.1323
!"	-10.1376
#^	-10.1378
)"	-10.1404
▁IBU	-10.1432
"""	-10.1433
^@	-10.1443
▁IQ	-10.1468
▁/8'	-10.1486
6'/	-10.1523
)1"2	-10.1547
>:(	-10.1587
▁IBVA	-10.1627
▁HIAF	-10.1637
▁TIV	-10.165
\/	-10.1666
2;	-10.1716
▁TIQUAL	-10.1758
':5	-10.1805
UAG	-10.1828
[1:	-10.1855
!'&1"2	-10.1855
▁10)	-10.1863
▁DIS	-10.1897
%7'	-10.1898
▁RK	-10.1906
CVA	-10.1913
[2"	-10.1932
DIF	-10.1937
▁YZA	-10.1986
▁BIM	-10.2015
▁TUG	-10.202
▁:/#	-10.2035
▁:-	-10.2043
'+1	-10.2122
▁HY	-10.2122
['?	-10.2156
AY	-10.2158
▁11)	-10.2158
)1/5'	-10.2167
▁TIK	-10.2179
▁HUG	-10.2188
▁&1/	-10.2197
ATUA	-10.2208
/8'"	-10.2214
▁60	-10.2218
▁IJV	-10.2225
▁7/	-10.2335
8/#	-10.2336
2:0	-10.2349
VPV	-10.235
▁1994	-10.2357
▁SVAH	-10.2406
AKU	-10.2459
▁ZAB	-10.2474
4'/	-10.2486
▁BVAZ	-10.2527
▁KXLE	-10.26
AFV	-10.2645
▁NVN	-10.2651
5"'	-10.2658
▁_:	-10.2673
OAM	-10.2681
▁DOAN	-10.2709
#:(	-10.2732
WA	-10.2738
▁80	-10.2803
▁TOAP	-10.2881
▁TWAH	-10.2993
DOAJ	-10.3006
▁TVD	-10.3018
9'-"	-10.3019
1)	-10.3028
\&1	-10.3031
▁90	-10.304
32	-10.3057
'&1"	-10.3063
▁1@	-10.309
&"2	-10.3112
IR	-10.3134
8'3"2	-10.3146
▁6)	-10.316
▁DWH	-10.3164
▁KO	-10.317
]&1	-10.3176
>:1	-10.3223
▁VAHWA	-10.3249
▁5)	-10.3265
▁^/	-10.3281
='	-10.3296
6/'	-10.3331
▁GXDIA	-10.3371
▁ZOD	-10.3378
▁500	-10.3398
▁:6':	-10.3408
ANI	-10.3414
▁BE	-10.342
▁TVH	-10.3421
▁JVR	-10.3437
▁GVA	-10.3485
▁QUAF	-10.3509
/"2	-10.3523
UL	-10.3559
UAC	-10.3643
AHU	-10.3663
▁HILE	-10.3664
▁GIAD	-10.3712
▁HXAD	-10.3771
▁\1?'	-10.3771
▁LIF	-10.3772
WAFU	-10.3773
UZ	-10.379
▁^/5	-10.3856
-""	-10.3857
]'"2	-10.3863
1:8	-10.3913
02"2	-10.3918
[/5	-10.3937
':(	-10.396
';	-10.3975
▁SAF	-10.3985
GVA	-10.4022
▁-	-10.4025
▁LEQ	-10.4042
▁?'&'	-10.4058
▁UZA	-10.4108
KO	-10.4116
▁KYSU	-10.4116
>'/8	-10.413
▁GWAL	-10.415
AZU	-10.4162
/_'"	-10.4201
▁NVBU	-10.4236
▁BVA	-10.4236
\1"	-10.4247
(1"2	-10.4275
▁HIAVA	-10.4326
▁DIB	-10.4327
"'	-10.4345
ATI	-10.4355
4@	-10.4364
▁LUH	-10.4371
*'"2	-10.4397
▁HIAB	-10.4409
!"2	-10.4429
▁ZAL	-10.4479
UK	-10.4479
/5'"	-10.4519
%':	-10.4536
▁70	-10.4568
81/'	-10.4592
91"2	-10.4616
BUF	-10.4661
>'%'	-10.467
ULI	-10.4679
[]	-10.468
▁HIABV	-10.4741
_1/6'	-10.4765
ANVH	-10.4771
\1:	-10.4776
AHV	-10.4789
1/[	-10.4789
'/1	-10.4798
91"	-10.4824
51:	-10.4841
▁:6'	-10.4852
BUD	-10.4874
+2"2	-10.4911
+1:	-10.4939
▁ZWDIA	-10.4951
<"2	-10.4986
4:0	-10.5039
0')	-10.5054
▁6_	-10.5084
KVA	-10.5115
▁300	-10.5134
>':1	-10.5164
▁KXH	-10.5169
UAP	-10.518
1:('	-10.52
AGIASA	-10.5214
IGE	-10.5235
▁GIALE	-10.5241
▁,2"	-10.5242
▁NI	-10.5271
▁HIAL	-10.5272
SAL	-10.5288
JVR	-10.5311
4':/8'	-10.5326
▁,\	-10.5338
IAHUA	-10.5343
%^	-10.5369
AHIABU	-10.538
(':8	-10.5393
▁PIAP	-10.5437
!')	-10.5446
,2-	-10.5489
SV	-10.5504
▁NVD	-10.5512
▁/4/1	-10.5513
KV	-10.5567
▁33	-10.5647
2/0	-10.5685
AVAG	-10.5691
▁_?	-10.5695
▁LIGI	-10.5728
▁]':8	-10.574
%1"	-10.5754
%1/#	-10.5754
"'^	-10.5791
_"	-10.584
▁GEAG	-10.5855
0:#	-10.5858
*1:"	-10.5889
*:	-10.5914
2\1	-10.593
▁KIA	-10.5951
2:8	-10.5951
'-	-10.5968
▁SV	-10.598
4/"	-10.6015
▁400	-10.602
▁3000	-10.6059
>'"2	-10.6111
4'/1	-10.6133
▁GIALI	-10.6182
▁IZO	-10.6187
!':	-10.6277
▁1000	-10.6289
AKV	-10.629
1:#	-10.6305
▁*?	-10.6306
▁SWA	-10.6329
XA	-10.6366
HIAG	-10.641
)1:	-10.6415
2/8	-10.6447
'/(	-10.6448
▁SVAD	-10.6513
API	-10.6514
▁:/8'	-10.652
▁SAK	-10.656
1:"2	-10.6645
ADV	-10.6673
+1"	-10.6697
▁1993	-10.6705
▁1.	-10.6728
▁WH	-10.6729
▁8)	-10.6746
8'/#	-10.6747
▁%'&1	-10.6748
6/	-10.675
▁DIA	-10.6759
*:#'	-10.6791
/8'"2	-10.6793
IC	-10.6801
▁BUP	-10.6804
\'"	-10.6807
▁BULI	-10.6834
▁ISA	-10.6856
['/	-10.6859
#'"	-10.6899
['"	-10.6917
]2/5'	-10.6941
▁/[	-10.6945
AU	-10.7017
ULX	-10.7051
▁KIAD	-10.7055
%:5"2	-10.707
PI	-10.7073
0&1"	-10.7102
▁NVK	-10.7105
KW	-10.7114
*/	-10.7121
VH	-10.7142
▁COA	-10.7171
▁GEAT	-10.7177
▁TWAHX	-10.7207
4'51	-10.7216
41/4	-10.7245
/]	-10.7254
BUK	-10.7289
*/'	-10.729
*-	-10.7296
▁HWAH	-10.7301
▁:"	-10.7304
▁2.	-10.7326
DO	-10.7347
▁HXAC	-10.7356
2:#	-10.7397
2&1"2	-10.7441
<'"2	-10.7451
[2"2	-10.7461
VAH	-10.7461
▁PVA	-10.7478
#\	-10.7484
>2"	-10.7485
AHY	-10.7533
62"	-10.7543
'-"	-10.7604
5"2^	-10.7632
8/	-10.7641
>+"	-10.7654
▁SAL	-10.7672
UC	-10.7674
*1/5'	-10.7677
:8"	-10.7683
9:9	-10.7707
9&	-10.7715
▁BUHE	-10.7734
8:9	-10.7735
WL	-10.7744
▁DIIT	-10.7758
AHE	-10.7762
\':1	-10.7841
IT	-10.7843
9"'	-10.7866
'&1"2	-10.7868
1-"	-10.7887
▁HOLI	-10.7918
SGE	-10.792
▁/2&/5'	-10.7921
▁DVAM	-10.7925
%/#	-10.7955
▁IKY	-10.7961
<'/4'	-10.7965
▁BUW	-10.7966
QUAK	-10.798
▁TIC	-10.7999
%'/	-10.8018
27	-10.8035
▁"-/#	-10.8036
▁QUABU	-10.8041
VAG	-10.8041
▁NVTI	-10.8051
>/8'	-10.8058
▁JVH	-10.8059
JUC	-10.8075
'"2^	-10.8093
BUG	-10.8095
▁/1:	-10.8121
YL	-10.8126
UAF	-10.8138
▁"-:	-10.8149
WAS	-10.8175
82"	-10.8181
'/[	-10.8183
▁GVASU	-10.8215
'"2;'	-10.8235
IL	-10.826
▁\/	-10.8264
▁SALU	-10.8265
+':	-10.8309
▁BUQ	-10.8311
▁LOH	-10.8313
▁52	-10.832
IA	-10.8327
:('"	-10.8344
[2&1	-10.8365
▁KU	-10.8402
':8"2	-10.8448
'/#	-10.8449
8'3"	-10.8484
▁-""	-10.851
▁&1\1	-10.8532
▁QUAT	-10.8559
▁BUJU	-10.8636
AGOL	-10.8655
▁HXAK	-10.8677
▁:#'/#	-10.8684
2+1	-10.8694
"2/	-10.8766
("2	-10.8769
<1,2	-10.8797
---	-10.8862
UAD	-10.8871
▁1999	-10.8887
▁KUK	-10.8912
▁1992	-10.8913
▁DIL	-10.893
$1:	-10.8932
▁GIAHE	-10.8933
DOAN	-10.8942
▁BVD	-10.8965
▁SUA	-10.8969
▁='	-10.9007
#,2	-10.9033
▁:8/#	-10.9034
31,2	-10.9045
UP	-10.9059
51,'	-10.9062
2"2/5	-10.9064
▁PI	-10.9072
]&1"	-10.9079
▁5000	-10.9086
▁TOA	-10.9138
#/8	-10.918
0/4	-10.9181
▁HIAH	-10.9185
*^	-10.9196
0/	-10.9208
<1:1	-10.9236
AZA	-10.9249
AKIA	-10.9267
▁CWA	-10.9282
#/0	-10.9288
▁TWA	-10.9303
1-	-10.931
▁DVA	-10.9328
</#	-10.9353
'/^	-10.9362
▁/:6'	-10.9372
▁BUJ	-10.9379
▁HXADW	-10.939
▁BUDV	-10.9401
VBU	-10.9415
▁%	-10.9422
=2-	-10.9438
▁SUH	-10.944
▁HIABU	-10.9449
[+1	-10.945
▁71/6	-10.9466
▁:8"2	-10.9477
62"2	-10.9496
▁SAGIA	-10.9501
</'	-10.954
▁20:1,2	-10.955
▁:5/	-10.9551
2/5	-10.9551
=2^	-10.9556
▁VCD	-10.9568
▁1-	-10.9616
▁GIW	-10.9635
DILI	-10.9636
▁ILX	-10.9639
VQ	-10.9649
81"	-10.9693
▁GUHXA	-10.9693
\:1	-10.9701
':8"	-10.9709
171	-10.9709
/[	-10.9709
AZV	-10.9715
▁NVP	-10.9731
▁PIG	-10.9737
▁KIAZ	-10.9737
AGX	-10.9751
▁::1	-10.9771
HXAG	-10.9772
]/8'	-10.9777
▁HXKI	-10.979
SVAG	-10.9798
▁3.	-10.9811
▁BUFU	-10.9835
▁:#'/8'	-10.984
!2"2	-10.9853
▁HUAH	-10.9859
UAM	-10.9889
▁TUAJV	-10.9924
▁HWGO	-10.9932
▁BVH	-10.9934
BUHW	-10.9934
1:"	-10.994
▁BUB	-10.9941
▁>1	-10.9951
▁HIAN	-10.9954
UI	-10.9962
1?'	-10.9999
ATOA	-11.0005
2"2;'	-11.0012
▁SUS	-11.0037
SVAGE	-11.0052
▁LUK	-11.0055
'/5'	-11.0056
92:	-11.0062
▁GIAKI	-11.0082
0;	-11.0084
▁ZWDOA	-11.009
▁ITI	-11.0105
▁QUAZUA	-11.0121
▁^31	-11.0123
%:1	-11.0138
AIDW	-11.0158
8:"	-11.0173
▁&/8'	-11.0206
▁^\	-11.0222
'+'	-11.0242
ADO	-11.0248
▁$'	-11.0255
EAR	-11.0259
ZAB	-11.0269
▁HVG	-11.0279
▁0'98	-11.0306
▁\-	-11.0312
▁/4:"	-11.0333
▁YM	-11.0336
6'&1	-11.0359
IB	-11.0365
▁DVAH	-11.0369
WAHE	-11.0384
>/#'"	-11.0396
▁/1/#	-11.0413
▁/4'	-11.0414
▁/9	-11.0424
6,2	-11.0446
▁1991	-11.0532
▁SHU	-11.0536
+1:"	-11.0538
'^"	-11.0554
=,2	-11.0559
AVABU	-11.057
#/	-11.0587
▁HWGU	-11.0616
'"2/5	-11.0632
5;1	-11.0672
!2?	-11.0685
]&1"2	-11.0702
BVAGX	-11.0726
1='	-11.0729
▁IFU	-11.074
▁^:1	-11.076
▁196	-11.0782
NIL	-11.0825
YH	-11.0828
▁HYN	-11.0837
0':0	-11.085
▁GUANX	-11.0853
▁?+	-11.0856
▁SUAH	-11.0862
!2='	-11.0882
<1"	-11.0899
▁/4'/4'	-11.092
▁BIJV	-11.096
OD	-11.0966
▁SUL	-11.0975
(/8'	-11.1
*2/	-11.1015
(/	-11.1028
▁HIAV	-11.1047
527'	-11.1071
GXAZ	-11.1082
▁4.	-11.1095
+:	-11.1144
'/5	-11.1145
9"'^	-11.1147
▁BUMV	-11.1162
51/	-11.1162
\1/	-11.1164
':"	-11.1215
▁2-	-11.124
XAHU	-11.1242
▁GUAGI	-11.1257
%'/1	-11.1293
▁+'%1	-11.1321
WAK	-11.1326
▁DID	-11.134
▁150	-11.1374
▁YDI	-11.1388
▁RZ	-11.1405
VD	-11.1437
('"2	-11.144
5'/#	-11.1456
▁QUAQ	-11.1491
UAB	-11.1537
0^	-11.1548
▁/4:"2	-11.1572
+1"2	-11.159
:'"2	-11.1594
\1+	-11.1602
▁VAG	-11.1626
▁NVS	-11.1628
$"2	-11.163
▁GIAH	-11.1644
▁BUHX	-11.1646
91-	-11.1646
▁QWA	-11.1661
_"2	-11.1673
;'/4	-11.1717
▁HIAJ	-11.1736
7'7'	-11.1757
IN	-11.1772
▁HIANV	-11.1782
52:'	-11.1808
▁TIM	-11.1822
▁_'	-11.1834
2^"	-11.1835
_1"	-11.1836
!2/	-11.1841
▁KVL	-11.1867
▁GXANV	-11.1868
▁KIAH	-11.1874
▁:2%	-11.1879
'\2"	-11.1903
0-	-11.1904
4,2	-11.1921
'31	-11.1969
*&1	-11.1989
_/4"	-11.2026
VATV	-11.2049
JVKI	-11.2055
AGW	-11.2095
AMI	-11.2103
▁NVQ	-11.2106
#_1	-11.2122
8'/8'	-11.2122
52,'	-11.213
%':"	-11.2156
▁IFV	-11.2156
%1:	-11.2173
▁+1:	-11.2188
)2:1	-11.2191
9:5	-11.2201
▁NVL	-11.2216
▁LIBI	-11.2217
▁IDU	-11.2224
2^"2	-11.2256
▁71/4	-11.2269
ABUL	-11.2295
)1/	-11.2338
▁SVAT	-11.2375
▁:8/8'	-11.2391
▁LIHIA	-11.2395
2"2^	-11.241
▁52/	-11.2437
'/4'	-11.2438
"2:	-11.2458
▁DOAF	-11.2467
▁TWAQ	-11.2474
▁YL	-11.2476
▁BVABU	-11.2487
▁UAK	-11.2492
'\2"2	-11.2556
!,2	-11.2572
▁^@	-11.2575
▁NO	-11.2587
▁DVAD	-11.2592
▁GXAG	-11.2603
%'-	-11.2607
▁GUAR	-11.2637
▁120	-11.264
▁600	-11.2646
/5/4'	-11.2659
8_1	-11.2666
\1"2	-11.2682
&'"	-11.2692
AKVA	-11.2699
VANV	-11.27
▁SUADVA	-11.2726
AHUA	-11.2727
&'-"	-11.2756
GVBU	-11.2788
]1	-11.2835
IH	-11.2847
/[1	-11.2867
▁*':	-11.2908
2;'	-11.291
"21997	-11.2912
:01"2	-11.2925
▁:(':	-11.2934
VZ	-11.2939
ADVH	-11.2947
▁QUAJ	-11.2979
17	-11.2988
▁1500	-11.2992
HWAL	-11.3015
!+	-11.3032
8'^	-11.3041
*1:(	-11.305
:1"2	-11.306
ZV	-11.3069
▁QUALU	-11.3069
!2/#	-11.3107
<1:#'	-11.3115
▁&:	-11.3122
[^	-11.3145
,'9	-11.3153
/]'	-11.3156
▁GODU	-11.3157
5:	-11.3198
AHWA	-11.3206
▁195	-11.3212
ATE	-11.3247
▁DOAM	-11.326
*1^	-11.3281
')	-11.3293
▁GEAH	-11.33
ZOW	-11.3307
7'"	-11.3316
▁4000	-11.3345
TO	-11.3368
▁98	-11.3371
!/	-11.34
▁TUA	-11.3408
▁:1?	-11.3409
:8'"2	-11.3414
▁QUHIA	-11.3431
]^	-11.3438
+'/	-11.347
▁/2&	-11.3488
▁SVAL	-11.3489
62/6	-11.3504
!'[	-11.3513
81/	-11.3517
%;	-11.3517
▁6000	-11.352
(':	-11.3538
CW	-11.354
▁193	-11.3547
▁1]	-11.3562
2"2/4	-11.3568
▁35	-11.357
AVAM	-11.3572
▁ZOG	-11.3582
▁/4>"2	-11.3584
▁1988	-11.3587
+'"2	-11.3617
6':8	-11.3625
'^"2	-11.3627
▁NOWA	-11.3645
/#:	-11.3649
9)	-11.365
▁JV	-11.3653
▁QUAKIA	-11.3658
&'"2	-11.3659
VG	-11.3659
▁QUAG	-11.3684
▁HYH	-11.3692
/5"	-11.3698
▁KVAD	-11.3724
="	-11.3725
)'"	-11.3734
)"2	-11.3762
▁QUAS	-11.3765
▁WG	-11.3772
JUG	-11.3776
6/9	-11.3777
▁BULX	-11.3779
BIH	-11.3779
ATU	-11.3792
▁LIJ	-11.3795
2/4	-11.3803
▁SVAC	-11.382
▁SVAB	-11.3852
UALU	-11.3857
▁BUGO	-11.3858
▁45	-11.3869
=2,2	-11.388
▁GIAF	-11.3898
▁HVLX	-11.3915
['"2	-11.3918
-""2	-11.3918
%:#'	-11.392
▁KVKV	-11.3931
*3'	-11.3936
▁HEA	-11.3941
SVAJ	-11.3942
\1_1	-11.3952
%1-"	-11.3969
HUA	-11.4008
SAB	-11.404
0'"	-11.4041
('^	-11.4047
AGIGE	-11.4049
▁LUZ	-11.405
91/	-11.407
1/'"	-11.408
*"2^	-11.4091
▁ULI	-11.4095
/9	-11.4107
VADW	-11.4115
(2"2	-11.4121
VAC	-11.4123
/8\'	-11.4125
<?:5	-11.4155
8:"2	-11.4166
▁2.5	-11.4178
ASOA	-11.4183
▁EH	-11.421
▁HVF	-11.4223
▁LEJ	-11.4227
▁SVAF	-11.4247
▁&1\	-11.425
▁NVH	-11.4265
▁10]	-11.4269
UAGXA	-11.4275
4?	-11.4275
'/8'	-11.4299
▁1990	-11.4302
0&1"2	-11.4303
6',2	-11.4347
SVAB	-11.4349
UAK	-11.436
BVL	-11.437
WAG	-11.437
GEB	-11.4371
▁PUT	-11.4386
▁HXAFV	-11.4397
UAL	-11.4408
*-"	-11.4413
NX	-11.443
▁IBI	-11.4435
▁KXG	-11.4443
GUA	-11.4449
▁110	-11.4458
▁GXAQ	-11.4467
5;1^	-11.4471
▁ISO	-11.4475
2:/8'	-11.4492
:('"2	-11.4498
UAQUA	-11.452
AKIZA	-11.4533
▁&1:('	-11.4546
5'7	-11.4552
▁5.	-11.4558
%*'	-11.4608
▁]1/#'	-11.4615
▁DIIW	-11.4629
!2_1	-11.4643
▁DIIGE	-11.4657
▁SUAL	-11.4684
▁\1/#	-11.4697
9%1"	-11.4728
!2@	-11.4784
#\"	-11.479
KVF	-11.4822
&1,2	-11.4841
GIH	-11.4867
GXASUA	-11.4874
AJW	-11.4876
9,2	-11.4894
#/8'	-11.4921
▁DWK	-11.4928
],2	-11.4947
\1/4	-11.4959
▁HXK	-11.4959
▁ZAH	-11.4963
▁DEA	-11.4963
2,'	-11.4986
▁GWAG	-11.4991
'71	-11.4993
VAMV	-11.5012
23	-11.5023
▁&'&'	-11.504
▁//'	-11.5057
'?'	-11.506
▁PIALU	-11.5073
▁20:1	-11.5087
1;	-11.5097
▁194	-11.5116
UADOA	-11.5116
▁PIAF	-11.5139
▁WC	-11.5144
▁1985	-11.5147
0'@	-11.5148
▁800	-11.5151
9%1"2	-11.5151
▁GIAL	-11.5189
ADOA	-11.5192
SUA	-11.5209
>)	-11.5214
+&	-11.5227
':('	-11.5238
IHEA	-11.5239
▁\1+	-11.5242
▁?')	-11.5279
▁^:8	-11.5284
6'^	-11.5285
▁TOAK	-11.5309
▁BUHIA	-11.531
▁/#'/#'	-11.5323
▁:1/	-11.5333
41,2	-11.5335
▁VAD	-11.5335
31"	-11.534
*2"2	-11.535
▁6.	-11.5356
▁197	-11.5368
'\2	-11.5375
▁NM	-11.5402
▁-""2	-11.5405
▁IBV	-11.5423
▁48	-11.5425
4^	-11.5438
"2199	-11.5438
▁DUGO	-11.5448
[':8	-11.5466
*;	-11.5492
GWH	-11.5495
▁DWHX	-11.5515
▁/0/0	-11.5524
"2\	-11.5533
▁::"	-11.555
LIH	-11.5554
51^	-11.5559
8&'	-11.5562
1/["	-11.557
2:('	-11.5573
▁YBU	-11.5586
▁TVAUA	-11.5622
*':	-11.563
9':8	-11.5649
!',2	-11.5669
▁ZVT	-11.568
▁^:#	-11.5702
IK	-11.5726
81/0	-11.5733
▁HXAT	-11.5744
/_'"2	-11.5753
▁QUAZA	-11.576
▁HWAF	-11.5778
*1:"2	-11.5783
TW	-11.5789
%1"2	-11.5799
7:	-11.5805
▁0'9	-11.5815
*2_	-11.582
/#/	-11.5847
91='	-11.5849
OAKI	-11.5859
▁BUGV	-11.5889
9'^	-11.5908
_13	-11.5914
▁LUD	-11.592
▁^110^	-11.5925
▁TUANISA	-11.5933
AGVBU	-11.5944
▁DIKIA	-11.5967
/0"	-11.5973
▁LIZU	-11.5989
8'&1"	-11.6006
*1:'	-11.6011
?',2	-11.6028
+'-"	-11.6032
▁HXAQ	-11.6033
▁\:1	-11.6047
▁TIHE	-11.6052
▁SVAM	-11.6052
[2:	-11.6057
▁NVDU	-11.6064
'*	-11.6065
4/-	-11.6073
▁IDV	-11.6078
2/#	-11.6083
#:"	-11.6089
//5	-11.6096
%"2^	-11.6128
▁GUD	-11.6135
2;1	-11.6142
▁DWF	-11.6153
▁"-/	-11.6162
1996	-11.6178
/8';	-11.6179
"2/#	-11.6187
▁:('/	-11.6189
▁GVAH	-11.6197
ZWG	-11.6216
KWA	-11.6225
LUS	-11.6246
<'/	-11.6283
\>	-11.6285
▁10:1	-11.6285
TOAQ	-11.6294
▁1986	-11.6311
▁TEA	-11.6312
'7'	-11.6326
ID	-11.6337
6':"2	-11.6341
1?	-11.6346
SVAH	-11.6348
▁DOAL	-11.6371
SAGIA	-11.64
2-"	-11.6427
VF	-11.6434
82"2	-11.6438
&1^	-11.6475
)1&1	-11.6557
▁QUAGO	-11.6575
%17'	-11.6591
▁1.2	-11.6607
▁[1/#	-11.6617
▁1989	-11.6635
2:1"	-11.6641
▁HVL	-11.6646
▁2]	-11.665
81"2	-11.666
▁58	-11.666
;'1998	-11.6661
9/8'"2	-11.6661
$:	-11.6688
▁HWL	-11.6695
4'"	-11.6721
/5'"2	-11.6722
UFU	-11.6739
▁WWA	-11.6743
3&1	-11.6758
▁/8':	-11.6764
▁+'/(	-11.6768
▁:2?	-11.6779
▁<':	-11.6793
INO	-11.6795
▁36	-11.6803
2:('"	-11.6815
▁PUA	-11.683
%"2;'	-11.6838
#1	-11.6854
AKXL	-11.6863
▁1987	-11.6866
*'+"	-11.6888
'\/	-11.6893
▁71?'	-11.6903
▁DISVAM	-11.6924
TEA	-11.6927
▁TOALI	-11.6933
▁::	-11.6946
*2:	-11.6959
▁HYVA	-11.6976
1"2^	-11.6976
▁BUGE	-11.6991
▁BVSW	-11.6991
▁20]	-11.6992
SVAT	-11.6999
▁8.	-11.7007
'7	-11.7017
92:1	-11.7021
KVL	-11.7021
#&1"	-11.7025
<^	-11.7048
▁DWC	-11.7065
▁HIG	-11.7075
%1/	-11.7094
▁HIAK	-11.7103
▁7.	-11.7108
▁,2"2	-11.7108
$-	-11.7109
▁_*1	-11.7111
▁QA	-11.7114
DOAW	-11.7116
▁TIQ	-11.7117
▁SWM	-11.7123
3:(	-11.7129
\1?'	-11.7131
"""^	-11.7138
%/7	-11.7142
:8"2	-11.7154
▁BUS	-11.7162
▁0.5	-11.7163
▁*1+1	-11.7169
':_	-11.7183
<?	-11.7197
>-	-11.7214
▁BUC	-11.7215
▁NE	-11.7218
>':1"	-11.722
NID	-11.722
WG	-11.7243
▁"""^	-11.7303
%':6'"	-11.7312
02/1	-11.7326
6^	-11.7327
▁/2	-11.733
BUKI	-11.7335
>2"2	-11.7369
AGU	-11.7377
1/0	-11.738
HIAL	-11.7383
%+1	-11.7416
';'	-11.7426
1,'	-11.7445
▁DVAG	-11.7448
▁KYL	-11.7467
▁]'"	-11.748
IQU	-11.7482
6':"	-11.7495
ABVA	-11.7511
BULI	-11.752
▁TOAL	-11.7526
1^"	-11.7529
▁BUDOA	-11.7566
▁NVB	-11.7569
"2"-	-11.7572
6'/#"2	-11.7583
<'/4'"	-11.7585
▁GVG	-11.7586
8/8'	-11.7595
▁1.5	-11.7595
▁:8)	-11.7612
BUGO	-11.7624
SAPVA	-11.7635
▁/1/	-11.764
▁BVKI	-11.7654
(1^	-11.7656
CVAG	-11.7656
%-"	-11.7698
71"2	-11.7726
▁/2+1	-11.7748
>2:	-11.7753
3)	-11.7777
:("2	-11.7792
▁+1?'	-11.7806
51;	-11.7812
VAX	-11.7817
▁"-:1	-11.7818
▁/2>	-11.7833
▁SKX	-11.7856
!'"	-11.7868
"2:8	-11.7889
▁1.6	-11.7901
CU	-11.7906
ASW	-11.7914
VAQ	-11.7915
,\	-11.7915
:0'	-11.7917
▁&7"2	-11.7924
BUN	-11.7924
▁YQUA	-11.7932
1"2;'	-11.794
▁%1/4"	-11.7947
'/"	-11.7948
▁KYGI	-11.7958
%^"	-11.7965
▁NIB	-11.7988
▁71:	-11.7992
VAP	-11.7996
/0:	-11.8006
]:	-11.8006
\1/0	-11.801
▁HVI	-11.802
▁HXAGI	-11.8028
UGO	-11.8034
GIAG	-11.8046
/'"	-11.805
▁/'<'	-11.8054
▁BVAD	-11.8068
▁GUK	-11.8076
▁SVAHX	-11.8102
%^"2	-11.8128
▁UG	-11.8139
DIK	-11.8146
▁GIL	-11.8177
CV	-11.8237
▁LUHX	-11.8243
▁HELI	-11.8253
62/5	-11.8259
NVF	-11.8262
:8'	-11.8263
▁DIM	-11.8281
&:#	-11.829
▁QUAM	-11.8292
6'/#"	-11.8294
8':#	-11.8302
▁9:1	-11.8306
▁NVM	-11.8367
9/]	-11.8372
8'"2;'	-11.8378
6'%'	-11.838
▁37	-11.8396
▁;-#1-2	-11.8414
▁DOAD	-11.8421
▁46	-11.8433
▁^/0	-11.8436
8^	-11.8457
*1"2/4	-11.8482
▁0.6	-11.8482
▁ZWW	-11.8485
9':	-11.8496
▁SVAW	-11.8525
UB	-11.8533
92:8	-11.8534
&,2	-11.8534
[':#'	-11.8541
'71"	-11.8555
▁IJ	-11.8557
9:'"2	-11.8576
▁KOG	-11.8583
BUT	-11.8586
%'-"	-11.8594
6:5	-11.8598
KXA	-11.861
5,2	-11.8611
▁2.3	-11.8617
▁0.1	-11.8619
DIA	-11.8621
LISA	-11.8635
▁SOAH	-11.8638
=2:	-11.8646
▁1,\3	-11.8687
*1&1	-11.8695
KUK	-11.8704
▁TUHX	-11.8706
!1:	-11.8726
'/0	-11.8733
▁GEALI	-11.8744
:_	-11.876
:5"	-11.8771
GXAHIA	-11.8771
▁:1:1	-11.8777
▁HIAS	-11.8789
8:#	-11.8818
▁SN	-11.8822
8':8	-11.883
!'&1,2	-11.8839
BUH	-11.8872
OAD	-11.8873
▁87	-11.8879
▁ITOA	-11.8885
▁3]	-11.8891
▁DIIH	-11.8894
▁;'/	-11.8906
\/1	-11.8914
UDI	-11.8919
OAF	-11.8932
81:('	-11.8936
▁DOAXH	-11.8945
▁HWLO	-11.8978
&1;	-11.8986
ALE	-11.901
▁ZWZ	-11.9036
▁140	-11.9038
<,2	-11.9052
VAHXA	-11.9054
▁BUBI	-11.9066
UJU	-11.9078
ZWH	-11.9094
▁1.0	-11.9104
▁192	-11.9106
IQ	-11.9134
▁:01:#	-11.9141
▁9.	-11.9144
▁DIZ	-11.9216
▁DIIBU	-11.9233
BUQUA	-11.925
TVA	-11.9257
▁2"30	-11.9296
VAHWA	-11.9297
▁SALI	-11.9298
SWAJV	-11.9302
#^"	-11.9304
7/0	-11.9307
UNIH	-11.9307
/#"	-11.9314
▁1.3	-11.9319
1^"2	-11.9323
02:"	-11.9329
▁71/#	-11.9337
▁HXAL	-11.9364
:6'"	-11.9365
▁)"	-11.9369
▁VAZ	-11.9378
YG	-11.9415
2&	-11.9421
=)	-11.9422
\2	-11.9425
52/4'	-11.9428
>&1	-11.9434
▁SVAJ	-11.9453
▁:('"	-11.9455
▁<'?	-11.9463
▁&7	-11.9465
▁LXHX	-11.9479
UZU	-11.9494
<1:	-11.9503
▁SAN	-11.9503
▁ZVQ	-11.954
EN	-11.9555
▁OG	-11.9571
▁GVAG	-11.9574
VAGIA	-11.9584
▁0.7	-11.9584
UT	-11.9588
▁/4>"	-11.9601
*'+"2	-11.9601
!7	-11.9618
%'^	-11.9622
▁BUVA	-11.9623
▁30]	-11.9629
▁^/#	-11.963
▁YBV	-11.9634
HIAP	-11.9678
HIAH	-11.9687
▁LOQ	-11.969
▁10.	-11.9709
▁5]	-11.9718
▁;-#2-2	-11.9734
▁:'?"	-11.9735
▁GOL	-11.9745
02/#	-11.9752
[1-"	-11.9771
ADUM	-11.9782
EA	-11.9804
▁0.3	-11.9809
/1"2	-11.9812
DOAC	-11.9823
▁IMU	-11.9824
8:#'	-11.9826
7':#	-11.9828
2:#"2	-11.9837
▁SG	-11.9838
▁1"3	-11.9842
5':	-11.9844
▁DVAFU	-11.9857
62^	-11.986
▁HWG	-11.9873
▁2"31	-11.9888
▁1984	-11.9893
UGE	-11.9896
▁GUG	-11.9898
▁DUQ	-11.9898
9^	-11.9919
▁425	-11.9933
▁:5/8'	-11.9941
▁DVAI	-11.9946
▁TIH	-11.9949
GVADI	-11.9962
>/#'"2	-11.9975
6'/]'"	-11.9983
]/	-12.0001
▁KWA	-12.0026
▁KVH	-12.0031
SVAL	-12.0034
':"2	-12.004
▁SM	-12.0041
▁GIDU	-12.0047
▁DVAB	-12.0056
]':	-12.0062
1"2/5	-12.0065
▁71/	-12.007
DVAGXA	-12.007
▁TVAW	-12.0073
JJA	-12.0079
▁:6'"	-12.0096
DOAF	-12.0099
\171	-12.011
DIB	-12.0113
1&1	-12.0113
▁ZVH	-12.0116
*:#	-12.0123
▁:'?"2	-12.0129
▁8000	-12.0135
▁:#':	-12.0143
=2:1	-12.0159
WU	-12.0171
▁47	-12.0172
▁;-#3-2	-12.0196
=/5	-12.0205
▁34	-12.0206
'31_1	-12.0209
UZO	-12.0212
2\	-12.0217
▁HXAHIA	-12.022
▁SWD	-12.0231
▁:('>	-12.0245
HWABU	-12.0245
▁/1&1	-12.0246
▁/#/4	-12.0277
*;'	-12.0286
IW	-12.0308
62:#	-12.0333
HUB	-12.0334
7/4	-12.0337
▁HYB	-12.0338
+':#	-12.0347
▁IGE	-12.0366
*2"	-12.0368
HXGIA	-12.037
/4'"	-12.0386
▁HUP	-12.0386
▁&1:	-12.0387
▁GWB	-12.0398
▁IZ	-12.0408
ZWF	-12.0425
1/'	-12.0439
▁KVQUA	-12.044
▁:1%:	-12.0462
0"2/5	-12.0474
$/1"2	-12.0478
0"2;'	-12.0496
"2>	-12.0499
UAJU	-12.0505
▁1100	-12.0507
VAM	-12.0512
▁KIAGE	-12.0515
*'/5	-12.0529
ITE	-12.0542
*1"2;'	-12.0552
▁31/	-12.0592
▁CW	-12.0603
VALU	-12.0615
:1:1	-12.0615
)1^	-12.0619
▁TVL	-12.0635
ADIA	-12.0642
▁DVAQ	-12.0657
>^	-12.0665
▁SVAZ	-12.0668
VALI	-12.0684
IDU	-12.0701
▁KIAJ	-12.0717
*2^	-12.0721
2:"2	-12.0745
*1"2/5	-12.0746
UAHE	-12.0746
AGV	-12.077
▁KIGI	-12.0774
92"	-12.0785
▁SAM	-12.0799
9:"	-12.0842
ALUS	-12.085
▁-"	-12.0853
>'"2;'	-12.0887
2:#'/8'	-12.0892
,--	-12.0898
▁38	-12.0912
▁NIJ	-12.0924
▁YB	-12.0936
)2"	-12.0941
SOA	-12.0956
▁HXAS	-12.0957
OAL	-12.0975
('/4	-12.0995
',-	-12.1005
▁KVKI	-12.1026
':("2	-12.1032
>+"2	-12.1033
▁_7'	-12.1033
1980	-12.1038
▁1.8	-12.1048
▁UA	-12.1048
▁&7"	-12.1049
="2	-12.1051
NU	-12.1054
▁5)"	-12.1069
VAS	-12.1079
▁31:'	-12.108
▁2500	-12.1114
▁JUKIA	-12.1122
HIAZ	-12.1145
6'/8"2	-12.1154
▁1200	-12.1156
▁HULU	-12.1176
+-	-12.119
▁;'71	-12.1193
▁HIANI	-12.1212
#&1"2	-12.1213
SVAC	-12.1231
:1:	-12.1244
VAJ	-12.1271
4\	-12.1272
BIJ	-12.1277
%;1	-12.1282
WDW	-12.1284
▁PVHO	-12.1301
[1&1	-12.1305
"2:1	-12.1319
▁UP	-12.1327
▁199	-12.1334
▁0.9	-12.1338
▁BVQ	-12.1343
▁180	-12.1352
▁DOAG	-12.1354
▁&1&1	-12.1365
▁0.8	-12.1371
ANU	-12.1399
▁GXAH	-12.1426
%/8	-12.1427
%"2/5	-12.1461
▁DISGE	-12.1488
'71"2	-12.1498
▁39	-12.1509
▁KIAB	-12.1531
>+1	-12.1543
▁HXAB	-12.1544
>':1"2	-12.1556
VDI	-12.1562
▁TUH	-12.1564
+'\1/5'	-12.1577
▁DIIM	-12.1588
▁KXA	-12.1595
▁WAGI	-12.1597
62/6"	-12.1609
▁IDW	-12.1609
02;	-12.162
▁TOAG	-12.1629
▁20:1-	-12.1648
▁HUH	-12.1652
▁VAN	-12.1665
▁DISVAGE	-12.1665
▁2.4	-12.1695
52/#	-12.1706
▁^/'	-12.1707
*'/4	-12.1717
▁BILU	-12.172
▁LXGE	-12.1724
>:("	-12.1724
▁700	-12.1735
7'"2	-12.1763
9'-""	-12.1769
2,'[	-12.1769
▁900	-12.1771
▁2.2	-12.1792
2\1?'	-12.1796
:-	-12.1804
UALV	-12.1808
/4"	-12.1809
31-"	-12.1822
IMU	-12.1823
0'/1	-12.1824
'31/#	-12.1838
6:	-12.1848
(1:0	-12.1853
▁KOSV	-12.1865
▁HUAJV	-12.1871
▁SVAK	-12.1875
*^"2	-12.1892
%/"	-12.1916
▁0.0	-12.1917
/#"2	-12.1929
▁DOAB	-12.1935
▁130	-12.1983
▁KVA	-12.1989
,2"	-12.1996
)1+1	-12.1999
▁61	-12.2005
UDW	-12.2019
▁KYKI	-12.2019
131	-12.2028
\'^	-12.2045
';1	-12.2045
1:5	-12.2049
▁GITOA	-12.2061
UAS	-12.2064
52:(	-12.2068
▁PUAM	-12.2068
/4"2	-12.2073
[1^	-12.2078
\^	-12.2081
▁SAD	-12.2083
▁JVKI	-12.2095
GWL	-12.2096
3-	-12.2097
4'"2	-12.2098
▁HWA	-12.2102
;'\2	-12.2116
*"2;'	-12.2117
▁QUAGI	-12.2126
▁BUKVA	-12.2131
+'71	-12.2145
▁160	-12.2149
▁0.4	-12.2154
5'/#"2	-12.2154
#-"	-12.2162
▁GIAHEH	-12.2166
&1/	-12.218
\/5	-12.2185
HELI	-12.222
▁SVAGE	-12.2221
▁SF	-12.2232
62/5'	-12.2238
▁HVH	-12.2253
+':7	-12.2254
▁^:5	-12.2267
#;	-12.2271
▁:1:"	-12.2294
%-	-12.2297
▁SAW	-12.2311
8/5	-12.2337
6;'1	-12.237
0'/	-12.2377
!2?"2	-12.2386
9&1	-12.2399
\,2	-12.2403
BUB	-12.2405
▁/]'/51	-12.2406
[':#	-12.2408
▁KYCVA	-12.2408
▁/8["2	-12.2414
>/	-12.2422
▁LOK	-12.2429
GEAD	-12.2438
_:	-12.2444
▁BUGI	-12.246
▁^:('	-12.2462
2?'	-12.2463
NIH	-12.2476
▁KXKX	-12.249
VAL	-12.2499
▁%1/4"2	-12.25
*1,2	-12.2503
1/#	-12.2505
331	-12.2518
BUM	-12.2528
▁WA	-12.254
▁HWHXA	-12.2546
▁HIAM	-12.2548
KIAT	-12.2548
▁ILU	-12.2551
6'"2^	-12.2557
[1"2^	-12.2558
▁/5:('	-12.2558
▁GEAL	-12.2563
GIAQ	-12.2564
9':('	-12.2565
"2/'	-12.2578
▁73	-12.2584
\:"	-12.2616
▁1949	-12.2621
=2/	-12.2632
ATVA	-12.2635
0"2^	-12.2647
82:5	-12.2658
DOASW	-12.2678
VT	-12.2713
6';1	-12.2718
/4>	-12.2739
▁DIIB	-12.2744
▁QUAI	-12.2767
▁ZAHIA	-12.2769
]';	-12.2779
▁GUJV	-12.278
:6'"2	-12.2786
6;	-12.2794
97	-12.2849
ACW	-12.2849
4%1	-12.2852
▁0.2	-12.2857
'\1	-12.2859
TOAL	-12.2866
:("	-12.2867
#:"2	-12.2885
/1"	-12.2898
HIAVA	-12.2915
▁>1&'	-12.2919
9'-	-12.2921
▁TOAM	-12.2937
&\	-12.294
TA	-12.294
5,'	-12.2967
▁11.	-12.2967
DE	-12.2972
▁YH	-12.2997
▁83	-12.2997
▁/6/231	-12.3006
▁3"30	-12.3018
▁SUALI	-12.303
WAH	-12.3031
02/"	-12.3032
▁TWAFV	-12.3057
'/]-"	-12.3057
▁1983	-12.3057
ALIL	-12.3067
▁0,'7	-12.3078
DII	-12.3104
▁1978	-12.3109
$,'	-12.3116
▁^:0	-12.3118
':("	-12.3129
▁/#'/	-12.3137
51-	-12.3139
\'"2	-12.3148
▁%':	-12.3171
▁93	-12.3175
%'/1"	-12.3179
▁;'195	-12.3191
▁HUHIAG	-12.3212
6'/8"	-12.3221
=2-"	-12.3235
[2:"	-12.3242
4:1"2	-12.3243
▁DISVAL	-12.3249
▁DOAX	-12.3254
GIAGI	-12.3256
▁IGI	-12.3284
4+	-12.3289
▁GXL	-12.3296
▁71_1	-12.3297
LIP	-12.3306
\-	-12.3314
▁LOZ	-12.3317
4/"2	-12.3332
▁HEM	-12.3339
▁1000]	-12.335
"2<	-12.3353
▁FUKIA	-12.3356
▁GIQ	-12.3365
NVH	-12.3373
▁BUJV	-12.3401
VMU	-12.3414
)^	-12.3419
JUH	-12.3436
9)"	-12.3436
*'3	-12.3436
6'-"	-12.344
▁1945	-12.345
DOAHX	-12.3454
]/4	-12.3466
!'&1;	-12.3469
▁:87'	-12.3471
"2;'71	-12.3492
JJB	-12.3498
▁250	-12.3499
▁11:1	-12.3502
0,	-12.3504
▁TUAF	-12.3509
▁;':	-12.3509
AGVA	-12.3514
'%1	-12.3516
DIVA	-12.3524
^;	-12.3535
DVAB	-12.3539
31"2	-12.356
$1"	-12.3576
▁DVAHX	-12.3608
▁8:1	-12.3616
▁BUGU	-12.3624
▁1.7	-12.3625
▁PVAD	-12.3629
▁;'\2	-12.3634
▁XAG	-12.3671
▁BUKI	-12.3679
LINO	-12.368
5:"	-12.3691
▁75	-12.3698
'$	-12.3701
JJD	-12.3701
92:1"	-12.3706
▁1982	-12.3724
▁WN	-12.3746
▁97	-12.3749
)1-"	-12.3758
▁1600	-12.3768
BVQ	-12.3769
_1"2	-12.3786
▁3"32	-12.3794
3-"	-12.3824
▁8)"	-12.3869
IM	-12.3879
▁0'"	-12.389
▁&1)	-12.3897
9/#	-12.3908
▁DIIKIA	-12.3912
GIAL	-12.392
▁SVAGI	-12.3921
▁BVV	-12.3922
+;	-12.3934
NIK	-12.3937
':-	-12.3954
▁DIAT	-12.3959
8'&1"2	-12.3959
▁1948	-12.3971
4>	-12.3973
▁SVBU	-12.3974
▁71%1	-12.3975
▁2.8	-12.3988
▁LIK	-12.3998
▁DIH	-12.4019
▁:2%"	-12.4041
▁EM	-12.4049
▁85	-12.4058
▁201	-12.4066
SJ	-12.4106
LIBU	-12.4121
UNI	-12.4127
▁/5:1	-12.413
▁500]	-12.4143
4:#	-12.4144
*:1	-12.4146
VB	-12.4148
▁1959	-12.4152
0"2/4	-12.4156
▁BUQUA	-12.4161
*"2/5	-12.4169
▁\1:	-12.4178
LOG	-12.4182
=2^"	-12.4184
AGIH	-12.4229
02:"2	-12.4232
▁GODOA	-12.4234
▁3.5	-12.4268
6'%"2	-12.4273
▁71+	-12.4278
'/6	-12.4279
▁&1:'	-12.4296
▁SVF	-12.4302
2,-	-12.4306
=2"2;'	-12.4315
%:#	-12.432
▁GIADV	-12.4327
▁3"31	-12.4341
0'31	-12.4342
SQ	-12.4342
▁/#:1"	-12.4351
4)	-12.4355
▁77	-12.4358
>/_'	-12.4367
':1"	-12.4374
%:5/5'	-12.4378
52:6%1	-12.4386
7\2,2	-12.4395
▁7000	-12.4395
IJ	-12.4412
HIAX	-12.4426
5-	-12.4427
2+'	-12.4437
▁-0.5	-12.4439
▁1,'	-12.4445
▁IGIDU	-12.4451
,2"2	-12.4455
▁43	-12.4467
';1^	-12.4475
SAWA	-12.4484
+2:	-12.4485
\'/]'	-12.4507
▁200]	-12.4508
▁KEA	-12.4514
▁DIKIAGE	-12.4527
2?	-12.4531
WC	-12.4535
+1/8'"	-12.4541
52/4	-12.4546
>'%'"2	-12.4556
2&/8'	-12.4565
▁67	-12.4569
5^	-12.4601
YA	-12.461
/8"	-12.4611
▁57	-12.4635
▁VAGXA	-12.4639
5?'	-12.4642
▁7:1	-12.466
▁]:	-12.4662
▁:2%"2	-12.4677
4':5	-12.4699
▁1000]&1	-12.4708
▁=	-12.4724
2:8"	-12.4733
"21)	-12.4736
▁68	-12.4741
GIAB	-12.4742
031	-12.4772
"2\1	-12.4776
▁TID	-12.4782
]2"	-12.4784
▁^>	-12.4786
▁BUZO	-12.479
IGO	-12.482
▁HER	-12.4821
▁IGU	-12.4841
▁50]	-12.4842
▁GXLO	-12.4864
'/'	-12.488
"2;'/6	-12.4886
▁DITV	-12.489
GEAP	-12.4891
%':6'"2	-12.4897
▁^)	-12.4899
▁300]	-12.4901
[^"	-12.4905
▁2,'	-12.4912
▁IS	-12.4933
6'/4	-12.4933
7-	-12.4948
KIAJ	-12.4955
VK	-12.4958
▁::1"	-12.4963
5"'^	-12.4971
BVAF	-12.4973
▁PVAG	-12.4975
6';1^	-12.4977
/51	-12.5027
HUAHUA	-12.5037
2/6	-12.5044
▁"-:8	-12.5058
UAQU	-12.5065
▁VAHX	-12.5068
1;'	-12.5076
7'/	-12.5082
6/5	-12.5089
▁1.4	-12.5116
▁8]	-12.5118
*1;	-12.5128
81^	-12.513
▁1400	-12.5131
▁VADISA	-12.514
7^	-12.5141
[-"	-12.5143
▁^3,'15^	-12.5143
▁1.1	-12.5146
▁^,8	-12.5152
5:#'	-12.5161
HXAH	-12.5162
"271	-12.5164
SVAM	-12.5166
WF	-12.5182
▁ZOZ	-12.5201
▁56	-12.5203
HUNV	-12.5206
*'"2;'	-12.5212
▁SAH	-12.5217
["2^	-12.5221
]'/	-12.5222
\_1	-12.5225
▁2700	-12.525
VAN	-12.5261
UBU	-12.5265
▁KVB	-12.5285
▁2.1	-12.5286
▁<':1	-12.5287
▁30.4	-12.5289
2%1"	-12.5304
7/7	-12.5314
<1"2	-12.532
02?'	-12.5327
3:	-12.5328
%1,2	-12.5345
HXAJU	-12.5345
▁PIL	-12.5347
>:("2	-12.5357
&:0	-12.5358
▁53	-12.5381
9'31	-12.5382
:5:	-12.539
"2:('	-12.5404
▁HUT	-12.5423
EAQU	-12.5435
▁DISVAG	-12.5436
SALU	-12.5438
9131	-12.5457
▁1956	-12.5465
▁TVTV	-12.5491
▁49	-12.5492
▁DISVAD	-12.5498
▁GEAK	-12.5499
▁GXAHY	-12.5512
▁3'/4	-12.5521
▁12.	-12.5521
▁QWAF	-12.5523
<1/0	-12.554
*'^	-12.5546
▁=1=1	-12.5558
0':6'	-12.5576
('51	-12.5577
2:7	-12.5584
8'6	-12.5586
;')	-12.5595
'"2/4	-12.5605
8':'	-12.5605
AWA	-12.5614
*:0'	-12.5616
>'^	-12.5626
▁LUM	-12.5628
%&1	-12.5635
▁LUG	-12.5663
▁,	-12.5664
▁420	-12.5679
4;	-12.5713
>31	-12.5721
▁0"3	-12.5723
2"""	-12.573
0^"2	-12.5748
▁5.5	-12.5754
▁DEAD	-12.5779
▁GXAL	-12.578
>'-	-12.5802
)1&"	-12.581
9'/4	-12.5816
07	-12.5843
▁GVAK	-12.5853
▁&:"	-12.5859
[2/	-12.5859
▁3500	-12.5864
▁^%1	-12.5875
▁KIAP	-12.5875
673	-12.5878
SAKU	-12.5887
+^	-12.5888
▁10)"	-12.5903
VI	-12.5928
AQUAL	-12.5936
▁71/0	-12.5938
%'/5	-12.5942
▁VAH	-12.5945
IBVA	-12.5946
\1:6'	-12.5951
▁LIV	-12.5965
(2/5	-12.5975
2/5'^	-12.5979
AIIHJAB	-12.5979
=2,2;'	-12.5982
▁/6:	-12.5998
▁NVT	-12.5998
▁HEH	-12.6007
▁^:6	-12.6016
UAFU	-12.6022
"2/]	-12.6042
31/	-12.606
▁63	-12.606
<':0	-12.6061
?1/7	-12.6087
▁-2.	-12.609
▁KIAKVA	-12.6092
6';	-12.6106
DISC	-12.6114
$:'&1	-12.6129
%/4	-12.6133
9'/51	-12.6133
▁1981	-12.6145
GXL	-12.6158
52^	-12.6166
▁/]31	-12.617
6':('	-12.6171
▁KVAU	-12.6178
▁DWD	-12.6189
▁QUAD	-12.6191
▁UK	-12.62
▁LUB	-12.6205
>1"	-12.6216
KWAW	-12.6222
1:('"	-12.6234
LIKI	-12.6241
+':#"2	-12.6248
▁GUAG	-12.6248
▁HEHE	-12.6249
1+1	-12.6251
▁\7	-12.6268
)1/5'"	-12.6278
UAHXA	-12.6278
971^	-12.6278
▁HWB	-12.63
▁DOAHX	-12.6321
:=	-12.6322
87	-12.6353
'_1	-12.6353
[2:8	-12.6354
>%1	-12.6357
4;'	-12.6362
/2+1	-12.6367
51"2^	-12.6386
▁89	-12.6387
31:5	-12.6406
BUQ	-12.6418
▁7':	-12.6424
+'%1	-12.6425
'*"	-12.6429
*/5	-12.6436
▁GXG	-12.644
8';'	-12.6445
42	-12.6464
HXAK	-12.6464
52-"	-12.6489
!2;	-12.6495
HIAB	-12.6496
6'/]'"2	-12.6504
*-""	-12.6518
LIJ	-12.6518
▁3.0	-12.6521
0/0'	-12.654
^"2/5	-12.6541
TOALO	-12.6544
'&17	-12.6546
▁HUAHIA	-12.6568
▁TVGO	-12.6577
2:1"2	-12.6577
▁100&1	-12.6595
1\1	-12.6609
▁HEF	-12.661
▁:#+1	-12.6613
[:8	-12.6634
NIN	-12.6639
▁100]	-12.6644
9','	-12.6649
▁1971	-12.6652
▁88	-12.6654
▁HEL	-12.6654
▁DUM	-12.6655
+2:"	-12.6662
▁LOD	-12.6667
▁/_':1	-12.6676
[1_1	-12.6678
%1:('	-12.6682
4/0	-12.67
▁198	-12.6702
1"2/4	-12.6707
▁450	-12.671
9/6	-12.6713
5;	-12.6715
1$	-12.6716
]:(	-12.6733
8]'	-12.6733
UJ	-12.6733
▁UAZ	-12.6733
4"2/5	-12.6744
!2/5'"	-12.6745
+2"2^	-12.6745
52;	-12.6752
0:"	-12.6753
▁&1&'	-12.6754
NILO	-12.6759
ZANI	-12.6777
▁HUTU	-12.6778
1/4"	-12.6781
▁60]	-12.6781
▁DIIL	-12.6788
%1^	-12.6789
.	-12.679
▁PVAQ	-12.6799
%1-	-12.681
7\2	-12.6811
QUAHI	-12.6816
ST	-12.6824
▁:6'"2	-12.683
▁DIT	-12.6833
BUZ	-12.6851
▁500&1	-12.6853
▁118	-12.6859
▁LOS	-12.6865
%'^"	-12.687
*1:5	-12.6876
&/0	-12.6878
▁2,\3	-12.6879
:^	-12.6892
▁IKIA	-12.6896
$:'/#	-12.6901
LUG	-12.6904
▁-0.9	-12.6905
1/5'"	-12.6908
▁<:	-12.691
▁^3	-12.6912
▁55	-12.6926
VKI	-12.6928
DISVA	-12.6929
▁SUAN	-12.6936
DOAI	-12.6937
02-	-12.6964
9':('^	-12.6983
▁BVL	-12.6984
2&1;	-12.699
▁IHU	-12.6997
▁):	-12.6999
7&1,2	-12.6999
▁KXDU	-12.6999
:5"2	-12.7011
▁0,'6	-12.7012
VAZ	-12.7016
▁DIIK	-12.7018
▁0,'4	-12.7019
▁LIT	-12.7029
^;'	-12.7031
5'/#"	-12.7038
▁BUNV	-12.7043
AHIALI	-12.7052
▁LOTO	-12.7058
HIANV	-12.706
52='	-12.7063
▁2.0	-12.7074
#"2/5	-12.7078
VFU	-12.7086
ZOL	-12.7095
7)	-12.7102
IS	-12.711
2:"	-12.7116
VS	-12.7116
▁:0':	-12.7127
▁GVADV	-12.7129
▁DUG	-12.7145
8_	-12.7166
!1"	-12.7166
%/7"	-12.7167
ACO	-12.7187
KIAGE	-12.7198
'&	-12.7203
▁42	-12.7211
"2:0	-12.7226
▁KVQ	-12.7237
▁HIAQ	-12.7248
?"2^	-12.7249
':1*1	-12.7251
/#'	-12.7291
▁HIAG	-12.7291
ABE	-12.7292
▁%1:	-12.7294
▁/0:8	-12.7297
!2?"	-12.7297
▁DIAGU	-12.7315
GEAH	-12.7329
ASAMU	-12.7333
OAFU	-12.7341
>-"	-12.7353
▁0,'1	-12.736
▁1,'5	-12.7376
▁:5*'/	-12.7382
▁7.5	-12.7384
▁DISVAT	-12.7414
▁333	-12.7416
NVHU	-12.7437
51/5'	-12.7443
!,'	-12.7445
UKI	-12.745
]2\	-12.7464
ASUA	-12.7491
VAT	-12.7491
▁QUY	-12.7505
2:'	-12.7522
▁1,'6	-12.7529
▁IHI	-12.7535
▁SUHX	-12.7539
7/5	-12.7541
:8'"	-12.7544
▁BVAG	-12.7546
+/	-12.7565
▁*1_	-12.7567
▁10]&1	-12.7592
HIAJ	-12.7609
2,'9	-12.7611
▁44	-12.7619
▁^3'	-12.7628
!^	-12.7642
GOL	-12.7657
TAM	-12.7658
#"2^	-12.7662
&1"2/5	-12.7671
92,'	-12.7674
DOALI	-12.7675
%'"2^	-12.7676
HYH	-12.7676
▁HWBI	-12.7679
*7	-12.77
#/#	-12.7706
▁2.7	-12.7709
ASAK	-12.7719
>'%'"	-12.7722
7"2;'	-12.7723
▁BUHXA	-12.7726
▁_/]'	-12.7746
▁71$	-12.7755
▁CWAG	-12.7766
▁GIG	-12.7775
▁31.	-12.7808
*:0	-12.7828
!2,'	-12.783
)'"2	-12.7836
VADI	-12.7846
=2"2/4	-12.786
▁5]&1	-12.7862
▁QUAZ	-12.7872
\1:6>1	-12.7876
▁;-#4-2	-12.7879
▁-0.7	-12.788
▁13.	-12.7882
91/:5	-12.7884
AIIHJCJ	-12.7887
30	-12.7893
▁"-1998	-12.79
47	-12.7917
['-	-12.7919
^-	-12.7919
>"2^	-12.7942
▁3,'	-12.7944
UAZ	-12.7945
UD	-12.7946
]/91	-12.7948
▁:_*	-12.7958
▁0.23	-12.7986
▁GOAG	-12.7996
▁SUAB	-12.8001
▁TVAD	-12.8001
▁GIAN	-12.8011
3:1	-12.8019
▁1.5]	-12.8024
▁"-:#	-12.8025
▁0,'0	-12.803
▁-0.2	-12.8033
92"2	-12.804
▁CVL	-12.8044
▁ZWKY	-12.8057
"21998	-12.8063
(1:	-12.8076
▁NX	-12.8077
▁40]	-12.8082
▁4.5	-12.8089
1:'	-12.8091
▁GXASUADW	-12.8095
▁-0.4	-12.8101
':0	-12.8111
!2/#"	-12.8112
▁VAWA	-12.8116
02/4	-12.812
▁2000+1	-12.8122
AGIBU	-12.8122
▁1963	-12.8134
JUGI	-12.8135
VLI	-12.8158
▁0.50	-12.816
&^	-12.8163
▁280	-12.8181
▁0,'5	-12.819
8':('"2	-12.8195
▁66	-12.8197
#'/5	-12.8202
%'&1	-12.8227
▁PIFU	-12.8229
TWAG	-12.8232
▁LIGXA	-12.8234
▁200+1	-12.8235
%"2/4	-12.8236
NVK	-12.8247
VGI	-12.8254
▁IDO	-12.8261
MBV	-12.8268
▁2000&1	-12.8285
▁170	-12.8289
JJE	-12.829
KOL	-12.829
[2:"2	-12.8333
▁GWAN	-12.8347
+1^	-12.8352
WH	-12.837
WAT	-12.8371
▁BUFV	-12.8374
['/#"	-12.8381
DOAT	-12.8386
▁PUAG	-12.8403
▁2400	-12.8406
▁1966	-12.8409
▁1,'4	-12.8419
▁+'%1"	-12.8422
[2&1:	-12.8424
▁GUALI	-12.8426
GIAC	-12.8428
)1"2^	-12.8428
▁LXLI	-12.8445
▁GY	-12.8448
%\	-12.8451
▁]&1	-12.8459
52;1	-12.8464
BUDW	-12.8468
6$1	-12.8472
0':	-12.848
2+	-12.8482
▁1969	-12.8486
▁10.6	-12.8497
WAZ	-12.8527
>;	-12.8531
▁TUAGIA	-12.8539
▁GEALU	-12.8547
41^	-12.8549
▁^:01	-12.8551
▁1,\4	-12.8562
,	-12.8565
["2/5	-12.8604
▁78	-12.8618
7/	-12.8622
GUANX	-12.8623
▁2.9	-12.8634
▁CVAT	-12.8637
▁HIAHU	-12.8639
▁;'/6	-12.8644
2"2/	-12.8644
IHX	-12.8649
7/4'	-12.8669
2-2	-12.8688
0-"	-12.8695
\:-	-12.8708
▁32,'	-12.8711
8'/8'"	-12.8723
▁13,'	-12.8726
▁"-:5	-12.8732
AVAT	-12.8732
:('^	-12.8738
'"2/	-12.8741
,-:	-12.876
▁1941	-12.8775
/'"2	-12.8785
#'/	-12.8793
▁LUF	-12.8799
6;'	-12.8801
▁40+1	-12.8803
<'/5	-12.8804
▁14.	-12.8808
!:	-12.881
▁YD	-12.881
>/1	-12.881
7"2^	-12.8811
/["	-12.8819
4^"2	-12.8819
NISU	-12.8832
▁TWAK	-12.8834
▁LEG	-12.8836
%1/4	-12.8846
▁/5/	-12.8846
ZOBU	-12.8846
3"2;'	-12.8853
%2"2;'	-12.8864
1997	-12.8867
>'31	-12.8882
▁/51	-12.8887
+"2;'	-12.8893
GIADI	-12.8901
▁107	-12.8925
▁3.2	-12.8928
$/	-12.8939
▁200&1	-12.894
▁1300	-12.8947
:2*	-12.8951
#/8"	-12.8967
5$':/#	-12.8985
▁108	-12.9
▁BUDI	-12.9004
▁DIID	-12.9016
;'/0,2	-12.9024
▁GXD	-12.9031
\1/5	-12.9037
1968	-12.9037
▁230	-12.9041
\131	-12.9051
▁>1>1	-12.9052
<'^	-12.9065
▁30.7	-12.9077
▁4]	-12.9081
▁0.30	-12.9082
▁0.27	-12.9087
?1"	-12.9094
5"2;'	-12.9096
)':	-12.9103
▁86	-12.9107
]^"2	-12.9114
1/1	-12.9123
2:('"2	-12.9137
4:8	-12.915
▁IPV	-12.9157
NVD	-12.9163
\1%1	-12.9167
#;'	-12.9171
▁60074	-12.9175
QL	-12.9187
731	-12.9187
IKI	-12.9193
_&1	-12.9199
0:5	-12.9203
▁NIG	-12.9211
+"2^	-12.9213
▁DOAK	-12.9214
▁SVAQ	-12.922
▁2300	-12.922
▁BUGX	-12.9234
82,'	-12.9235
▁"-31	-12.9242
[;	-12.9245
▁6.1	-12.9247
▁30.2	-12.9254
1998	-12.9257
WAD	-12.9265
▁_1-	-12.9274
▁3.3	-12.9299
▁0'"2^	-12.9315
▁360	-12.9318
\1^	-12.9321
4/4	-12.9322
52"2;'	-12.933
'"'	-12.9346
▁;'2,2	-12.935
#',2	-12.9352
,2-"	-12.9352
QWA	-12.9354
▁BIK	-12.9356
8^"2	-12.9363
▁12.9	-12.9363
$:'	-12.937
^"2;'	-12.9386
▁20+1	-12.9392
ZOG	-12.9402
▁/8["	-12.9402
▁::1"2	-12.9413
▁6"31	-12.9419
6/'"	-12.942
ASUT	-12.9429
SVAD	-12.9432
▁DISVAW	-12.9432
%';	-12.9438
▁LIKI	-12.9441
▁TUV	-12.9453
▁IQU	-12.946
5^"	-12.9465
+1:"2	-12.9468
▁14,'	-12.9472
(;	-12.9477
13	-12.9488
<1:#	-12.9496
▁HOGIA	-12.9502
9:"2	-12.9508
0251"2	-12.9522
▁;'1,2	-12.9528
▁GOGE	-12.9529
▁KIK	-12.9542
51:"	-12.9552
WAGIA	-12.9559
UAQ	-12.9588
_'	-12.9617
HXAL	-12.9617
GXANV	-12.9625
ALIGOA	-12.9645
/7"	-12.965
['\1	-12.9657
▁BVAQV	-12.966
2-""	-12.9664
AME	-12.9667
]:8	-12.9676
!2$	-12.9688
DOASO	-12.9689
<'/4'"2	-12.9692
6'/]'	-12.9711
▁/9>	-12.9719
#"2;'	-12.9722
5*'"2	-12.9731
▁126	-12.9753
LIQ	-12.9755
▁5.8	-12.9773
▁SVAS	-12.9785
▁1250	-12.9798
CDMA	-12.9801
▁?':#	-12.9804
▁32.	-12.9814
▁3:1	-12.9815
▁SAGI	-12.9818
▁0	-12.9819
--	-12.9819
_-	-12.9829
^,-	-12.9832
▁GVAC	-12.9841
▁:8%'	-12.9842
▁59	-12.9859
=2^"2	-12.9874
>1"2	-12.9907
0;'	-12.9918
▁ABB	-12.9934
▁HIAHV	-12.9951
▁;'/#	-12.9959
▁LIG	-12.996
▁GVHO	-12.9963
▁UAL	-12.9969
1;1^	-12.9974
▁SJ	-12.9984
*1:/	-12.999
%':8	-12.9995
$2	-12.9999
%/"2	-13.0007
UAKVA	-13.0012
['+	-13.0012
10	-13.0015
JJC	-13.0016
VAF	-13.0022
AGVAD	-13.0023
▁_/]'"	-13.0043
▁BVAGIA	-13.0052
VX	-13.0053
▁DIDI	-13.0068
▁7131	-13.0069
2\1"2	-13.0074
!'&1,2"	-13.0077
▁32	-13.0086
/61	-13.0093
▁ZOU	-13.0098
▁71*	-13.0112
1&1"2	-13.0117
ALIS	-13.0117
8,2	-13.0119
▁GIAK	-13.0136
GIG	-13.0142
8&1	-13.0145
0^"	-13.0154
▁10.9	-13.0159
▁YK	-13.0175
*1-"	-13.018
▁ZOK	-13.018
▁/2+	-13.0182
▁ZUAL	-13.0197
8]'"	-13.0201
700	-13.0204
;1;'	-13.0217
▁?:8	-13.0219
AHIADW	-13.0228
▁270	-13.0232
9"2^	-13.0235
▁;-#	-13.0237
▁117	-13.0238
AIIHJDJ	-13.0239
▁TUAGIADW	-13.0246
AGIAS	-13.0249
AIIHJCB	-13.0253
%;':,2	-13.0259
+:1/0	-13.0263
▁CVAZV	-13.0266
'/"2	-13.0267
27]&1,2	-13.0269
4':(	-13.0272
▁NOWADW	-13.0276
$/1"	-13.0281
%'^"2	-13.0284
▁-0.3	-13.0284
▁3.1	-13.0288
'?	-13.0292
▁-0.8	-13.0308
▁KVGO	-13.031
TIG	-13.0311
"2/8	-13.032
%2:	-13.0332
▁6"34	-13.0344
▁:2*"	-13.0357
▁KIGY	-13.036
▁/':"	-13.0368
▁115	-13.0375
';'6-	-13.0377
▁DIIPV	-13.0394
▁1000&1	-13.0397
IE	-13.0403
$'^	-13.0408
▁PVAH	-13.0432
▁6]	-13.0437
▁1,'1	-13.0441
▁375	-13.0441
▁1000+1	-13.0443
&1-"	-13.0445
GIADW	-13.0446
,'='	-13.045
+51	-13.0454
JJG	-13.0473
▁133	-13.0476
▁VAJV	-13.0479
▁2.6	-13.0488
▁BUIX	-13.0489
+/5	-13.0491
▁068	-13.0508
LOSA	-13.0509
IMV	-13.0519
\/0	-13.0522
*/"	-13.0525
2&1,2	-13.0532
▁\1&1	-13.0533
▁-2.5	-13.0535
▁TOAQUA	-13.0537
▁0,'2	-13.0545
9']	-13.0546
4-"	-13.057
JVL	-13.0576
▁HVDVA	-13.0579
▁:/4	-13.0582
52:5	-13.0586
▁1.1]	-13.059
DOADOA	-13.0604
5"""	-13.0609
▁0.60	-13.0621
]2:8	-13.0626
1:#'	-13.0629
81+	-13.0636
%:1"	-13.0637
▁1,\3"2	-13.0639
▁16.	-13.0651
0'^	-13.0654
▁-0.6	-13.0655
▁11.8	-13.0657
▁31,'	-13.0657
DWD	-13.0657
▁260	-13.0666
?';	-13.0667
7'^	-13.0668
JUT	-13.0676
▁^\1	-13.0682
':8;	-13.0683
WK	-13.069
▁PIALX	-13.0693
:1]	-13.0709
▁:5,2;'	-13.0712
"2:(	-13.0719
▁+1/	-13.0732
▁7'/'	-13.0736
▁30.1	-13.0753
LIDW	-13.0754
':1]	-13.0759
▁DISL	-13.0765
6'/5'	-13.0765
▁95	-13.0769
AZOLX	-13.0772
/6"	-13.0787
▁TVAH	-13.0809
▁340	-13.0809
▁SAQ	-13.081
▁HXAF	-13.0822
▁HIAX	-13.0827
▁069	-13.083
'&1;	-13.0842
"-	-13.0849
▁80]	-13.0849
▁0.35	-13.0851
"2&1	-13.0851
>*"2	-13.0861
▁122	-13.0862
[']&1	-13.0864
▁SL	-13.0872
▁/]'%'	-13.0882
ASAD	-13.0885
▁17.	-13.0887
5:8	-13.0888
4>1"	-13.0888
['/#	-13.089
▁^]1	-13.089
4:1-	-13.0892
▁1.9	-13.0901
ADVA	-13.0904
!2/#"2	-13.0925
!'&1,2"2	-13.0938
▁,1	-13.094
▁13.1	-13.0942
0;1	-13.0944
*^"	-13.095
▁1.8]	-13.0953
▁3.4	-13.0954
▁0,'9	-13.0962
>/5	-13.0963
▁QUC	-13.097
[1;	-13.0989
▁0.41	-13.0992
▁7':"	-13.0993
▁HWHX	-13.0998
[1"2/5	-13.1005
/1:	-13.1006
▁HIAHI	-13.1014
▁DIPV	-13.1019
4+"2	-13.1022
▁1,'7	-13.1026
▁3000]	-13.1029
▁12,'	-13.1046
WP	-13.1049
[1-	-13.106
▁WBI	-13.1063
'/#"	-13.109
*+1	-13.1137
▁18]	-13.1139
▁0.45	-13.1145
▁BVB	-13.1156
▁MIH	-13.1157
BUHXA	-13.1164
]&1;	-13.1184
\1/#	-13.1192
?"'	-13.1201
8':	-13.1215
2:#"	-13.1219
▁QAD	-13.1232
▁1,'9	-13.1235
5:1	-13.1257
8':('	-13.1258
▁^?	-13.126
▁/6?'	-13.1261
8?'	-13.1266
52"2^	-13.1273
HOD	-13.1276
▁DVDV	-13.1288
;':	-13.1293
<*1	-13.1295
▁3000&1	-13.1304
▁BUKX	-13.1306
4/5	-13.1308
▁QUB	-13.1314
▁TVA	-13.1315
%2^	-13.132
("2/5	-13.1321
▁10.5	-13.1321
:5'	-13.1322
%'/1"2	-13.1328
52\	-13.1329
▁GWAK	-13.1336
GVASU	-13.1352
▁374	-13.1358
8'^"	-13.1359
▁KVBU	-13.1361
▁--	-13.1374
4-	-13.1376
▁65	-13.1396
)':8	-13.1398
▁GIADU	-13.1413
%1:#	-13.1413
▁HIAGXA	-13.1416
BVAZ	-13.1417
EAFU	-13.1419
XAG	-13.142
▁6.2	-13.1424
=2"2^	-13.1424
▁067	-13.1429
▁NIH	-13.1431
"2/0	-13.1434
02?	-13.1434
▁18.	-13.1439
▁7:#	-13.144
KXH	-13.1441
9'^"	-13.1449
#^"2	-13.1452
▁4"3	-13.1459
▁:('"2	-13.1479
▁HUFU	-13.1479
[1;1	-13.1485
:"2;'	-13.1487
▁DWAF	-13.1488
▁+/4'	-13.1501
▁SC	-13.1503
▁1700	-13.1514
▁GIHX	-13.1525
▁1"31	-13.1535
_/4"2	-13.1546
DIL	-13.1546
'"21997	-13.1553
▁8.5	-13.1555
'/5'"	-13.1566
KWAZ	-13.1573
=2;	-13.1579
#:#	-13.1583
▁/1/6	-13.1585
▁LEB	-13.1588
*':#	-13.1595
?1"2	-13.1595
▁:1:8"2	-13.1604
GWAFV	-13.1606
▁QUAGIA	-13.1606
-2.0	-13.1615
*/4"	-13.1624
LOS	-13.1624
▁13]	-13.1638
▁7,'	-13.1646
<1^	-13.1649
=2"2/5	-13.1652
▁10.2	-13.1655
▁1997-1998	-13.1663
▁CIMS	-13.1665
▁144	-13.1666
AHIAI	-13.1667
0'"2	-13.1674
[',2	-13.1676
YATW	-13.168
▁1.20&1	-13.1693
▁^/]'	-13.1697
RZ	-13.1707
▁7131&1	-13.1707
+,2	-13.172
▁5:1"	-13.1736
▁HWAHE	-13.174
▁VAM	-13.1743
▁1,\3"	-13.1747
%2/1	-13.1751
9:9"	-13.1752
</4	-13.1753
▁7000]	-13.1771
VAB	-13.1776
SADW	-13.1777
▁VCDGIA	-13.178
&:5	-13.1782
52/	-13.1785
SASA	-13.1785
▁LODI	-13.1795
IP	-13.1803
▁0.37	-13.1805
▁60078	-13.1807
1/5'"2	-13.1811
'&1/8'"2	-13.1816
ACV	-13.182
&1"2;'	-13.1821
:_*	-13.1822
▁DILI	-13.1832
▁100]&1	-13.1836
▁1,'3	-13.1839
▁^<1	-13.1844
▁1,'5]	-13.1845
/2?'	-13.1846
▁2002	-13.1846
▁21"31	-13.1848
▁3.2]	-13.1861
▁323	-13.1866
*1"2^	-13.1871
▁^?'	-13.1882
▁_*1"	-13.1882
▁WAL	-13.1883
▁PIJ	-13.1885
SULI	-13.1889
+2;1^	-13.1897
AHIAL	-13.1912
▁13,'1	-13.1919
▁SUAM	-13.192
▁HWK	-13.193
(^	-13.1934
\"2^	-13.1938
▁500+1	-13.1941
▁56,'	-13.1945
▁125	-13.1953
NE	-13.1956
8',-	-13.1957
#2^	-13.1961
&1/]'	-13.1967
51,2	-13.197
ASALU	-13.1975
#+'+'"	-13.1977
▁PIK	-13.1979
+'-	-13.1982
▁KISVA	-13.1983
▁NEC	-13.1985
!)"2	-13.1994
TWAH	-13.1996
'/#;	-13.2004
▁,-199	-13.2007
82/5	-13.201
&1:	-13.202
ILU	-13.202
▁2020	-13.2023
▁NVGY	-13.2024
▁3,'8	-13.2034
43	-13.2037
▁-1.2	-13.2041
['^	-13.2051
]'^	-13.2052
▁11.7	-13.206
WAGV	-13.2061
▁KXBI	-13.2062
VADU	-13.2066
]-	-13.2071
▁0.29	-13.2073
▁WAF	-13.2074
▁HVK	-13.2082
▁379	-13.2089
)1:5	-13.2092
▁/6/4	-13.2096
▁1939	-13.2097
"2;':	-13.2103
51/0	-13.2109
YBV	-13.212
:/8'	-13.2141
▁4.2	-13.2142
=1	-13.2146
92/5	-13.2151
KUSA	-13.2153
▁7.1	-13.2159
/4'"2	-13.2162
ANO	-13.2163
\/1"2	-13.2167
2='	-13.217
▁20.	-13.2177
LIG	-13.2178
YAL	-13.2183
1/6	-13.2187
02/"2	-13.2195
▁DVB	-13.2199
:8]	-13.2199
4"2;'	-13.2216
!)"	-13.2218
▁7]	-13.2218
▁10.8	-13.2226
4&1"	-13.2232
OAQUA	-13.2235
▁177	-13.2239
▁/1:('	-13.2241
IAG	-13.2252
52:0	-13.2254
1987	-13.2258
▁41	-13.2261
▁15.	-13.2268
▁:"2	-13.2279
#/8'"	-13.2282
5/	-13.2302
+1?'	-13.2308
▁11"3	-13.231
▁3.8	-13.231
DEAL	-13.2311
LUL	-13.2313
▁10&1	-13.2315
▁HIAC	-13.2324
*2_1	-13.2338
IPIA	-13.2349
!'/0	-13.2349
▁GIAP	-13.237
▁ZOZO	-13.237
DIS	-13.2372
▁DOADOA	-13.2375
▁VLI	-13.2376
▁500]&1	-13.2382
▁/#/7	-13.2384
▁138	-13.2395
KVD	-13.2395
JJF	-13.2403
%':#	-13.2423
(2/5'	-13.2424
GIN	-13.2452
[2^	-13.246
ABUD	-13.2463
#/8'"2	-13.2466
▁LUT	-13.247
▁+/	-13.2473
6-""	-13.2476
/5'^	-13.2476
▁THXA	-13.2489
*1/5	-13.2495
▁:('/8'	-13.2505
▁240	-13.2527
▁-3.	-13.2531
▁25]	-13.2536
4'/6	-13.2541
▁1,'8	-13.2555
40]&1	-13.2578
▁ILI	-13.258
5#	-13.258
6&'"2	-13.2585
77	-13.2586
▁31:	-13.2599
▁BIG	-13.2606
▁^/6	-13.2614
9'/5	-13.2622
▁TWAC	-13.2624
;'\1	-13.2644
'/8'"	-13.2646
13"	-13.2654
"2;'/	-13.2658
51:#	-13.2663
▁WAJ	-13.2674
2/[	-13.2689
▁XR	-13.2691
3'"	-13.2699
;'/]	-13.2701
▁;'196	-13.2704
0?'	-13.2706
▁54,'	-13.2707
▁3.9	-13.271
▁0.21	-13.2728
▁9.7	-13.2744
2.5	-13.2752
▁KVT	-13.2757
▁LIH	-13.2761
▁+:	-13.2779
HIANI	-13.2779
▁6,'	-13.2802
▁/4:8	-13.2805
5&1	-13.2818
▁0.42	-13.2828
WX	-13.283
5:2%	-13.2832
▁DWZ	-13.2835
[1&1"	-13.2837
▁KVAQUA	-13.2839
[/6	-13.2847
$'"	-13.2847
▁2900	-13.2848
▁/#>	-13.2851
&'?	-13.2859
▁10+1	-13.2863
▁4.1	-13.2871
AGEA	-13.2875
▁4.7	-13.2884
▁+1/#	-13.2891
#\"2	-13.2897
5:"2	-13.2907
▁GWALI	-13.2933
SUADVA	-13.2936
\1+'	-13.2941
^---	-13.2964
OAH	-13.2972
▁OAL	-13.2987
737	-13.2989
8;'	-13.299
▁&'"	-13.299
▁%1"2	-13.2993
HXMU	-13.2995
▁HEG	-13.2998
/#^	-13.301
%'%	-13.3012
▁GVL	-13.3024
,2;'	-13.3024
▁SH	-13.3024
▁KYZ	-13.3025
#-	-13.3031
4>1	-13.3034
▁42.	-13.3053
6'&1"	-13.3058
767	-13.307
1,-	-13.3072
6'-	-13.308
▁/8[	-13.3081
SAD	-13.3083
GXAH	-13.3086
/0"2	-13.3101
!2/"	-13.3102
▁HXH	-13.3102
▁DOAZA	-13.3123
▁34,'	-13.3126
\&1"	-13.3134
UALO	-13.3155
DUH	-13.3156
\1:6	-13.3157
HIAT	-13.3161
#:8	-13.3186
▁DITU	-13.3189
2/5'"	-13.3195
[1&1"2	-13.3204
HIAF	-13.3211
▁HIK	-13.3213
▁ZWQ	-13.3213
▁"-:6	-13.3239
▁3:	-13.3241
▁ZWL	-13.3244
▁39.	-13.3247
▁9.8	-13.3249
^"2/	-13.326
▁071	-13.3269
▁4,'	-13.3269
777	-13.3272
▁4,'5	-13.329
▁14.7	-13.3294
▁*/6	-13.3299
51-"	-13.3299
▁DVD	-13.3303
51"2/5	-13.3308
▁365	-13.3315
▁10.0	-13.3316
▁TWAGE	-13.3327
;'/51,2	-13.333
▁,1-"	-13.334
4+"	-13.3341
1-3)	-13.3346
▁DVAF	-13.3346
▁>1&'"	-13.3354
▁SGE	-13.3355
▁IPIAPIA	-13.3359
1-""	-13.3361
▁-1.3	-13.3367
"2198	-13.3372
971	-13.3372
31:'/51	-13.3377
▁400]	-13.3379
▁TUB	-13.339
HUAGIA	-13.3395
▁GILX	-13.3396
▁/5'"	-13.3398
▁84	-13.3398
▁213	-13.341
6&1	-13.3411
#_1-"	-13.3416
▁60088	-13.3417
▁30.3	-13.3422
▁CVKU	-13.3424
0:"2	-13.3428
▁30,'5	-13.3432
▁3.6	-13.3434
41"	-13.344
▁9000	-13.3441
▁BUTIQUA	-13.3445
▁10,'	-13.3447
▁27]	-13.3449
)2/0'	-13.3451
81<]'	-13.3454
▁;'010	-13.3454
▁TVATU	-13.3463
2"33	-13.347
4^"	-13.3474
▁SALO	-13.3481
%/(	-13.3482
▁6/4	-13.3483
▁3300	-13.3485
▁1200]	-13.3497
▁60073	-13.3497
'31"	-13.3499
]&1"2;'	-13.3509
▁/91	-13.3525
\';1	-13.3527
▁71//	-13.3528
▁2000]	-13.3531
▁+1/0	-13.3568
▁6"32	-13.3569
▁-1.4	-13.3573
▁BULO	-13.3574
▁2.00	-13.3574
▁0,'8	-13.3575
&17	-13.3587
:1\1	-13.3588
▁300&1	-13.359
QW	-13.3592
▁1500]	-13.3595
2%1"2	-13.3599
▁150]&1	-13.3604
▁60076	-13.3604
[1^"	-13.3609
0'98	-13.3611
▁30.5	-13.3625
▁^1997	-13.3626
▁BVAGI	-13.3627
]/8	-13.3634
'-""	-13.3634
▁863	-13.3638
▁2.5]	-13.3638
WM	-13.3644
52-	-13.3645
▁GIAZ	-13.365
['/"	-13.366
LUK	-13.3661
▁5000]&1	-13.3665
▁14.6	-13.3669
62"2^	-13.368
':/8'	-13.3698
WAL	-13.3703
LUQUA	-13.3706
▁-1.	-13.3706
3^	-13.371
31:#	-13.3721
2:1:1	-13.3723
WR	-13.3724
'"""	-13.3725
0:(	-13.3726
▁,2;	-13.3727
\"2;'	-13.373
[2^"	-13.3733
▁_':1	-13.3742
▁060	-13.3748
▁0.40	-13.3751
▁PUAK	-13.3765
▁DIKIAT	-13.3769
9.00	-13.377
ANVBU	-13.3776
▁HXAGXA	-13.3782
▁GIAFU	-13.3784
YHUA	-13.3785
[:"	-13.3788
7-"	-13.3797
,-/4	-13.3797
▁:1:"2	-13.3797
:01"2^	-13.3804
▁063	-13.3805
GIQU	-13.3807
71"	-13.3808
1/"	-13.3823
2\1:	-13.3824
▁DIAMI	-13.3824
▁21.	-13.3835
/0/0	-13.3835
&"2/5	-13.3838
▁VADU	-13.3839
6/4	-13.384
?'"	-13.3841
▁\2:('	-13.3845
+1/	-13.3851
$'/4'	-13.3852
:1^	-13.3862
6/9"	-13.3865
▁?'+	-13.3868
/8^	-13.3869
▁;':8	-13.3876
▁370	-13.388
▁300+1	-13.3883
6"2;'	-13.3884
[2-	-13.3889
▁76	-13.3889
▁KW	-13.3899
▁0.44	-13.3918
':1"2	-13.3921
▁HIAHIA	-13.3922
▁13.6	-13.3925
%1,'	-13.3928
GIAQU	-13.3933
!-	-13.3936
OAGO	-13.3937
▁0.24	-13.3943
02^"2	-13.3955
▁16.4	-13.3961
KYKY	-13.3961
▁11.5	-13.3966
▁0.38	-13.3966
0&1;	-13.3967
HIAS	-13.3972
'*"2	-13.3973
92/9	-13.3974
▁/631	-13.3976
':1&1	-13.3978
"2\:1	-13.4
NISA	-13.4007
▁10.1	-13.4012
▁12.7	-13.4012
#:('^	-13.4016
4>"	-13.4017
▁1800	-13.4019
2/5'"2	-13.4032
&2"	-13.4039
II	-13.4049
&':('"2	-13.4055
6'^"2	-13.4056
USU	-13.4065
KIAG	-13.4068
*1/5'"	-13.4069
"2/#'	-13.4069
▁7.3	-13.4076
62,2	-13.4077
▁/#:1	-13.4078
ABUH	-13.4082
LEL	-13.4086
▁30.	-13.4103
GILU	-13.4106
9;1^	-13.411
ATEA	-13.4112
YM	-13.4135
▁PUAT	-13.4135
▁94,'	-13.4148
▁^"2/5	-13.415
',\	-13.415
6'"2;'	-13.4166
▁&/8'"	-13.4169
ZOU	-13.4179
▁SUAJ	-13.4195
"2?	-13.4197
▁2,'1	-13.4199
!'"2	-13.42
>+'"	-13.4218
▁71:('	-13.4223
▁DISG	-13.4227
▁423	-13.4229
:2	-13.4231
▁KVG	-13.4251
%?'	-13.4261
)/5'	-13.4265
>2"2;'	-13.4267
▁GXHIA	-13.4271
▁&1/7	-13.4274
▁60006	-13.4275
SAF	-13.4277
SUH	-13.428
▁10]&1"	-13.4287
/91	-13.4287
"2^;'	-13.4293
▁20:1-1	-13.4294
8'^"2	-13.4314
SSW	-13.4315
,'96	-13.4319
VLV	-13.4333
▁2,'4	-13.4349
'/_'	-13.436
▁+31	-13.4361
LUD	-13.4362
<':0"	-13.4363
▁1975	-13.4367
];	-13.4372
▁8,'	-13.4385
[1"2;'	-13.4386
▁NVC	-13.4396
\&1"2	-13.4399
▁)"2	-13.4409
52[	-13.4425
SAS	-13.4431
0_1	-13.4434
%17	-13.4445
ZWL	-13.4446
▁HXAGUA	-13.4452
1_1	-13.4457
YAG	-13.4465
▁HIMI	-13.4466
['+1	-13.4475
[^"2	-13.4485
OABU	-13.4487
▁430	-13.4519
▁20]&1	-13.4527
▁5.4	-13.4532
SAM	-13.4536
UQ	-13.4537
▁386	-13.4552
▁>%'	-13.4555
▁:1%	-13.4555
▁BVT	-13.4557
(1^"2	-13.4561
'/51"	-13.4561
?:	-13.4563
VAQU	-13.4569
:1]&1	-13.4569
ASVA	-13.457
▁60009	-13.4579
62-"	-13.4595
▁BVAL	-13.4617
▁550	-13.4627
*';'	-13.4627
▁HVX	-13.4631
HULU	-13.4648
1/4'	-13.4653
▁DWL	-13.4656
(2:0'	-13.4659
]+1&1"2	-13.466
▁YP	-13.4665
▁SUAD	-13.4667
▁18,'	-13.467
VAZU	-13.4682
▁128	-13.4687
BVF	-13.4696
<'"2;'	-13.4705
*1/	-13.4715
▁54	-13.4715
▁^-	-13.4719
30.6	-13.4742
5^"2	-13.4745
▁BUCVA	-13.4754
▁GVH	-13.4763
6':6	-13.4772
▁_+	-13.4782
6/(	-13.4794
['-"	-13.4794
AKIAB	-13.4806
▁114	-13.483
▁LOB	-13.4838
▁MUX	-13.485
▁24.	-13.4851
3/#	-13.4852
▁*?"	-13.4857
(2^	-13.4859
▁GEG	-13.4871
▁&131	-13.4873
▁QUAR	-13.4875
▁IHW	-13.4884
'"2"-	-13.4891
WAF	-13.4917
2,--	-13.4923
^;1	-13.4926
▁TITU	-13.4926
1/0'	-13.4929
▁3000&1"	-13.4948
BUGX	-13.4958
▁BUTO	-13.4967
GOAFV	-13.4972
-0.4	-13.4973
8"2^	-13.4981
0'"2^	-13.5006
8'/8'"2	-13.5007
▁//'"2	-13.5013
FUSAGIA	-13.5013
$:5	-13.5018
KOSV	-13.5021
1&	-13.5023
▁1,\4"	-13.503
)1-	-13.5033
LOTO	-13.5047
\1-"	-13.5048
67	-13.5049
▁GUAS	-13.505
"-/4	-13.5053
/8^"2	-13.5055
▁GED	-13.5068
+'/4	-13.5077
▁SAT	-13.5082
SVAF	-13.5083
▁0.51	-13.5093
▁LOZO	-13.5095
TVLU	-13.5098
▁0.25	-13.51
▁1.4]	-13.5108
HEHE	-13.5111
1.00	-13.5113
▁BVMU	-13.5115
▁LIZ	-13.5139
NVZ	-13.514
▁2]&1"	-13.5142
5/_'	-13.515
▁10.3	-13.5155
5*'	-13.5167
91:5	-13.5169
HWL	-13.5169
▁KUA	-13.5185
!"2^	-13.5189
"2+1:	-13.519
▁GWZU	-13.5191
BNP	-13.5193
▁15]	-13.5197
▁/1/6"	-13.5216
▁HXATV	-13.5219
"30	-13.5221
:;	-13.5227
'%'	-13.5262
▁100733	-13.5262
=2;'	-13.5286
8;	-13.5289
>'/9	-13.529
"2:#	-13.5308
>"2;'	-13.5311
-18	-13.5322
9;	-13.5323
AHIADU	-13.5324
▁;-#5-2	-13.533
▁;']&1,2	-13.533
▁50.	-13.5335
▁1291,'	-13.5344
!;	-13.5345
5&1:	-13.5346
▁84,'6	-13.5346
▁30,'7	-13.535
,'73	-13.5352
▁19,'	-13.5354
▁31:/0	-13.5363
2%1	-13.5363
HXAC	-13.5364
20	-13.5369
$'/7	-13.5371
▁6"33	-13.5372
▁^/#/	-13.5376
6'/5'"	-13.5378
▁TOAT	-13.5381
?1^	-13.5382
▁LUHXGIA	-13.5385
:6'"'	-13.5387
▁26.	-13.5387
><1<1	-13.5387
▁262.8	-13.5388
7.00	-13.5389
0','	-13.5389
UN	-13.5394
▁163	-13.5398
▁2100]	-13.5399
▁387,'	-13.54
▁GVK	-13.54
9/8'	-13.5403
1995	-13.5404
▁6.9	-13.5407
▁1,'3]	-13.5409
▁30,'4	-13.5409
>'%'"2;'	-13.5411
▁1286,'	-13.5417
▁-0.1	-13.5417
5'/#-	-13.542
%/8'	-13.5426
GIHXKI	-13.5427
▁+1)	-13.5431
▁^/]	-13.5438
>2)	-13.5443
<?/#	-13.5452
▁^$	-13.5455
▁^110	-13.5456
HIAM	-13.5456
PVA	-13.5461
#&	-13.5463
▁7.5]	-13.5466
▁:5\	-13.5466
',2"	-13.5467
*1,2-"	-13.5469
9';'	-13.5473
▁:/8'"	-13.5482
▁SB	-13.5487
HIAGW	-13.5488
▁60089	-13.5497
LOMU	-13.5498
▁2500]	-13.5499
▁065	-13.55
▁;':,2	-13.5505
▁QUF	-13.5506
ULU	-13.551
▁GVAZ	-13.551
2&"	-13.5515
▁7500	-13.5518
SUL	-13.5519
)1"2;'	-13.5527
PUPU	-13.5528
:01^	-13.5534
▁SUAI	-13.5538
▁52,'5	-13.5541
(2"2^	-13.5541
▁GWAB	-13.5544
333	-13.5545
▁BPGIA	-13.5545
▁;'3,2	-13.5546
▁1000&1"2	-13.5547
▁-0,'	-13.5547
AHIANO	-13.5547
▁:8:"2	-13.5551
6':(	-13.5558
▁184	-13.5559
\2,2	-13.5568
37	-13.5568
]';'	-13.557
33	-13.5571
▁HXPUA	-13.5576
#:^	-13.5581
▁687	-13.5584
▁0.33	-13.5592
▁17.4	-13.5599
▁^/8	-13.5603
+/0	-13.5605
%'/4	-13.5614
9+'"2	-13.5615
-",2	-13.562
▁-1.5	-13.5634
▁DIAQ	-13.5634
"2196	-13.5635
#'"2/5	-13.5638
▁2048	-13.5639
#+'+'	-13.5645
▁0.53	-13.5645
>'+1	-13.5653
▁IMF	-13.5668
▁DIKIAW	-13.5669
]'"2;'	-13.567
▁SOALO	-13.5673
▁WALI	-13.5673
▁SUAG	-13.5674
6]'	-13.5675
▁6.8	-13.568
<-	-13.568
▁1,'0	-13.5683
DVAW	-13.5683
▁\+1"	-13.5685
▁2,'5	-13.5689
\1;	-13.569
BVAJ	-13.5691
▁GODUKIA	-13.5693
▁KUZ	-13.5693
▁8500	-13.5696
HIABV	-13.5698
▁0.36	-13.57
▁600]	-13.5706
!2('	-13.571
▁DVZ	-13.5711
'='	-13.5716
▁HUKI	-13.5719
▁18.6	-13.5721
SAHX	-13.573
\1/0$	-13.5731
▁410,'	-13.5735
▁0.46	-13.5741
:8"2^	-13.5743
▁-1.1	-13.5745
)1&1"	-13.5745
!2/'	-13.5749
:2?	-13.5773
"2::1	-13.5774
,'68	-13.5787
ZOD	-13.5788
▁PVATV	-13.5798
▁12.8	-13.5807
▁CT	-13.5808
51/"	-13.5813
▁QWAD	-13.5815
▁120]	-13.5816
▁BIL	-13.5818
▁UALI	-13.5824
▁DVALE	-13.583
PIKI	-13.583
-"-	-13.5836
▁-"-	-13.5837
(1:('	-13.5839
,'56	-13.5853
▁168	-13.5861
!1:01	-13.5861
▁110]	-13.5868
▁19.5	-13.5868
8'"2^	-13.5871
▁VAL	-13.5872
8':('"	-13.5873
HXAFV	-13.5874
LIJU	-13.5877
/2*1	-13.5879
TUAJV	-13.588
!\"'	-13.5883
▁TIZ	-13.5886
▁1.85	-13.5888
▁60070	-13.5889
9'/"	-13.589
▁1200&1"	-13.59
▁16.8	-13.5904
▁CWAHW	-13.5905
▁GEATI	-13.5907
8',2	-13.5909
1-2)	-13.5919
▁]1/#'"2	-13.5919
8283	-13.5925
+':#"	-13.5927
02/#"	-13.5931
▁KIH	-13.5934
▁QUASVA	-13.5939
KXLE	-13.5947
,'39	-13.5956
▁GEDU	-13.5957
[']&1"2	-13.596
▁14.4	-13.5963
HUAT	-13.5964
▁3.01	-13.5966
/^	-13.5986
▁0.58	-13.5993
▁650	-13.6003
['&1	-13.6003
▁60007	-13.6005
▁1970	-13.601
▁3,'5	-13.6011
▁]'/]'	-13.6013
IHE	-13.6013
▁QUH	-13.6014
▁:2?"	-13.6018
▁52/"2	-13.6028
▁:#:"2	-13.6029
/[-"	-13.6032
_13"	-13.6034
0"2:	-13.6034
ZOZO	-13.6035
▁7':"2	-13.6039
▁330	-13.6043
2]	-13.6045
(2-	-13.6047
▁12]	-13.6067
▁SVALU	-13.6069
▁070	-13.6073
ZOH	-13.6075
DWP	-13.6082
UAN	-13.6086
1.29	-13.6099
'/=	-13.6101
▁436	-13.6105
AKXA	-13.6113
>'"2/5	-13.6125
:5,2	-13.6129
*2_"	-13.613
▁HXAFU	-13.6147
'"2:	-13.6152
▁7:#"	-13.6159
GWAD	-13.6162
▁GIAHO	-13.617
*'-	-13.6174
/4:	-13.6175
VN	-13.6179
*/8"2	-13.6184
6-""2	-13.6187
▁38]	-13.6192
▁2.25	-13.6194
▁98,'	-13.6202
'/0:#	-13.6204
;'18	-13.6206
5/4	-13.6206
AZODW	-13.6208
GUAHU	-13.6217
▁60008	-13.6223
▁SOA	-13.6226
AKIAJ	-13.6232
▁16.2	-13.6236
0,-	-13.6237
▁:(+	-13.6238
9'"'	-13.6241
▁35.	-13.6246
▁60072	-13.6251
▁1915	-13.6273
*2_"2	-13.6278
▁12:1	-13.6282
ZOP	-13.6283
▁%/#	-13.6284
▁:'/	-13.6291
▁SVAP	-13.6291
ADVADVA	-13.6297
500]&1"	-13.6299
▁/:	-13.6304
62?	-13.6304
▁PVAN	-13.6317
▁58.	-13.6323
4"2^	-13.633
AIIHJCA	-13.633
▁DVAX	-13.6332
2]'"	-13.6338
▁5000]	-13.6354
3/#"	-13.6363
▁TCL	-13.6363
▁191	-13.6365
▁/0'/	-13.6367
▁HUK	-13.637
▁%/#"	-13.6387
<131	-13.639
▁//'"	-13.6403
▁/6/	-13.6407
!2:	-13.6429
▁&/8'"2	-13.643
▁KIAKI	-13.6432
▁BUKXA	-13.6432
TOAP	-13.6433
<'/"	-13.6433
[1"""	-13.6435
':6	-13.6436
0:0	-13.6438
9:7'	-13.6438
ADISA	-13.6444
6.00	-13.6445
171"	-13.6448
81"2/5	-13.6453
631	-13.6454
DOAKY	-13.6455
▁100+1	-13.6457
(:	-13.6458
▁8.4	-13.6468
AGVAT	-13.6471
9:8	-13.6472
81:	-13.6472
;'/	-13.6473
▁,2	-13.6479
:'-"	-13.6488
▁19.	-13.6491
]231"	-13.6529
▁GVAKU	-13.6529
▁^/7	-13.653
▁CWAJ	-13.6539
WD	-13.6543
▁47.	-13.6544
▁_*1"2	-13.6551
▁490	-13.6556
5"2/5	-13.6561
▁105	-13.6565
▁HUHIA	-13.6579
▁>:"	-13.6581
▁0.55	-13.6587
<:	-13.6588
▁DISVABU	-13.6589
#,-	-13.6593
*'"2^	-13.6597
NM	-13.6598
:1:8"	-13.6603
#2"2	-13.6604
5131	-13.6607
,'57	-13.6607
▁:8/8'"2	-13.6611
▁:5/"	-13.6627
▁GEK	-13.6634
▁850	-13.6643
▁/5/4	-13.6653
▁TISU	-13.6656
[1,-	-13.6661
\'&'	-13.6675
+'+'	-13.6677
▁SUJV	-13.6684
▁29.	-13.6685
▁>:	-13.6691
:#'71	-13.6693
▁54.	-13.6702
▁^[	-13.6708
▁1976	-13.6713
▁+1_1	-13.6715
▁SUD	-13.6718
'/51	-13.6721
▁3000&1"2	-13.6724
UALI	-13.6728
▁3:"2	-13.6732
▁042	-13.6737
KIASW	-13.6738
▁367	-13.6748
:6'"'^	-13.6755
81;	-13.6756
(1*'	-13.6758
+'\1"	-13.6778
6'%"	-13.6779
▁139	-13.6785
ZWD	-13.6789
ITI	-13.679
:^"	-13.6791
)1^"2	-13.6793
50	-13.68
▁&'"2	-13.6802
UE	-13.6807
%1-""	-13.6812
DOAFU	-13.6825
('"2;'	-13.6839
4.2	-13.6839
▁6:1	-13.6841
1.66	-13.6842
▁0,'3	-13.6843
0251	-13.6847
<1/7	-13.6852
▁NIK	-13.6858
▁:1?"	-13.6867
VLX	-13.6871
HYN	-13.6884
9^"2	-13.689
▁:8/	-13.689
▁44.	-13.6891
▁1.71	-13.6893
▁8,'2	-13.6902
IHIA	-13.6903
+';'	-13.6911
300	-13.6916
02"2^	-13.6917
6;1	-13.6923
/5-	-13.6927
▁95,'	-13.6931
▁156	-13.6936
▁15"3	-13.6936
>1/	-13.6938
SATOAF	-13.6944
WASA	-13.6944
BVG	-13.6952
▁3800	-13.6955
+'"2;'	-13.6964
73	-13.6964
▁0.32	-13.6971
AGXAT	-13.6972
2"2/#'	-13.6973
ASAT	-13.6976
▁\1/	-13.698
4'^	-13.698
>,2	-13.698
KIT	-13.6982
]1:	-13.6987
(;1	-13.6989
0/0	-13.6991
▁LIHX	-13.6997
1993	-13.7001
▁9.4	-13.7015
AQW	-13.7017
2/51"	-13.7018
00	-13.7022
▁50]&1	-13.7023
:"2199	-13.7031
▁HUM	-13.7033
▁SWP	-13.7045
▁DWGEA	-13.7048
]2/5'"	-13.7048
9'"2;'	-13.7048
1:6	-13.705
DOAHXA	-13.7053
4131	-13.7053
▁448	-13.7055
#2:8	-13.7056
▁20]&1"	-13.7071
▁2,'6	-13.7071
,'53	-13.7073
27'	-13.7077
')"	-13.7084
SVAZ	-13.7091
+2-	-13.7093
RQUA	-13.7096
!2^"	-13.7109
GOK	-13.7109
▁GUAHIA	-13.7121
]2"2	-13.7121
▁380	-13.7122
*3'"	-13.7123
▁3,'3	-13.7127
%"'^	-13.7132
XAH	-13.7133
$'/5'	-13.7142
5:('	-13.715
':_:	-13.7152
▁,-:	-13.7153
/8'^	-13.7163
9'^"2	-13.7169
2"2/#	-13.717
▁HXGIA	-13.7178
▁3]&1"2	-13.7198
▁SADI	-13.7198
8'"2/5	-13.7202
NVN	-13.7203
▁DIIS	-13.7208
.5]&1"	-13.7211
?"2;'	-13.7212
KIDW	-13.7218
▁43.	-13.7222
LII	-13.7224
>*"	-13.7231
▁84.	-13.7241
▁QY	-13.7242
81^"2	-13.7258
82"2/5	-13.7271
2]&1"	-13.7272
:'?	-13.7274
▁*?"2	-13.7281
51;1	-13.7282
▁LOM	-13.7282
$'"2	-13.7283
▁PVAT	-13.7286
▁23.	-13.729
+'^	-13.7292
▁KYG	-13.7293
▁IPI	-13.7299
!'/	-13.73
GVAJ	-13.7301
92/'	-13.7303
▁187	-13.7314
,'84	-13.732
RBU	-13.7325
▁800+1	-13.7325
=2/5	-13.7333
DVAD	-13.7333
▁BUHI	-13.7334
▁1,\2	-13.7334
41.7	-13.7338
▁2100	-13.7345
▁:1:8	-13.7345
▁^$'	-13.7347
%;':	-13.7349
▁SUAK	-13.735
▁5.6	-13.7352
▁9,'	-13.7352
+^"	-13.7354
▁1]&1"	-13.7359
▁^:(	-13.7366
VAMU	-13.7371
-";'	-13.7371
▁11,'	-13.7375
▁^:1^	-13.7392
▁2,'8	-13.74
70	-13.7404
>';1	-13.741
▁^/#'	-13.7417
▁1.2]	-13.7427
<1&1	-13.7431
▁:=	-13.7433
▁EC	-13.7435
▁10.7	-13.744
-3.0	-13.7448
▁7.2	-13.7449
)1&"2	-13.7456
▁15,'	-13.7467
GODUKIA	-13.7474
▁64	-13.7475
▁50&1	-13.7479
-:8	-13.7482
9')	-13.7488
DWY	-13.7488
['/[	-13.7495
DIKIAGE	-13.7497
▁69.	-13.7505
WABU	-13.7506
▁364	-13.7511
NVGY	-13.7528
▁GOH	-13.7529
▁XGIA	-13.7536
['/7	-13.7537
1988	-13.7544
(2:	-13.7545
▁TVAZ	-13.7559
9'&"2	-13.7565
▁9.3	-13.7576
ALIMU	-13.7577
1.9	-13.7578
:^"2	-13.7581
:#"	-13.7582
▁99.	-13.7589
KXKX	-13.7597
▁^&1	-13.7598
▁ZUAG	-13.7599
SG	-13.7605
71^	-13.7607
ANISA	-13.7611
▁"-6	-13.7618
72:'	-13.7621
2%1-	-13.7625
▁VB	-13.7625
%1/5	-13.7627
▁]+1	-13.7635
▁KXHX	-13.7637
01	-13.7645
KIC	-13.7647
51?'	-13.7653
BUJV	-13.7658
▁391,'	-13.7661
▁^71	-13.7668
=2&	-13.7668
▁3]&1	-13.7669
▁468	-13.7699
:('-	-13.7699
▁426	-13.7701
IZU	-13.7704
>'/0	-13.7704
DVB	-13.7719
▁46.	-13.7719
1.54	-13.7736
52&1"2	-13.7749
8:5	-13.7751
▁100]&1"	-13.7754
ZVQ	-13.776
['/4'	-13.7762
▁TOAH	-13.7776
▁79	-13.778
▁LUJ	-13.7782
▁,--	-13.78
[/6"	-13.78
&1$1	-13.7806
▁300&1"	-13.7809
▁40.	-13.7819
▁:8:"	-13.7825
▁10007120,2	-13.783
▁1359,'0	-13.783
▁46,'93	-13.783
▁;-#6-2	-13.783
.10.0	-13.783
▁44,'80	-13.783
0,2;'6-	-13.7831
▁1"31.8	-13.7831
▁78,'85	-13.7831
▁KEACOA	-13.7831
▁KVIKV	-13.7832
\1:_>1	-13.7832
▁TWAS	-13.7832
DIIGE	-13.7835
▁151]&1	-13.7836
9:'"	-13.7839
AIIHJAJ	-13.7842
▁297	-13.7843
▁80"36	-13.7849
▁LUP	-13.7849
▁22.	-13.7851
▁CGIASU	-13.7851
▁SVABU	-13.7852
*1;'	-13.7854
SVAW	-13.7861
▁3:"	-13.7863
>/8'"2	-13.7866
▁30,'8	-13.7868
6'/0	-13.7869
!2?;	-13.7869
▁397,'	-13.7871
6']1	-13.7873
▁1223,'	-13.7878
▁1.97	-13.7882
▁60063	-13.7883
WAWA	-13.7885
VCD	-13.7888
▁KEASW	-13.7889
]-"	-13.7894
HIT	-13.7898
▁70"3	-13.7899
▁4700	-13.7905
▁^:01^	-13.7908
▁INTERNET	-13.7909
▁1.50&1	-13.791
JVRJV	-13.791
▁100733"2	-13.7917
▁1206,'	-13.7923
▁5300	-13.7926
2"'	-13.7935
2&1;'	-13.7941
▁1.87	-13.7945
▁6600	-13.7949
▁5800	-13.795
0%1	-13.7952
▁BVAHW	-13.7952
▁-5.	-13.7952
▁56.	-13.7954
▁30,'9	-13.7955
▁HIAHIALI	-13.7955
▁60010	-13.7968
▁7,'3	-13.797
9&1"	-13.7972
▁30,'1	-13.7972
[2:6'"2	-13.7974
▁60086	-13.7978
LOF	-13.798
▁21.3	-13.7984
;':8,2	-13.7987
'\2;	-13.7992
▁/6:/5'	-13.7995
]'"2/5	-13.7996
▁30.8	-13.8007
!2/"2	-13.801
▁18.3	-13.8011
5.89	-13.8017
6.34	-13.8018
▁44,'	-13.8021
96,'4	-13.8029
▁FVFV	-13.8035
55,'72	-13.8038
▁35]	-13.8039
▁10.50	-13.8047
9%1"2;'	-13.8055
▁60077	-13.8058
▁54,'0	-13.8059
ATOAFU	-13.8061
▁QW	-13.8067
▁417	-13.8067
9'&"	-13.8068
▁3700	-13.807
1=1	-13.8073
HIAN	-13.8075
)^"	-13.8076
▁17,'	-13.8076
▁16,'	-13.8079
LULU	-13.8079
▁97,'	-13.8081
▁34.	-13.8082
737-	-13.8083
▁1,'8]	-13.8085
4.09	-13.8086
▁53,'	-13.8092
.29	-13.8096
▁1"33	-13.8096
▁3650	-13.8101
▁2196	-13.8108
571^	-13.8111
▁QUQ	-13.8113
IGXA	-13.8114
+'/'	-13.8115
SM	-13.8123
▁36.	-13.8125
91,'	-13.813
▁BUHO	-13.8134
▁BUDIA	-13.8136
"2;'31	-13.8139
6'^"	-13.8143
▁GXAM	-13.8144
0"2:8	-13.8145
▁54,'8	-13.8145
▁-""2;'	-13.8146
▁YHX	-13.8148
▁3.5]	-13.8155
52^"	-13.8159
▁;'4,2	-13.8161
▁5000+1	-13.8163
[/	-13.8168
▁4000]	-13.8169
251	-13.817
6'/[	-13.817
="2;'	-13.818
▁388,'	-13.8181
▁1.88	-13.8182
▁12.64	-13.8186
$"2^	-13.8187
▁:8"2;'	-13.8187
6"2^	-13.8189
?':	-13.8194
['/5	-13.8196
▁35.5	-13.8203
5"2/4	-13.8208
QUAH	-13.8217
ASOAGIA	-13.822
▁0.47	-13.8221
▁15.3	-13.8222
[+1-	-13.8223
▁3000+1	-13.8223
▁230]	-13.8231
▁HXABV	-13.8236
▁135	-13.8243
▁31,'2	-13.8245
▁154	-13.8246
▁600+1	-13.8248
0/4"	-13.8248
':1]&1	-13.825
TOALI	-13.8253
▁ZAW	-13.8257
▁ST	-13.8258
%:5;	-13.8259
-70	-13.8263
▁1.70	-13.8267
▁078	-13.8271
?')	-13.8278
<';	-13.8283
8^"	-13.8284
▁"-/8	-13.8285
IAR	-13.8289
▁12.5	-13.829
▁3'3'	-13.829
)"2;'	-13.8294
DIIG	-13.8296
#+'	-13.8304
▁10.4	-13.8309
>:5"	-13.8315
▁DISVAKIA	-13.8322
▁640	-13.8324
▁-1.7	-13.8325
('31	-13.8331
▁HYJ	-13.8344
-2.7	-13.8349
]'^"	-13.835
BUJ	-13.8359
▁179	-13.8375
▁5.3	-13.8376
▁2084	-13.8379
▁+1>1	-13.8383
▁84]	-13.8384
▁KIAK	-13.8391
AHXD	-13.8408
*-""2	-13.8409
LIF	-13.8417
3;	-13.8417
*+	-13.8424
▁:5*'-	-13.8426
[']&1"	-13.8427
▁1931	-13.8436
▁250]	-13.8436
5.67	-13.8437
▁?')"2	-13.8442
/8',2	-13.8457
1?',2	-13.8467
[2/5'	-13.8468
▁2]&1	-13.8471
▁DVAK	-13.8472
▁JUNI	-13.8474
▁880	-13.8477
'/#/	-13.848
▁+%1	-13.8483
▁0.16	-13.8483
▁21,'	-13.8493
<':#	-13.8494
▁UAD	-13.8496
HIALU	-13.8519
▁11.6	-13.8529
_1"2;'	-13.8537
4&'	-13.8543
▁DIAD	-13.8545
▁6000]	-13.8546
8',2-	-13.8549
▁397	-13.8553
&':('"	-13.8555
*1"2"-	-13.8557
▁/#'/"	-13.8558
▁;'31	-13.8562
KEA	-13.8565
,'[	-13.8566
---/	-13.8575
9;1	-13.8577
▁4,'6	-13.8578
-2.4	-13.858
=7	-13.8581
▁VJV	-13.8582
&;	-13.8582
▁BUGWA	-13.8587
1;1	-13.859
▁6,'2	-13.8593
▁60079	-13.8596
▁18.2	-13.8604
▁1]&1	-13.861
▁2.72	-13.8613
8,-	-13.8616
/5"2	-13.8621
▁2.15	-13.8621
▁14.0	-13.8624
▁1.67	-13.8625
2/7	-13.8626
!2^	-13.8639
▁2.58	-13.864
▁/#'/"2	-13.864
SOAD	-13.8646
6'"2/5	-13.8646
▁^+	-13.8647
▁225	-13.865
1&1"	-13.8653
▁KUAS	-13.866
"2197	-13.8661
KIS	-13.8664
▁4.4	-13.8669
LUP	-13.8671
▁48]	-13.8673
7,'86	-13.8673
%:8	-13.8676
▁2.5&1	-13.8676
02/7"	-13.868
▁0.28	-13.8681
▁GEAGO	-13.8681
5':6'	-13.8682
▁BVAQUA	-13.8683
▁460	-13.869
NXG	-13.8691
!/#	-13.8693
▁066	-13.8694
#"2>	-13.8705
▁416	-13.8708
'-""2	-13.8713
▁660	-13.8717
+2;1	-13.8725
:(',2	-13.8728
%;1^	-13.8729
(27"	-13.8734
81/"2	-13.8735
▁2500]&1	-13.8735
#^,-	-13.8735
▁IQW	-13.8739
7]	-13.8747
"2^7	-13.8749
▁:('/'	-13.8764
▁DIIFU	-13.8767
?':#	-13.8768
▁0.	-13.8777
▁VT	-13.878
▁1422	-13.878
▁;'7	-13.8787
7?'	-13.8788
&'/_'	-13.8789
▁:1\	-13.879
▁350	-13.879
▁14.8	-13.8792
/]"	-13.8794
1+	-13.8799
▁HVSU	-13.88
,-^	-13.8806
▁414	-13.881
/':	-13.8819
:01^"2	-13.8819
DWH	-13.8821
▁KEAP	-13.8839
▁1.75	-13.8843
%2;	-13.8845
▁24.0	-13.8848
GIAS	-13.8848
▁22.1	-13.8849
9+1	-13.886
▁2600	-13.8862
81^"	-13.8871
#2-"	-13.8871
▁[1[1"	-13.888
%2:"	-13.888
9:1	-13.8882
▁076	-13.8882
-""2"-	-13.8884
500	-13.8886
6,'83	-13.8887
<1,'	-13.8891
▁KWAK	-13.8897
:#'76	-13.89
▁CWAH	-13.89
▁33,'	-13.8904
▁86.	-13.8907
UAGW	-13.8908
▁0.26	-13.8912
2"2:8	-13.8917
3.00	-13.8919
▁50+1	-13.8921
▁;':1	-13.8921
▁20.9	-13.8925
96.6	-13.8934
ASV	-13.8942
529	-13.8942
2]'^	-13.8946
-16	-13.8951
6'_"	-13.8952
5/6	-13.8958
('3'	-13.8964
#2:	-13.8967
8';	-13.8969
▁GSM	-13.8969
▁190	-13.897
831	-13.8971
]'/"	-13.8973
▁^88	-13.8976
2-""2	-13.8978
\"2/5	-13.8988
▁:#:	-13.8989
6436	-13.8991
▁/0'	-13.8997
=','	-13.8997
▁/1&1"	-13.9005
▁LEH	-13.9009
▁3,'0	-13.9024
_1\1	-13.9026
9'"2^	-13.9032
.12.2	-13.9032
▁189	-13.9035
$'?'	-13.9035
80	-13.9036
▁113	-13.9045
'\1"2	-13.9046
,'02	-13.9053
.73	-13.9057
▁FVT	-13.9067
%1^"	-13.9068
▁KEZ	-13.9071
▁GOA	-13.9085
=)"	-13.9085
▁6,'5	-13.9086
LIT	-13.9096
▁+:(	-13.9099
▁WAB	-13.9102
▁^:1^"	-13.9109
6'"'^	-13.9111
=:8	-13.9116
/0/8'	-13.9117
▁127	-13.9136
>/8'^	-13.9137
▁VC	-13.9145
▁485	-13.9145
▁1.5]&1	-13.9147
2:9	-13.9154
▁:'/5'	-13.9162
IDIA	-13.917
[2"2;'	-13.9176
!2/5'"2	-13.9178
5566	-13.9185
▁438	-13.9186
▁0'	-13.9189
27/5	-13.9193
▁739	-13.9194
SADI	-13.92
▁12.4	-13.9202
19	-13.9203
▁LIY	-13.9206
▁1/	-13.921
LOLO	-13.9215
▁60005	-13.9218
:/5	-13.922
2.03	-13.922
UW	-13.9227
▁8.7	-13.9235
SATOA	-13.9241
10)	-13.9244
▁GEAQ	-13.9253
▁188	-13.9255
▁DOAQU	-13.9257
[2^"2	-13.9264
52&1	-13.9265
[1"'^	-13.9268
HIALX	-13.9273
!2"2/5	-13.9278
/6"2	-13.9279
▁GIAKW	-13.9289
▁QWAGO	-13.9292
&1^"	-13.9303
▁5,'	-13.9311
▁220	-13.9313
99	-13.9316
)1&,2	-13.9336
▁^:51	-13.9339
\'/	-13.934
▁382,'	-13.9343
61^	-13.9346
SUK	-13.9349
"2+'	-13.9356
▁12,'6	-13.9358
▁HIB	-13.9369
▁DIPI	-13.9393
▁6.6	-13.9397
▁HWABI	-13.9415
!1"2	-13.9416
9'"2/5	-13.9425
'%1"	-13.9426
▁:#';'	-13.9426
7.5	-13.9427
▁11.4	-13.9428
'/4'"	-13.9433
>'+'	-13.9481
UASV	-13.9497
▁36]	-13.9503
JUTU	-13.9506
5)	-13.9508
['&1"	-13.9509
,'74	-13.9521
▁4.8	-13.9524
AZOZ	-13.9524
▁24]	-13.9534
1/'"2	-13.9535
▁16]	-13.9537
%/7"2	-13.9544
8:(	-13.9546
2"2:	-13.9553
▁DE	-13.9555
91:5"	-13.9571
▁LXQUA	-13.9573
BUW	-13.9581
▁41.	-13.9585
\:1]	-13.9585
3^"	-13.9586
?'"2	-13.9592
▁YF	-13.9598
ASWK	-13.9602
▁CWAM	-13.9604
,'$	-13.9604
▁1.55	-13.9608
!^"	-13.9609
▁0.61	-13.961
.10	-13.9623
HXAT	-13.9635
^,-:	-13.9636
%%1	-13.9642
▁1,\4"2	-13.967
▁1990.0	-13.9671
&1-	-13.9671
▁148	-13.9672
▁0.22	-13.9672
>'7	-13.9678
]'-	-13.9687
91^	-13.9688
NVQ	-13.969
▁3,'9	-13.9697
5:1"	-13.9712
>'51	-13.9716
▁38.	-13.9716
:1^"	-13.9719
%'/'	-13.972
▁6509	-13.9724
"231	-13.9728
#2^"	-13.973
LESA	-13.9731
1994	-13.9737
>:"	-13.9748
TOAM	-13.975
▁\:	-13.9756
▁+1"	-13.9756
32"2	-13.9768
▁TEAQUA	-13.9771
▁240]&1	-13.9779
^"2199	-13.9789
WAQ	-13.979
▁149	-13.9792
▁5,'5	-13.9799
527'"	-13.9801
']&1	-13.9812
HOL	-13.9819
02^	-13.982
▁"-"'	-13.9822
ALIE	-13.9829
▁12"3	-13.9832
VAHU	-13.9836
*'"2;'/	-13.9843
▁200&1"	-13.9846
&:"2	-13.9866
ALISA	-13.9872
%"2/	-13.9898
▁73.	-13.9899
>';'	-13.9899
▁150]	-13.9912
VAGE	-13.9913
▁235	-13.9915
▁5:1	-13.9915
/9"	-13.9932
(1:8	-13.9933
▁183	-13.9935
▁PVAL	-13.9936
ZOTV	-13.9937
%%1"	-13.9941
6&'"	-13.9943
':9	-13.9948
';'\2	-13.9962
▁LIJU	-13.9964
&1:#	-13.9964
▁^/9	-13.997
/;	-13.9979
▁075	-13.9981
▁186	-13.9984
(1:8"	-13.9992
▁LIZO	-13.9995
▁DOABV	-13.9995
':#'	-14.001
9]&1"	-14.0012
▁413	-14.0015
&/4	-14.0019
ANX	-14.0027
31,'7	-14.0036
▁469	-14.004
62:	-14.0041
0.1	-14.0042
▁486	-14.0044
▁LUQ	-14.0044
▁167	-14.0059
▁960	-14.006
▁166	-14.0062
,'08	-14.0064
▁1110	-14.0065
:#'"	-14.0067
7;1	-14.0073
%"2"-	-14.0079
"2:8:	-14.0084
&';	-14.0086
▁178	-14.0088
TUSA	-14.0094
DOAD	-14.0094
6'\	-14.0096
▁"-)	-14.0097
$1"2	-14.0099
7,'5	-14.0105
▁81	-14.0112
TUAQUA	-14.0113
)-"	-14.0113
▁:91	-14.012
▁SULI	-14.0128
SVAHU	-14.0131
7&'	-14.0133
>%1:	-14.0135
:(';	-14.0139
#2^"2	-14.0147
1:(	-14.0161
▁7,'8	-14.0171
▁BUV	-14.0176
6,'12	-14.0178
971^"2	-14.018
'/#"2	-14.0181
▁11.1	-14.0189
DUL	-14.0189
<2?	-14.0196
▁590	-14.0223
,'41	-14.0232
55,'8	-14.0236
▁CUA	-14.0236
-2.	-14.0247
VATI	-14.0251
#/8"2	-14.0257
8,'	-14.0264
NVKI	-14.0265
.38	-14.0273
▁"-]1	-14.0287
,2"2;'	-14.0293
"2/1	-14.0295
HXT	-14.0299
▁13.0	-14.0306
▁320	-14.0312
▁389	-14.0313
▁:5,27	-14.0317
▁CWAC	-14.0318
UAKU	-14.0324
▁200]&1"	-14.033
9,'	-14.0346
HWGU	-14.0348
*%1"2	-14.0361
0/4"2	-14.0364
),2	-14.0365
JUW	-14.0366
&&1	-14.0378
▁55,'	-14.0381
▁100&1"	-14.0383
52>	-14.0391
▁4500]	-14.0407
_1/6'"	-14.041
▁16.0	-14.041
▁5500	-14.0411
DIN	-14.0412
52"2/4	-14.0413
▁/':"2	-14.0432
ADUAG	-14.0434
▁PIB	-14.0437
▁93,'7	-14.0443
▁WM	-14.0445
▁:0/4"	-14.0451
<;1^	-14.0483
[-	-14.0484
▁31.1	-14.0488
▁390	-14.049
UAHUA	-14.0494
4/1	-14.0499
:#_1	-14.0501
51:"2	-14.0503
▁33.	-14.0507
_1&1	-14.0515
▁/#%1	-14.0522
"2;'/4	-14.0556
%2"2/5	-14.0564
%';'	-14.0583
.09.0	-14.0584
▁PVH	-14.0587
▁KIKI	-14.059
*/7"	-14.0592
81:0	-14.0592
2/#/	-14.0595
▁RHI	-14.0598
▁79.	-14.0599
▁130.	-14.0613
)',2	-14.0616
4"2\	-14.062
GWAH	-14.0625
▁LULU	-14.0627
,'04	-14.0634
▁106	-14.0638
ISW	-14.0647
▁11.0	-14.0654
▁143	-14.0657
TUANISA	-14.0658
9';	-14.0661
SUAMU	-14.0672
▁BID	-14.068
▁180]	-14.0681
▁KIL	-14.0683
51:51"	-14.0689
▁/8':8	-14.0707
]'/8'	-14.0709
▁NVKV	-14.0712
90	-14.0725
▁27.	-14.0727
▁]'%1	-14.0732
>+^	-14.0739
▁LUNV	-14.0743
4:('	-14.0749
LIB	-14.0749
/8'"2^	-14.0749
1:7	-14.0753
▁37.	-14.0757
11)	-14.076
>'-"	-14.0761
$'/	-14.0764
SALI	-14.0786
,2;	-14.0797
2,'$	-14.0799
▁418,'	-14.0801
2/0'	-14.0802
▁%':01	-14.0808
▁TUL	-14.0811
▁237	-14.0811
IZ	-14.0811
IKY	-14.0818
41$'	-14.082
LID	-14.0821
▁SVASG	-14.0839
▁8.8	-14.084
"2^/	-14.0853
278	-14.0854
*1^"	-14.0863
HWGWA	-14.0865
LIR	-14.0867
9+'"	-14.0877
,'7]	-14.0879
▁BUKY	-14.0881
31:	-14.0887
]"2;'	-14.0888
▁5&1	-14.0894
^7	-14.0899
VAI	-14.0906
.13	-14.0907
["2;'	-14.0912
▁11.3	-14.092
SVAP	-14.0924
*'/	-14.0925
▁LID	-14.0929
▁GUGI	-14.0943
▁147	-14.0945
▁NULI	-14.0954
2"'^	-14.096
4'/#	-14.0962
>'/0"	-14.0963
▁1200]&1	-14.0965
.83	-14.098
7.59	-14.0985
▁459	-14.0986
'/4"2	-14.0986
▁GUAL	-14.0988
▁6.3	-14.099
32:#	-14.1003
:5-	-14.101
▁DUJ	-14.1015
8?	-14.1017
.07	-14.102
BUDOA	-14.1024
3"2^	-14.1024
;'1997	-14.1024
1:1"	-14.1029
"251	-14.1035
▁DISVAK	-14.1039
DISGE	-14.1042
▁5]+1	-14.1047
DISVAGE	-14.1056
▁DIAG	-14.1056
9:5"	-14.1066
▁HUAL	-14.1066
/]-"	-14.1068
▁*1/	-14.1068
▁6]+1	-14.1074
▁1,\10	-14.1078
▁:('/8	-14.1082
▁WADI	-14.109
<1/	-14.1091
▁25.	-14.1097
98	-14.1102
-1997	-14.1103
+'/#"	-14.1124
5'?	-14.1125
DOAB	-14.1126
▁283	-14.113
▁48.	-14.1132
027	-14.1141
▁NEA	-14.1147
"2(	-14.1151
<17	-14.1152
▁3]+1	-14.1153
▁9.2	-14.1153
+"2/5	-14.1156
▁^3,'15	-14.116
▁GYAGYA	-14.1163
▁414,'8	-14.1163
BVAPIDU	-14.1163
▁JUQAJUZW	-14.1163
▁/#?'	-14.1164
▁>1/0%1	-14.1164
▁3940,'	-14.1165
0':(	-14.117
▁1285,'	-14.117
▁9874	-14.117
▁1315,'	-14.1172
▁367.1	-14.1173
▁96	-14.1177
6/2?	-14.118
▁6567	-14.1181
248,'5	-14.1184
.17	-14.1185
▁4165,'	-14.1186
▁0.31	-14.1193
LODI	-14.1195
+1/7/	-14.1195
▁1,'2]	-14.1195
▁1270,'	-14.1196
▁5,'8]	-14.1196
*1"2100	-14.1197
!1+'-""2	-14.1199
▁55.88	-14.12
▁%'/1&1	-14.1201
▁83.8	-14.1201
▁BUDVA	-14.1203
[17'7'"	-14.1206
91/:5,2	-14.1207
▁3600	-14.1215
▁365,'	-14.1215
▁3687	-14.1216
>/,'	-14.1221
SC	-14.1221
▁5.9	-14.1221
34.65	-14.1229
▁&1"2	-14.1229
\':	-14.1231
▁2800]	-14.1233
▁1700]&1	-14.1235
▁4081,'	-14.1237
>+':_	-14.1238
▁/]'/]'"	-14.1241
▁18.7	-14.1241
▁60083	-14.1242
*/51	-14.1244
▁85.	-14.1245
▁&/8';	-14.1246
('^"2	-14.1247
▁:(:0'"	-14.125
5:_^	-14.1253
>/1&1	-14.1254
▁300]&1"2	-14.1255
NVANVA	-14.1265
▁1984.0	-14.1266
▁24,'8	-14.1266
▁10.23	-14.1266
▁18.5	-14.1266
▁1998-1999	-14.1267
▁32.7	-14.1278
▁28.7	-14.1281
):1	-14.1282
▁38.6	-14.1291
▁371,'	-14.1293
2734	-14.1294
▁10.08	-14.1298
%/5'"2	-14.1298
▁99.9	-14.1299
▁8000+1	-14.1303
▁6,'7	-14.1304
0.18	-14.1306
▁31.3	-14.1309
▁390,'	-14.1311
>':1"2;'	-14.1312
1"""	-14.1315
▁320]	-14.1318
1"2\	-14.1321
▁1,'1]	-14.1321
▁2370	-14.1325
▁1,'78	-14.1329
▁3"36	-14.133
7,'50	-14.1331
▁QWWA	-14.1341
▁HUL	-14.1342
▁60060	-14.1347
▁1570	-14.1349
▁25.6	-14.1349
▁1827	-14.1351
2.4	-14.1354
▁140+1	-14.1359
.23	-14.136
93	-14.136
,'88	-14.1361
'/8\'	-14.1361
▁3057	-14.1366
▁11]	-14.1369
ALELE	-14.137
6.84	-14.1373
▁2,'25	-14.1376
!"2/5	-14.138
SVASW	-14.1382
▁14.76	-14.1383
9,'28	-14.1388
▁6007	-14.1393
▁9,'7	-14.1394
▁389,'	-14.1395
527'/'	-14.1396
▁YGE	-14.1399
AHIAD	-14.14
&^-	-14.1405
▁442	-14.141
▁-1.8	-14.1412
▁33.4	-14.1414
3/51	-14.1416
▁29.5	-14.1418
▁388	-14.142
▁2.7]	-14.1422
'"2199	-14.1422
▁NIN	-14.1427
>/#'"2/5	-14.1427
50]	-14.143
▁1500&1	-14.1436
▁BUGEA	-14.1439
02/;	-14.1441
▁8000]&1"	-14.1442
▁^/6'	-14.1442
▁60012	-14.1442
▁17.7	-14.1444
▁+1_1>	-14.1445
UR	-14.1449
▁2.69	-14.145
▁29.3	-14.1451
▁419	-14.1452
277	-14.1455
▁5.22	-14.1456
▁60064	-14.1457
▁1890	-14.1457
▁;'71?'	-14.1461
6'&1"2	-14.1461
▁2.37	-14.1463
▁1637	-14.1471
▁10.98	-14.1475
TOAK	-14.1477
▁16.6	-14.1477
▁^/7&1^"	-14.148
HIAK	-14.148
▁408,'	-14.1482
▁TOANI	-14.1483
▁\1]1	-14.1484
▁1400]	-14.1487
▁56"3	-14.1489
▁2.60	-14.1489
▁5.5]	-14.1492
-5.	-14.1495
]"2/5	-14.1496
60/4'"	-14.1497
▁TOAGXA	-14.1498
▁700]&1	-14.1506
▁54.4	-14.1506
-""2;'	-14.1506
▁31.8	-14.1509
▁1600]	-14.1511
WASO	-14.1519
▁30.9	-14.152
▁:8/0"	-14.152
▁DOAJ	-14.1521
▁:('*:	-14.1521
▁25.5	-14.1522
▁GOLX	-14.1522
+&1	-14.1523
▁HVHU	-14.1525
!\"	-14.1527
▁7"35	-14.153
▁3.8]	-14.1531
▁547	-14.1535
/#?'	-14.1536
▁394	-14.1536
▁416,'	-14.1537
▁GIADUA	-14.1537
▁GUAD	-14.1539
>2/91	-14.1539
,'10	-14.154
▁1196	-14.1541
AIIHJBB	-14.1543
▁31.0	-14.1543
▁2.13	-14.1545
▁1123	-14.1545
▁372,'	-14.1545
▁7"36	-14.155
▁2,'3	-14.156
▁DVANI	-14.156
▁3200	-14.156
<1/#/	-14.1562
▁SVALX	-14.1568
KXD	-14.157
▁GIK	-14.1571
▁30+1	-14.1573
▁18,'5	-14.1574
▁21.8	-14.1575
▁\:'	-14.1576
'31:	-14.1589
#/8^	-14.1592
▁1669	-14.1596
▁HVD	-14.1598
▁2150	-14.1599
'"2/#	-14.1599
▁2800	-14.1603
▁DIAF	-14.1607
USA	-14.1609
;'3,2	-14.1614
%:1"2	-14.1614
LUSA	-14.1623
#,'	-14.1623
*1-	-14.1626
UAE	-14.1627
▁%1:1	-14.1633
ZAG	-14.1633
▁26.3	-14.1641
▁33.8	-14.1643
2\1"	-14.1645
▁1900	-14.1647
▁2.16	-14.1648
▁50/4'	-14.165
YALO	-14.1655
▁2.2]	-14.1656
▁0.43	-14.1658
▁28]	-14.1661
41%1	-14.1662
[/8'	-14.1663
▁105.	-14.1664
2.90	-14.1665
▁;'5,2	-14.1668
1998-200	-14.1677
:01^"	-14.1677
.78	-14.1681
▁3.85	-14.1684
▁GOF	-14.1691
['$	-14.1693
4.98	-14.1693
▁%1/#	-14.1696
%:"	-14.1699
"31"	-14.1699
▁0.19	-14.1702
▁530	-14.1704
NILU	-14.1707
2&/8'"2	-14.1708
#\"2^	-14.1709
▁21"315	-14.1711
▁3960	-14.1712
'---	-14.1719
▁94,'8	-14.172
:#'711	-14.1721
▁2195	-14.1722
▁SVACVA	-14.1724
▁/4:"2^	-14.1727
:1"2/5	-14.1728
▁160]	-14.1731
4.07	-14.1734
.84	-14.1737
2]&1"2	-14.1739
▁6"3	-14.1741
▁NIGXA	-14.1745
<+	-14.1745
▁25.8	-14.1747
▁HIZ	-14.1747
SVAZA	-14.1748
?'/51	-14.1748
AGIWAGIA	-14.1749
TOAT	-14.175
▁^3'/	-14.1754
▁487	-14.1759
▁;'/5	-14.1762
.77	-14.1764
%'"2;'	-14.1765
#7	-14.1767
TSC	-14.1767
▁53]	-14.1768
^"2%1	-14.1771
276	-14.1776
BUKVA	-14.1781
_"2;'	-14.1782
▁:8"2/5	-14.1784
ILES	-14.1786
▁1.3]	-14.1791
▁-1.0	-14.1794
▁7000]&1"	-14.1795
_7	-14.1796
▁43]	-14.1797
▁;'1997	-14.1799
▁2.23	-14.18
ATOASA	-14.18
SUALI	-14.1801
▁5100	-14.1804
▁NINV	-14.1807
?^"	-14.1809
▁:8%'"	-14.1809
▁300&1"2	-14.181
▁/9'%'	-14.1813
'"2:8	-14.1817
!':1	-14.1818
SUZ	-14.1818
▁12.3	-14.1827
▁429	-14.1829
▁1.95	-14.1832
▁27.1	-14.1833
▁6006	-14.1835
</4"	-14.1836
"330	-14.1845
<^"2	-14.1846
▁,8:#	-14.1848
▁5,'1	-14.1849
AIIHJDA	-14.1849
▁15.0	-14.185
▁100]&1"2	-14.1851
31.6	-14.1854
▁383,'	-14.1855
▁2145	-14.1856
▁4,'9	-14.1859
▁28.	-14.186
998	-14.1865
▁8000]	-14.187
9.03	-14.187
>,-	-14.187
6'/_'	-14.187
▁620	-14.1873
HWAH	-14.1881
▁3,'7	-14.1883
▁2.38	-14.1886
▁GXAB	-14.1889
▁109	-14.1893
':('"	-14.1895
▁114.	-14.1901
▁27.5	-14.1905
▁:('*:"2	-14.1905
"2;':0'	-14.1907
▁3.15	-14.191
▁1709	-14.1927
ZOQUA	-14.1927
7.88	-14.1929
▁19.3	-14.193
HIAHXA	-14.1935
%'/61	-14.1939
0;1^	-14.1941
▁SWSW	-14.1943
6'/1	-14.1947
,'4]	-14.1951
200]	-14.1954
▁1,\5	-14.1956
▁NVGE	-14.1964
▁100/	-14.1967
%"""	-14.1971
▁4,'8	-14.1973
▁71%	-14.1978
NIFU	-14.1983
▁26.5	-14.1988
▁;'"-	-14.1996
▁ZOHX	-14.2
▁+%1"	-14.2003
▁1,'6]	-14.2003
6000	-14.2006
6]&1"2	-14.2012
▁:(+1	-14.2013
▁*:	-14.2018
▁^*1+	-14.2018
'"2:1	-14.202
▁BVAQ	-14.2023
▁27.6	-14.2027
+2;	-14.2028
[2>1	-14.2032
ASAPI	-14.2038
▁^:9	-14.2038
2,2"	-14.2039
#;1	-14.2052
▁/#/1	-14.2054
.27	-14.2056
.8	-14.2063
▁TOAR	-14.2064
▁12.6	-14.2069
▁GVQUAL	-14.2075
5.87	-14.2077
▁%1"	-14.208
▁473	-14.2085
:_"2	-14.2085
▁396,'	-14.2097
▁0.301	-14.2097
▁1336	-14.2097
5---	-14.2097
?'&'	-14.2097
&^"	-14.2098
▁1284	-14.2098
079]	-14.21
▁415	-14.2101
▁TEAH	-14.2105
!\"2^	-14.2107
9'/0	-14.2109
:01"2/	-14.2111
▁ZOHI	-14.2116
▁/91:	-14.2129
▁33.5	-14.2131
200	-14.2134
63	-14.2138
▁348	-14.2142
▁0.18	-14.2143
▁):8	-14.2151
HIATI	-14.2157
?131	-14.216
▁395	-14.2164
LIE	-14.2165
▁395,'	-14.217
▁363	-14.2171
DOALX	-14.2175
▁GUA	-14.2179
7.33	-14.2181
HIAD	-14.2183
AFUSAGIA	-14.2193
▁350]&1	-14.2196
5.34	-14.2202
▁15.2	-14.2202
▁YW	-14.2203
45.3	-14.2206
▁24.1	-14.2211
▁*1+1"	-14.2219
▁SVAKY	-14.2219
(2/	-14.2222
▁4,'3	-14.2227
OQ	-14.223
99,'0	-14.2234
0&1"2^	-14.2237
*^-	-14.2237
2^;	-14.2238
▁174]	-14.2243
ALOLO	-14.2243
]'/5	-14.2245
5'"2	-14.2245
51:^	-14.2253
▁71\2	-14.226
▁/51:5	-14.2261
▁:91"	-14.2266
QH	-14.2268
▁KIAKIA	-14.2271
▁KIG	-14.2285
▁0.20	-14.2292
▁33.0	-14.2292
1/["2	-14.2293
>/8'"	-14.2301
▁945	-14.2302
▁BUTU	-14.2304
▁]'%"2	-14.2304
ME	-14.2316
▁373	-14.2318
)1/5	-14.2326
▁158	-14.2332
▁537	-14.2333
64,'3	-14.2336
;']	-14.2337
▁5,'4	-14.2338
9':('"	-14.2342
▁^*1	-14.2345
▁1293	-14.2353
!1,'	-14.2355
KYL	-14.236
▁13.8	-14.2369
▁10.51	-14.2371
-1.0	-14.2371
▁5]&1"2	-14.2372
▁]1/#'"	-14.2372
%:5"2/5	-14.2375
▁19.9	-14.2383
▁GXH	-14.2389
*1/0	-14.239
▁19.2	-14.24
SALO	-14.24
GXAG	-14.2402
▁SK	-14.2404
'%'"2	-14.2404
DVAL	-14.2408
!?	-14.2422
#2/7	-14.2422
IAB	-14.2423
[1_1:	-14.2424
WJ	-14.2425
["'	-14.2426
2&17	-14.2427
VMV	-14.243
:(':	-14.2433
▁+:0'	-14.2438
▁%/0	-14.2442
=2"""	-14.2451
▁SVAKIA	-14.2454
▁CQ	-14.2462
6,'	-14.2471
▁4020	-14.2471
▁56]	-14.2471
▁IDWA	-14.2482
<'^"	-14.2484
▁72	-14.2488
▁1220	-14.249
0,'	-14.2491
2-",2	-14.2493
#2"	-14.2497
▁DVADVA	-14.25
SVAGX	-14.2501
1949	-14.2506
AIIHJBA	-14.2508
▁27.0	-14.251
331"2	-14.2513
▁;':5*'	-14.2514
9?'	-14.2519
7.02	-14.2519
▁ZOBI	-14.252
▁293	-14.2524
.94	-14.2527
▁GEAM	-14.2535
757	-14.2541
2,'09	-14.2545
:("2;'	-14.2546
▁ZOQ	-14.2547
5_&1	-14.2549
1:1"2	-14.2552
3.97	-14.2553
LOFU	-14.2553
[1"'	-14.2553
SVAS	-14.2554
▁/4>"2^	-14.2559
9'/91	-14.256
ILX	-14.2565
▁798	-14.2569
ATVAZ	-14.2574
▁:1\1"	-14.2579
'+"2/5	-14.259
SVDI	-14.2592
▁&1:('"	-14.2592
#\-"	-14.2593
93,'78	-14.2595
&1;'	-14.2596
▁SUAT	-14.2598
▁/8\'	-14.2601
6':1	-14.2601
3534	-14.2608
▁/0/8'	-14.2617
▁11.8]	-14.2618
▁TVAR	-14.262
91/5	-14.262
.64	-14.2623
100	-14.2625
▁MITU	-14.2627
IX	-14.2629
▁1,\2"	-14.2629
2;1^	-14.263
%,--	-14.2632
NVG	-14.2634
31,'	-14.2635
▁ABC	-14.2636
4'/8'	-14.2639
▁107.	-14.2643
0"2199	-14.2649
▁15.9	-14.2651
(':"	-14.266
2"2\	-14.2661
=)"2	-14.2664
"2/6	-14.267
▁119	-14.2673
▁546	-14.2675
▁385	-14.269
IKIA	-14.27
▁GWASU	-14.2703
▁LUSU	-14.2706
2?',2	-14.2707
▁/8'/5'"	-14.2707
/_	-14.2708
(2"""	-14.2717
▁HIWA	-14.2725
='"	-14.2728
'"2/0	-14.2728
GWF	-14.2733
▁4-	-14.2738
"';1	-14.2738
/#;	-14.274
▁3400	-14.2741
02/#"2	-14.2742
▁GVQUA	-14.2743
▁CVH	-14.2745
&-	-14.2749
/_'-	-14.2749
▁QKXA	-14.2757
▁52/"	-14.2759
▁376	-14.2762
JUB	-14.2763
\"2/'	-14.2764
▁::1^"	-14.2765
▁2.59	-14.2766
$+	-14.2772
BUHX	-14.2774
▁GOG	-14.278
02"2;'	-14.2788
&1"2^	-14.2792
(27"2	-14.2793
BISA	-14.2796
02"2/5	-14.2799
▁DIALO	-14.2805
27'"2	-14.2807
-3.	-14.281
>'71	-14.2813
▁4.3	-14.2815
UAMU	-14.2818
▁74	-14.2837
▁^]:	-14.2849
▁71:6'	-14.2852
'/5'"2	-14.2852
▁813	-14.2855
8.16	-14.2861
▁1824	-14.2862
_13"2	-14.2862
▁):#	-14.2864
▁23,'	-14.2865
^"2:	-14.2867
▁2.02	-14.2868
331"	-14.2874
ASAN	-14.2874
▁14.5	-14.2876
>':#	-14.2886
▁399	-14.2891
/6'	-14.2893
▁13.3	-14.2894
▁4,'4	-14.29
SUS	-14.2901
1"""^	-14.2903
0,'5	-14.2904
9.84	-14.2906
["271	-14.2908
▁:/8'"2	-14.2909
*/4	-14.2912
TIK	-14.2914
▁^:1:	-14.2916
KIAB	-14.2918
,'38	-14.2923
▁32.1	-14.2935
>'<"	-14.2937
9'/9	-14.294
2"231	-14.2945
&1/5"2	-14.2951
6'_"2	-14.2953
2"""^	-14.2956
JVGIA	-14.2962
/8',2-	-14.2963
4.00	-14.2968
▁71>1	-14.2978
▁16.1	-14.2986
▁II	-14.2986
6'"2/	-14.2988
AV	-14.2989
▁434	-14.2992
!'^"2	-14.2992
IJV	-14.2993
ZAL	-14.2998
'/1"	-14.3
▁22,'	-14.3006
▁2,'2	-14.3012
GIL	-14.3015
▁108.	-14.3017
82*	-14.302
BUGI	-14.3022
62/5'"	-14.3025
.67	-14.3028
SULU	-14.3033
0.49	-14.304
▁52+1	-14.304
▁GWG	-14.3043
7"34	-14.3053
KIAZ	-14.3056
30]	-14.3068
▁610	-14.3069
▁45]	-14.307
▁13.9	-14.3071
KUA	-14.3072
▁:2?"2	-14.3074
.89	-14.3077
DIG	-14.308
:8:	-14.308
40	-14.3082
▁16.3	-14.3098
▁1396	-14.3098
▁CWAL	-14.3101
▁3250	-14.3105
]+1&1"	-14.3105
/2	-14.3108
,'99	-14.3129
HXADW	-14.313
▁"-+'	-14.3134
▁14]	-14.3136
>^"	-14.3151
YK	-14.3153
<'"2/5	-14.3167
#1+	-14.317
▁396	-14.3174
▁1.66	-14.3176
*:"	-14.3178
2]'	-14.3179
▁1974	-14.318
'$,'	-14.3184
0"2/	-14.3186
>2:('	-14.3195
WANV	-14.3199
▁GUALX	-14.32
%'/5"2	-14.3205
:8"2/5	-14.3208
2/1	-14.321
HIANVB	-14.3215
400	-14.3216
02/1"	-14.3217
0.48	-14.3222
ZOKI	-14.3242
2^"2/5	-14.3246
GIBU	-14.3249
▁8,'9	-14.3251
>1"2;'	-14.3254
▁15000	-14.3272
>31"	-14.3275
▁372	-14.3279
3,'35	-14.3283
▁180&1	-14.3284
▁NVBV	-14.3287
\1:8	-14.331
▁1,\	-14.3311
1000	-14.3314
9',2	-14.3319
ANVR	-14.3321
,'33	-14.3326
QUAT	-14.334
▁7900	-14.3343
▁>1:	-14.3359
TWAD	-14.3364
9.97	-14.3373
▁TIADW	-14.3373
▁LUTU	-14.3376
92-	-14.3381
AGWA	-14.3386
LIHW	-14.3395
60	-14.3397
'*1	-14.3398
▁BIB	-14.3403
▁4000&1	-14.3415
3.86	-14.3418
VAGX	-14.3419
.68	-14.3433
[2"2^	-14.3435
5050	-14.3436
▁:0/4	-14.3438
=2:1"	-14.345
31-	-14.3454
*1/7	-14.346
▁137	-14.3461
4.18	-14.3465
LIHWA	-14.3468
▁14.9	-14.3469
1137	-14.347
▁3772	-14.3473
▁^;	-14.348
KIM	-14.3481
▁424	-14.3482
▁;':5	-14.3488
2000	-14.3493
,'20	-14.3498
▁12,'5	-14.3499
BVAQ	-14.3499
▁25]&1	-14.3501
0/(	-14.3502
*;1	-14.351
173,'	-14.3512
!2"2:(	-14.3513
▁31.9	-14.3517
+,-	-14.3518
!;1^	-14.3521
▁BUQA	-14.3523
94,'10	-14.3528
]2/5'"2	-14.3536
▁KIAC	-14.3544
.09	-14.3548
▁78.	-14.3562
07]	-14.3564
WAGI	-14.3571
▁"-&1	-14.3573
▁164	-14.3573
▁49.	-14.3575
▁0.54	-14.3576
7.34	-14.3579
+&"	-14.3586
92,2	-14.3589
▁NVGO	-14.3594
)1"'	-14.3598
JVH	-14.36
▁440	-14.3609
9"2/	-14.3611
%'-""	-14.3614
38	-14.3618
!/1	-14.3626
AIHU	-14.3635
▁24.5	-14.3643
▁211	-14.3644
1"2:('	-14.3655
*3'"2	-14.3661
▁GWAF	-14.3667
▁8.1	-14.3672
▁207	-14.3675
.45	-14.3676
▁70]&1	-14.3677
▁20.1	-14.3682
5"37	-14.3694
SUAH	-14.3699
9':0	-14.37
BUVA	-14.3704
3.26	-14.3706
▁%1+1	-14.3717
▁5000&1	-14.3719
▁532	-14.3722
▁64.	-14.3726
▁VDV	-14.373
▁0.02	-14.3733
=':1	-14.3734
>2"2/5	-14.3734
:01,'	-14.3738
▁9.5	-14.3742
▁11.2	-14.3744
""";'	-14.3746
VM	-14.3755
?^"2	-14.3757
▁11.9	-14.3761
▁3.52	-14.3764
▁GIZ	-14.3765
7,2	-14.3776
7.6	-14.3777
TVAK	-14.3778
=2+'"	-14.3781
▁71)	-14.3785
NVP	-14.3788
"2_1	-14.3791
▁278	-14.3792
1"37	-14.3793
▁52.1	-14.3801
+7	-14.3801
/8"2	-14.381
▁400]&1	-14.3811
8.85	-14.3813
%2^"2	-14.3827
5'7"2	-14.3835
!'+"	-14.3839
▁:8;	-14.3844
;'/0	-14.3844
/#,2	-14.3844
5]&1"2	-14.385
DOASA	-14.3853
▁1.25	-14.3853
▁\1:8	-14.3866
ABUG	-14.3867
BUQUAL	-14.388
>:^	-14.3882
.95	-14.3892
'"2\	-14.3905
▁FVQ	-14.3909
▁:1^"	-14.3912
ISOAB	-14.3915
]'"2^	-14.3916
:1/	-14.3916
▁116	-14.392
▁443	-14.3921
19,'9	-14.3922
2.4]	-14.3928
,-7	-14.3935
UAR	-14.3939
▁:(':8	-14.3941
▁1.5]&1"	-14.3942
*"2/#	-14.3942
#2/6	-14.3944
/6:	-14.3946
'/6"2	-14.395
317	-14.3953
GIAHE	-14.3958
▁TVAK	-14.3964
_"2^	-14.3968
▁TOAFU	-14.3975
▁60071	-14.3982
.46	-14.3988
(1^"	-14.399
▁SVASVA	-14.3992
0"2:0	-14.3992
("2:#	-14.3998
']	-14.3999
HOH	-14.4
▁25,'	-14.4001
VHX	-14.4004
2.66	-14.4008
SANI	-14.4009
HXPV	-14.4011
▁3,'2	-14.4013
▁HXX	-14.4018
NIVA	-14.4021
7;	-14.4023
1400	-14.4028
▁265	-14.4032
+%1"	-14.4038
*'^"	-14.4043
83	-14.4045
TUA	-14.4045
\1%	-14.4045
.28	-14.4048
#'/1	-14.4055
▁170]	-14.4064
6.67	-14.4074
NVBU	-14.4074
▁70]	-14.4076
▁SD	-14.4077
▁33]	-14.4079
/,2	-14.4084
=':1"	-14.4086
DVADVA	-14.4092
/'/'	-14.4098
2+'"	-14.4103
▁PIAL	-14.4105
VAVA	-14.4111
ALUL	-14.4118
▁15]&1"2	-14.4128
2/"2	-14.4131
"2;'_1	-14.4142
▁DIC	-14.4143
380	-14.4148
-1.1-1.	-14.415
(']1	-14.4157
)1;	-14.416
02/1"2	-14.4165
GVAG	-14.4169
)1"2/	-14.4176
#:"2/5	-14.4197
▁/#31	-14.4201
[27	-14.4205
▁110^	-14.4208
▁"-:(	-14.4214
UATVA	-14.4216
▁12.2	-14.423
'"2\1	-14.4233
3.5	-14.4238
+31	-14.4238
IMF	-14.4239
▁45.	-14.426
51;'	-14.4264
2,'37	-14.4274
▁1322	-14.4283
.00	-14.4296
3.98	-14.4298
▁153	-14.4312
.04	-14.4312
9'-""2	-14.4315
2/]'	-14.4315
▁:8/8'"	-14.4318
0+1]&1"	-14.4319
▁96.	-14.432
▁59.	-14.4336
▁120]&1	-14.4338
AHIAHXA	-14.4345
▁150&1	-14.4346
▁059	-14.4349
61"	-14.4349
5.00	-14.4354
TUDV	-14.4354
/51"2	-14.4366
▁90]	-14.4368
▁7"3	-14.4377
▁290	-14.4392
GIGE	-14.4401
2/4'	-14.4405
BIG	-14.4406
▁1940	-14.4411
/0'"	-14.4414
,'44	-14.4415
]2/5	-14.4422
▁2900]	-14.4425
▁040	-14.4426
:8\1	-14.4429
6?'	-14.4434
\;	-14.4435
/]'"	-14.4441
+1&1"	-14.4444
▁570	-14.4446
%2:(	-14.4448
LET	-14.4451
7>1	-14.4457
6'"""	-14.4462
=2;1	-14.4467
9';1^	-14.4468
!251/	-14.4472
LEG	-14.4484
):	-14.4492
▁+'%1"2	-14.4492
▁4184	-14.4495
^,2	-14.45
5.56	-14.45
4,'96	-14.4502
*';	-14.452
WFU	-14.4522
HIAQ	-14.4523
5.49	-14.4523
HIABU	-14.4533
▁HWHV	-14.4536
▁077	-14.4539
▁SATOA	-14.4542
&1^"2	-14.4561
▁ZAQ	-14.4578
7'"2^	-14.4581
93,'9	-14.4589
61.5	-14.4589
▁52>	-14.4596
▁:1?"2	-14.4598
▁LXLX	-14.46
:#';'	-14.4606
0.90	-14.4608
*&1"	-14.4616
<1-	-14.4618
+'\1"2	-14.462
▁4.0	-14.4625
▁6000&1	-14.4632
▁43/	-14.4632
YJ	-14.4638
2/"	-14.4638
16	-14.465
&7^"	-14.4666
▁^20	-14.4673
▁LUGO	-14.4675
▁:('/'"	-14.4682
]"2^	-14.4684
3,'1	-14.4688
▁0.72	-14.4699
)2"2	-14.47
(1,-	-14.4701
▁157	-14.4717
6':;	-14.4726
▁ZWNV	-14.4728
:1"2^	-14.4734
>"2/5	-14.4738
WB	-14.4739
9,'2	-14.4741
▁VADOA	-14.4743
"2194	-14.475
▁3251	-14.4757
'/8'"2	-14.476
▁1"36	-14.4767
1"'^	-14.4768
▁HIH	-14.477
TVL	-14.4775
?"2/5	-14.4777
▁129	-14.4779
▁$1	-14.478
1"2:8	-14.4795
OF	-14.4796
!\"2	-14.4801
&'"2^	-14.4806
▁:8]	-14.4808
82;	-14.4809
?1:	-14.481
HUG	-14.4812
0,2"	-14.4815
▁^/#:	-14.4816
TUKX	-14.4818
1,'9]	-14.4825
ASUD	-14.4826
▁_?"	-14.4836
15.4	-14.4847
PIAP	-14.485
GIAH	-14.486
5"33	-14.4862
,'69	-14.4865
▁QUAC	-14.4869
▁061	-14.487
96.3	-14.4884
8'/0	-14.4884
('^"	-14.4892
9"2/4	-14.4893
RK	-14.4896
"';'	-14.4902
▁ZOV	-14.4904
▁062	-14.4906
,'0	-14.4908
HVG	-14.4922
(1"2^	-14.4923
/5'"2;'	-14.4925
0&1;'	-14.4933
:1+1]&1	-14.4936
▁80.	-14.4956
52^"2	-14.4957
▁BULV	-14.4967
.55	-14.4969
ADINO	-14.4971
▁ZWK	-14.4973
▁PIABU	-14.4975
▁61.	-14.4981
%,27	-14.4984
6/'"2	-14.4987
GXALU	-14.4987
▁^"2:	-14.4989
:_:('	-14.4989
55.7	-14.4995
1918	-14.5002
6+'"	-14.5009
▁('	-14.5009
2]&1	-14.5015
3.2	-14.5022
&1"2;'71	-14.5027
%"2:('	-14.503
GXAQ	-14.5037
[';	-14.5038
#:_	-14.5048
AZOL	-14.5048
▁/'/	-14.5051
10,2	-14.5052
2/8'"	-14.5052
▁1200&1	-14.5054
41;'	-14.5061
2/8'"2	-14.507
.69	-14.5099
▁40,'	-14.5113
1"2196	-14.5121
DID	-14.5146
ZWDIA	-14.5147
KYSU	-14.5153
▁1226	-14.5157
4/5'	-14.5159
.16	-14.5161
8770	-14.5163
2)"	-14.5174
364,'9	-14.5179
9'7	-14.518
$^	-14.5182
▁842	-14.5182
▁"-?'	-14.5183
0.42	-14.5189
]':('"	-14.5196
▁15]&1	-14.5196
>':('	-14.5198
▁31.7	-14.5203
ILE	-14.521
+1]&1"2	-14.5212
▁87.	-14.5212
▁3921	-14.5217
82/	-14.5218
,'87	-14.5224
0251"	-14.5224
▁:2%:	-14.5225
▁1265	-14.5236
=2+'	-14.5244
GOGE	-14.5245
371	-14.5252
▁624	-14.5253
98.8	-14.5253
▁/#:1"2	-14.5255
5"2:1	-14.5255
8.97	-14.5261
▁PVT	-14.5267
:-"	-14.5275
42,'5	-14.5279
▁9.9	-14.528
'/5"	-14.528
*1^"2	-14.5281
▁1997.0	-14.5298
6'%	-14.5304
▁71*1	-14.531
/[-	-14.531
:/	-14.5314
▁HUD	-14.5333
,-:(	-14.5337
▁;'19	-14.5356
2/5"	-14.5356
▁WIN	-14.5357
GVAN	-14.5362
[17'	-14.5364
VAGWA	-14.5367
+/6	-14.5367
▁/5%'	-14.5369
▁3500]	-14.5378
▁HXAGEA	-14.5379
&1,-	-14.5382
#_1"	-14.5384
:/#	-14.54
▁DIAH	-14.5402
/8'-	-14.5411
-2001	-14.5414
▁760	-14.5415
:1-	-14.5417
▁KIAHIA	-14.5418
▁SUDI	-14.5419
▁38,'	-14.5422
["2/'	-14.5428
▁1293,'	-14.5437
-2000	-14.544
▁HIQ	-14.5441
▁LUQUA	-14.5451
:#/5'	-14.5457
AKIF	-14.5458
'?"	-14.5459
/1:('	-14.5462
<2	-14.5462
▁HXAHXA	-14.5465
GIS	-14.5466
,8	-14.5469
\'"2^	-14.5479
12)	-14.548
<'"2^	-14.5483
0+1	-14.5486
8-	-14.5495
!&1	-14.5497
NIDW	-14.5498
6'/8"2/	-14.55
0]&1;	-14.5505
▁132	-14.551
]^"	-14.5517
900	-14.5518
▁BUBV	-14.5532
▁HOF	-14.5547
▁15"31	-14.5549
'\1"	-14.5552
4,'	-14.5553
378	-14.5554
1/4"2	-14.5565
KVKV	-14.5577
CWA	-14.558
8'3;	-14.558
/51"	-14.558
':7	-14.5583
2:1]	-14.5587
4]&1	-14.5603
▁61\1	-14.5614
18	-14.5621
AHIAMU	-14.5621
5"2/6	-14.5621
▁%1?	-14.5632
,'09	-14.5635
▁5,'2	-14.5639
▁UL	-14.5644
"260	-14.5649
▁130]	-14.5649
HIALI	-14.5652
▁560	-14.566
!2/5'^	-14.5663
ALINO	-14.5664
▁730	-14.5669
0&1"2;'	-14.5676
62-	-14.5678
-0.2	-14.5679
4.38	-14.5683
':8"2;'	-14.5697
517	-14.5698
'"2:#	-14.57
▁22.6	-14.5703
/#'/#'	-14.5708
1.80	-14.5717
*"""	-14.5721
YZA	-14.5723
GUK	-14.573
7^"2	-14.5732
YBU	-14.5741
▁:(':"	-14.5746
.36	-14.5757
▁928	-14.576
^110^	-14.5761
:"2/5	-14.5775
"2;':6	-14.5778
▁"-:('	-14.5779
78.9	-14.5783
▁432	-14.5789
▁1991.	-14.5791
[:"2	-14.5792
,'70	-14.5793
72,'3	-14.5793
;'71	-14.5798
KYCVA	-14.5805
▁^]	-14.5809
'&1^	-14.5809
5.50	-14.5818
/8^"	-14.5819
▁:5'	-14.5825
!;1	-14.5827
%2"2^	-14.583
4'"2;'	-14.5835
▁]&1"	-14.5836
1]'	-14.5836
AGIAHXA	-14.5841
71/6	-14.5843
^/	-14.5848
▁643	-14.585
▁GID	-14.5851
88.9	-14.5859
]1/#'	-14.586
▁4]+1	-14.586
*/#"2	-14.5862
<'^"2	-14.5868
▁772	-14.5889
PIG	-14.5906
6.03	-14.5909
NVB	-14.591
0.86	-14.5917
90,'5	-14.592
0"33	-14.5921
.86	-14.5925
4,'5	-14.5939
▁62.	-14.5946
BUI	-14.5946
8/8	-14.595
24.9	-14.5951
/'-	-14.5956
▁377	-14.5965
AKW	-14.5968
.74	-14.597
▁CHIA	-14.5975
74.3	-14.5976
▁3000]&1"	-14.5977
▁30]&1"	-14.5978
▁GEAJ	-14.5989
▁057	-14.5994
.01.2	-14.5999
"-/#	-14.6
HEH	-14.6
▁462	-14.6002
▁TWAB	-14.6003
▁PUAD	-14.6005
1/5"	-14.6015
▁5000&1"2	-14.6015
ISA	-14.6016
[2)	-14.6018
8"2;'	-14.6018
▁2"3	-14.6019
1.83	-14.6022
▁1,\10"	-14.6025
-2.9	-14.603
4.48	-14.6032
1-"7	-14.6036
BVAG	-14.6039
300]	-14.6041
9,'0	-14.6048
.2]&1"	-14.6055
▁29]	-14.6055
-1.2	-14.6061
▁3000]&1	-14.6063
▁/]'/	-14.607
SVASVA	-14.6071
\1/]'	-14.6078
▁39,'	-14.6084
▁5000&1"	-14.6095
#1/	-14.6095
.03	-14.6098
DOAK	-14.61
▁3,\4	-14.6108
▁2,'9	-14.6109
0-10	-14.611
6'&	-14.6119
:#"2	-14.6129
,'14	-14.614
]/'"	-14.6142
▁^"2;'	-14.6142
+'"2^	-14.6148
:('^"	-14.6151
"219	-14.6156
'/6"	-14.6156
▁6341747	-14.6163
▁120714.5,2	-14.6163
▁8259,'31	-14.6163
▁CHINANET	-14.6163
▁;-#7-2	-14.6163
▁-1.0-1.	-14.6163
▁86,'26	-14.6163
▁1997.10.	-14.6163
▁83"38	-14.6163
▁"-:1)-"	-14.6163
1997.8.	-14.6163
▁1994.07.	-14.6163
▁394,'39	-14.6163
▁4054,'06	-14.6163
CVALUSU	-14.6163
-0.6-0.	-14.6164
','6:6"	-14.6164
▁89"371	-14.6164
5.11.2	-14.6164
▁3862,'	-14.6164
_':1+'^"2	-14.6164
&*)-"	-14.6164
7,'03	-14.6164
TIONAL	-14.6164
3276.	-14.6165
PVTOAQUA	-14.6165
▁91.69	-14.6165
.10.2	-14.6165
78.61	-14.6165
▁110.00	-14.6165
▁85"36	-14.6165
▁74.2]	-14.6166
▁56.60	-14.6166
3959.	-14.6166
▁APEC	-14.6167
AGIL	-14.6167
▁6.5	-14.6167
▁5718.	-14.6167
▁31773	-14.6167
▁/4:"2,--	-14.6167
79.4	-14.6167
4.2195	-14.6168
▁/91/91	-14.6168
▁1242,'	-14.6168
▁32.60	-14.6168
▁18654.	-14.6169
63.74	-14.617
▁14664	-14.617
▁1992.08.	-14.6171
!':#'712	-14.6171
02.65	-14.6172
▁6693	-14.6172
!1+'-"	-14.6172
▁110]&1"2	-14.6172
ZOF	-14.6172
▁78"3	-14.6175
▁1186,'	-14.6175
=2,2;'71	-14.6176
▁7.75	-14.6176
"2;'71?'	-14.6176
▁432,'6	-14.6177
/8'"2/5	-14.6178
▁88,'7	-14.6178
▁^/]'/51	-14.618
▁26.40	-14.618
-1.3-1.	-14.6181
16.25	-14.6182
▁35474	-14.6184
AFUDW	-14.6186
-330	-14.6186
-22	-14.6186
▁^='^	-14.6187
62"2:8:	-14.6187
▁6277.	-14.6188
42857	-14.6188
3.4	-14.6189
▁1"3129	-14.619
5.1]	-14.6191
-2.5	-14.6191
▁12.17	-14.6191
1%'	-14.6192
▁DIIF	-14.6194
▁06	-14.6195
▁14.97	-14.6196
▁9"35	-14.6198
▁1250,'	-14.6203
-968	-14.6203
▁145.4	-14.6203
-30-	-14.6204
▁DWBU	-14.6204
65.22	-14.6204
▁-1,'	-14.6205
▁6000]&1"	-14.6206
2"2/0	-14.6207
▁73"36	-14.6207
▁68"3	-14.6207
▁63.	-14.6208
'---:1	-14.6209
AIIHJBJ	-14.6209
▁77"360	-14.6209
.08.1	-14.621
▁4.6]	-14.6213
170150	-14.6213
▁14.30	-14.6216
%;':,2^	-14.6216
,'7	-14.6217
708]	-14.6217
'/2?"2	-14.6217
:6':	-14.6217
71.5	-14.6218
▁91,'8	-14.6218
74.54	-14.622
▁11.33	-14.6221
▁15.18	-14.6221
▁10548	-14.6223
▁2300]&1"	-14.6224
<'7:1"	-14.6224
▁3,\4"2	-14.6225
11.89	-14.6226
▁71:8/	-14.6227
+/6"2;'	-14.6229
▁-4.0	-14.623
▁2,'75]	-14.6232
#:_-"	-14.6232
▁1265,'	-14.6232
▁76"3	-14.6232
"2;'+1?'	-14.6233
▁15.89	-14.6233
▁8.64	-14.6234
5"';1	-14.6235
▁117.	-14.6236
▁&1+31	-14.6236
▁10,'64	-14.6237
▁12.06	-14.6238
.39	-14.6238
▁^863	-14.6238
46,'6	-14.6241
5,'76	-14.6242
▁16.38	-14.6244
)';'	-14.6248
7"36	-14.625
▁58"3	-14.625
:7':7'	-14.6251
YT	-14.6252
▁3793,'3	-14.6254
9"2199	-14.6255
▁VAF	-14.6256
▁26.75	-14.6257
▁DIADU	-14.6257
*>1	-14.6258
▁4350	-14.6259
476.2	-14.6259
▁/0:5	-14.6261
▁:#:"	-14.6262
▁6.5]	-14.6264
▁1600]&1"	-14.6264
▁5160&1	-14.6265
▁60013	-14.6266
HXAQ	-14.6267
▁6200	-14.6268
▁9300	-14.6268
▁77.	-14.6269
▁21"317	-14.6269
%':'-"	-14.627
>'>'$1	-14.6271
658&1"	-14.6271
▁9243	-14.6273
"2]':8	-14.6274
'?'"2	-14.6274
19.80	-14.6275
▁16.56	-14.6279
▁1246,'	-14.628
'"';'	-14.6282
1238.	-14.6283
▁9.99	-14.6283
55.64	-14.6284
▁366]	-14.6285
▁17.43	-14.6285
▁12.33	-14.6285
BUGU	-14.6286
▁554,'	-14.6286
=2"'	-14.6289
▁370,'12	-14.6289
\1*'"2;'	-14.629
'71"2;'	-14.6291
:1;':1,2	-14.6292
▁57,'	-14.6295
!2/#"2^	-14.6298
9.47	-14.6298
DOAQU	-14.6299
▁10500	-14.6301
▁8"32	-14.6302
▁60087	-14.6303
▁55.	-14.6304
▁4336	-14.6305
▁470]	-14.6306
AZOBU	-14.6306
▁3.75	-14.6306
39,'9	-14.631
▁400&1"2	-14.631
▁48.6	-14.6311
▁1233	-14.6315
▁45.0	-14.6318
▁87.6	-14.6318
▁35.3	-14.6322
▁0616	-14.6324
▁4.4]	-14.6324
▁89.6	-14.6325
▁1736	-14.6327
52.38	-14.6327
3667.	-14.6328
▁9.1	-14.6328
▁9]+1	-14.6329
▁7000+1	-14.6329
82"220	-14.633
':1]&1"	-14.633
▁30,'6	-14.633
▁33,'0	-14.6331
▁:/-"	-14.6331
▁010-64	-14.6332
▁TWATOA	-14.6333
7.94	-14.6334
▁2,'75	-14.6335
'^;	-14.6337
▁3683,'1	-14.6338
5'/#-""	-14.6341
▁-4.7	-14.6342
/-	-14.6343
▁OECD	-14.6344
▁,81100'	-14.6348
62.46	-14.6348
▁3968,'	-14.6349
0-40	-14.6351
▁256	-14.6353
▁5"32	-14.6355
▁90.	-14.6355
HIB	-14.6358
071	-14.6359
0%1;'	-14.6359
▁3688	-14.6362
▁;'&1	-14.6363
0.21	-14.6364
▁5.3]	-14.6365
,'83	-14.6366
$,2	-14.6366
:#'718	-14.6366
+1:^"2	-14.6366
▁2083	-14.6367
48.48	-14.6368
▁DIIQW	-14.6369
▁4197	-14.6371
!)	-14.6375
▁1200+1	-14.6375
47.8	-14.6376
▁12.46	-14.6376
6.	-14.6377
5.12	-14.6379
731:#	-14.638
▁48,'6	-14.6382
NIQ	-14.6382
▁981	-14.6382
▁10.53	-14.6383
231	-14.6385
▁83.	-14.6385
'?':(	-14.6386
RN	-14.6389
BUR	-14.6389
▁,8/#:	-14.639
DOAKI	-14.639
▁1633	-14.6391
▁3250.	-14.6393
.1-5.	-14.6394
7975	-14.6398
52/(	-14.6398
2:('"2;'	-14.6399
▁11.10	-14.6399
▁8]&1"2	-14.64
▁:#'^	-14.6401
%'*'7	-14.6402
▁1200]&1"2	-14.6402
ATOAN	-14.6406
▁5"35	-14.6409
▁1.5&1	-14.641
▁93,'6	-14.6413
▁103]	-14.6413
.7]&1	-14.6415
▁250+1	-14.6418
▁16.15	-14.6422
▁10080	-14.6422
6,'33	-14.6424
▁4080	-14.6426
UAT	-14.6426
%'$'"	-14.6426
▁174	-14.6429
▁97.	-14.643
5_	-14.643
▁1996.0	-14.6433
▁9.59	-14.6436
▁1.93	-14.644
▁---"-	-14.644
68664	-14.644
▁+%'	-14.6442
▁14.46	-14.6442
07.45	-14.6443
:1+1]	-14.6444
▁400+1	-14.6445
▁208	-14.6446
541.0	-14.6446
▁/0'/"2	-14.6447
%2"2/	-14.6447
▁19.6	-14.6448
▁19.7	-14.645
▁10,'92	-14.645
TWAQ	-14.645
▁TUM	-14.6451
▁QAKWA	-14.6452
▁40.8	-14.6453
',2;'	-14.6455
748.	-14.6456
▁295.	-14.6456
▁:0:6'"2	-14.6456
▁109.	-14.6456
▁60066	-14.6457
66144	-14.6458
▁3"33	-14.6461
▁7.68	-14.6461
▁2.20	-14.6465
▁4.49	-14.6468
/[^	-14.6471
/#-	-14.6475
▁2668	-14.6476
▁1870	-14.6478
▁4.05	-14.6479
▁89.8	-14.648
▁,8:('	-14.648
:#'716	-14.6482
-0.1-0	-14.6482
▁45.5	-14.6488
▁6008	-14.649
0.30	-14.649
5"2197	-14.6491
▁245]	-14.6493
▁:01_"2	-14.6494
DVAHX	-14.6495
63,'8	-14.6495
▁^"'	-14.6496
▁10.16	-14.6496
▁66.5	-14.6498
▁6.2]	-14.65
▁52/'"2	-14.65
▁1.37	-14.6503
▁SALX	-14.6505
[2"2/6	-14.6505
\:01^	-14.6507
▁74"3	-14.651
:#'78	-14.6511
28	-14.6513
IKXA	-14.6513
▁BVABVA	-14.6514
263.2	-14.6516
▁42.6	-14.6516
',2-	-14.6518
▁7.92	-14.6521
▁2,'7	-14.6524
▁4"36	-14.6528
▁54.3	-14.6528
▁88"3	-14.653
▁2,'1]	-14.6531
▁7.26	-14.6531
6'/8;	-14.6533
▁84.3	-14.654
▁350]	-14.6543
("2;'	-14.6545
▁1]+1	-14.6546
▁4167,'	-14.6547
▁DEALO	-14.6547
7,'17	-14.6548
▁28.3	-14.6549
▁84"3	-14.655
1]	-14.6557
9,'58	-14.6558
▁1847	-14.6559
▁GUASUA	-14.6561
-1995	-14.6561
0069	-14.6568
▁1000&1"	-14.6572
▁15]+1	-14.6574
4.06	-14.6576
▁TVK	-14.6577
[2&1:#'	-14.6577
▁14.85	-14.6581
▁%1/4"2/5	-14.6582
7]+1&1"2	-14.6582
52:"	-14.6584
▁79.6	-14.6585
6,'08	-14.6585
78.2	-14.6586
▁1097	-14.659
▁3000]&1"2	-14.6592
▁10.00	-14.6594
▁67.0	-14.6595
▁34.8	-14.6596
KIH	-14.6597
▁2.27	-14.66
%/8'"	-14.66
[+"2	-14.6602
7.8]	-14.6602
▁30]&1"2	-14.6603
▁1175,'	-14.6606
▁2067	-14.6606
▁1039	-14.6607
▁24.7	-14.6608
▁101.8	-14.6609
▁10.45	-14.661
▁1,\10"2	-14.6611
7.47	-14.6615
'^"2^	-14.6617
▁1038	-14.6618
95.9	-14.6619
#^;1	-14.6622
▁8.56	-14.6622
▁"-]'	-14.6623
▁:8"2^	-14.6624
;'1,2	-14.6625
HYVA	-14.6628
62/5'"2	-14.663
▁2,'7]	-14.6631
7.66	-14.6632
▁428	-14.6632
▁NIM	-14.6634
▁HEAH	-14.6634
(^"2	-14.6636
▁1908	-14.6636
▁5.2	-14.6643
'"2<	-14.6644
▁-3.2-	-14.6647
▁1,'96	-14.6649
8,'9	-14.6654
15	-14.6655
▁:1?\1	-14.6658
▁1638	-14.6659
82-	-14.6659
▁361,'	-14.666
▁HVB	-14.6661
▁240]	-14.6664
+/6"2	-14.6665
,'43	-14.6669
▁HEAHEA	-14.6671
2+"	-14.6673
2;'65	-14.6676
▁243	-14.6681
▁9.36	-14.6681
▁1474	-14.6682
▁3.07	-14.6683
▁113.	-14.6684
36.43	-14.6685
▁466	-14.6686
8/0"2	-14.6687
4.77	-14.669
▁21"310	-14.6694
+'\1^	-14.6694
▁29.6	-14.6695
+:(,2	-14.6697
9779	-14.6698
9.90	-14.6699
+"""	-14.6699
▁5825	-14.6699
9,'4	-14.67
▁DOAKWA	-14.6701
▁10.14	-14.6704
6',-	-14.6704
▁60011	-14.6704
(2,2	-14.6713
3705.	-14.6718
4"2;'/4	-14.6718
▁2470	-14.6718
▁SUM	-14.672
▁69.4	-14.6721
WT	-14.6727
▁51.9	-14.673
▁TIL	-14.6734
▁1618	-14.6735
▁083	-14.6737
65.70	-14.6739
▁99,'	-14.674
*1"2:1	-14.6741
ALUG	-14.6742
▁:8"21997	-14.6743
19.63	-14.6744
▁"-<'	-14.6744
▁380,'	-14.6745
2:1,-	-14.6745
▁60084	-14.6748
▁391,'3	-14.6754
"2^/5	-14.6758
5:"'	-14.6762
▁2800&1	-14.6763
'"2:0'	-14.6765
▁180+1	-14.6768
0.97	-14.6769
8'/5	-14.6771
▁1.43	-14.6771
DVANO	-14.6771
▁25/	-14.678
▁1030	-14.6781
▁QUAQUA	-14.6785
▁368	-14.6785
\/"	-14.6788
▁118]	-14.6789
▁25.3	-14.679
["2:	-14.6794
*^---	-14.6796
▁418,'2	-14.6796
▁4-5	-14.6797
▁1.85&1	-14.6798
8.54	-14.6799
4.24	-14.6799
'71"251	-14.6804
▁2000&1"2	-14.6805
▁2460	-14.6806
▁0.75	-14.6807
:1:8"2	-14.6809
21	-14.681
▁46.5	-14.6811
▁BUPI	-14.6817
66.43	-14.6819
▁1,'05	-14.682
&/	-14.6822
▁5,'3	-14.6825
0'&'"	-14.6829
▁49.1	-14.683
.2]	-14.6831
▁5,'6	-14.6833
UBI	-14.6833
0417	-14.6833
▁437	-14.684
▁27]&1"	-14.6841
▁GOAM	-14.6846
▁40.2	-14.6848
▁2]+1	-14.685
▁10.15	-14.685
▁1558	-14.6852
/1"2^	-14.6853
▁0.365	-14.686
▁1640	-14.686
▁HWM	-14.6862
':1]&1"2	-14.6862
▁100.	-14.6865
▁11,'4	-14.6865
▁HWAS	-14.6869
4.3	-14.6869
2"2:('	-14.687
.08.0	-14.6873
▁3.06	-14.6881
JUQ	-14.6883
9$	-14.6887
▁76"35	-14.6894
▁1803	-14.6896
8'/8	-14.6896
▁89.0	-14.6897
55.8	-14.6898
21.09	-14.6902
▁-1.6	-14.6903
EH	-14.6905
▁2.18	-14.6905
$'/51	-14.6908
▁5000&1"2/	-14.6909
▁PII	-14.691
#^"2;'	-14.691
$^"2	-14.6911
1;'18	-14.6912
6200+1	-14.6916
6'&1-"	-14.6919
▁4500	-14.6921
TIB	-14.6922
3;1	-14.6926
▁1339	-14.6927
0-80	-14.6927
▁:5/"2	-14.6928
▁4.07	-14.6928
▁TVADWA	-14.693
▁135]	-14.6931
▁43.6	-14.6932
▁385,'	-14.6936
▁10400	-14.6936
7.08	-14.6941
4,'78	-14.6942
$:'"	-14.6943
▁2308	-14.6945
[2:#	-14.6946
8]	-14.6947
▁^100	-14.6948
▁28.1	-14.6953
▁16,'5	-14.6954
!2('"	-14.6954
8/5'-"	-14.6957
763.9	-14.696
.02.0	-14.6961
']+1&1	-14.6961
*"230	-14.6968
79312	-14.6968
QA	-14.6976
337.2	-14.6979
1934	-14.6981
▁1.73	-14.6981
▁108]	-14.6982
0/6	-14.6985
▁20.8	-14.6987
▁6,'6	-14.6987
▁90+1	-14.6992
VBUD	-14.6995
2.40	-14.6995
-110	-14.6996
.20	-14.6998
71.8	-14.6998
'^"2;'	-14.7002
*2_;	-14.7009
▁^/1	-14.7014
0:;'1	-14.7017
▁508	-14.7023
▁30,'2	-14.7025
▁1296	-14.7026
'"2/'	-14.7031
▁/#/7"2	-14.7034
▁1.7]	-14.7035
▁DUK	-14.7036
22566	-14.7039
5"2^;'	-14.7051
5"';'	-14.7051
▁2629	-14.7052
▁750	-14.7058
30.00	-14.706
▁8]&1	-14.7062
▁23.7	-14.7062
▁14,'4	-14.7063
▁3.34	-14.7063
▁1365	-14.7064
1;':8,2	-14.7065
48.7	-14.707
:1"2/#	-14.7072
=1=1^"	-14.7073
643.9	-14.7081
1.31	-14.7082
▁HXB	-14.7082
6^"2	-14.7083
▁967	-14.7083
*2^"	-14.7093
0,2"2	-14.7095
3.19	-14.7095
▁QUAP	-14.7095
▁1361	-14.7097
0.88	-14.7099
5/0	-14.7101
-"7	-14.7102
▁21.4	-14.7103
▁3503	-14.7104
:5'"	-14.7105
2:1+1	-14.7111
▁251]	-14.7112
14.18	-14.7116
%';1	-14.7116
▁1280	-14.7117
▁533	-14.7118
▁]/4	-14.7119
▁4.25	-14.7121
▁:1]	-14.7122
▁1178	-14.7124
▁430,'	-14.7124
0,'16	-14.7125
▁71?'/	-14.7128
0"363	-14.7134
2,2"2;'	-14.7135
▁8,'8	-14.7138
]1"	-14.714
&;1	-14.7141
0,'7	-14.7142
▁?:"	-14.7148
2"2199	-14.715
[:#'/8'	-14.7155
3.33	-14.7157
!'&1"2;'	-14.7162
▁1206	-14.7162
▁0"36	-14.7163
2&/8'"	-14.7164
▁400+1]	-14.7164
▁18.9	-14.7169
▁9169	-14.717
▁467	-14.7173
▁^2000	-14.7176
▁587	-14.7176
▁3.5&1	-14.7178
▁1326	-14.7178
▁900]	-14.7185
▁2608	-14.7186
▁1036	-14.7189
▁36.6	-14.7191
▁DUH	-14.7193
>%1"	-14.7196
>"2"-	-14.7204
▁BVANI	-14.7208
2/4"	-14.7209
▁13.7	-14.7209
=2"210	-14.721
▁497	-14.7212
.70	-14.7217
0]&1"	-14.722
▁44.8	-14.7223
▁1865	-14.7226
/5';	-14.7227
▁PUAL	-14.7227
5;1;'	-14.723
3.90	-14.7234
▁;'+1	-14.7235
▁447	-14.7238
)2:	-14.7241
0:;'	-14.7241
LEJ	-14.7244
▁EG	-14.7249
!>-"	-14.725
▁CWAK	-14.7252
%2/8	-14.7253
▁:8*"2	-14.7257
BVD	-14.7258
▁2400&1	-14.726
▁670	-14.7263
▁1540	-14.7264
9'7'"2	-14.7267
52.41	-14.727
▁121	-14.7275
▁3.35	-14.728
4.43	-14.7281
1,'54	-14.7282
"230	-14.7283
▁1826	-14.7285
*2,2	-14.7286
239.9	-14.7288
▁394,'	-14.7288
*:"2	-14.729
▁7,'1	-14.7293
'/4'"2	-14.7303
%2"2:('	-14.7305
3936	-14.7305
6'"'	-14.7308
1\2	-14.7313
-30	-14.7313
▁40.6	-14.7314
▁^3,'	-14.732
(1:51	-14.7321
▁364,'	-14.7325
',-/	-14.7327
]1"2	-14.7335
▁LELE	-14.7337
8'/5'	-14.735
26	-14.7354
^/4	-14.7355
"25000	-14.7358
▁^1996	-14.7359
0:^"2	-14.7362
6':"2\	-14.7362
▁82.	-14.7363
8'/5'"2	-14.7364
QUABU	-14.7365
▁1,'45	-14.7366
▁1.6]	-14.7369
▁/0/0"	-14.7369
[271^	-14.7369
▁250]&1"	-14.737
"2,-	-14.7375
<,-	-14.7381
▁:8/0"2	-14.7383
UAHW	-14.7386
XZ	-14.7387
▁557	-14.7388
▁10,'2	-14.7393
707	-14.7394
▁:#':"2	-14.7394
▁400&1	-14.7398
,'65	-14.7399
▁870	-14.7399
2"2\1	-14.74
*2"2^	-14.74
▁10.82	-14.7406
HUT	-14.7407
&/#"2	-14.7408
▁1.19	-14.7412
▁42.0	-14.7414
▁3.56	-14.7428
2"2;'/	-14.7433
49,'8	-14.7435
▁5,'8	-14.7437
▁TOAD	-14.7444
16.63	-14.745
451.7	-14.7456
▁10,'9	-14.7468
*17	-14.7474
▁29.2	-14.7483
▁128.	-14.7491
▁60062	-14.7495
#/51	-14.7497
2/8"2\	-14.75
:,-^	-14.7508
▁657	-14.751
▁1.08	-14.751
▁GOD	-14.7514
22.6]	-14.7517
▁15"311	-14.7518
TVH	-14.7519
▁680	-14.7519
▁:2%1"2	-14.7523
ISO	-14.7526
IBI	-14.7527
92/	-14.7528
1948	-14.7532
\_1"	-14.7532
YDI	-14.7533
▁0.80	-14.7534
-""""	-14.7534
7,'96	-14.7534
▁:1%:"2	-14.7535
57.7	-14.7537
▁2712	-14.7538
:5/8'	-14.7541
.08.2	-14.7542
▁873	-14.7544
ZVH	-14.7546
31^	-14.7547
:8'"2^	-14.7548
2.33	-14.7548
2.20	-14.7555
▁101.	-14.7556
%'"2/	-14.7557
DVDV	-14.7559
65,'3	-14.7566
▁5742	-14.7571
▁33.6	-14.7572
▁/4'/"2	-14.7573
675]	-14.7574
57	-14.758
81[	-14.7584
▁DUBI	-14.7587
00+1]	-14.7588
]'&1	-14.7588
)';	-14.7588
▁25.1	-14.7589
7.2	-14.7592
0+1^	-14.7595
[1/(	-14.7595
2&1"2;'71	-14.7605
5795	-14.7609
▁^<	-14.761
▁+%1"2	-14.761
7,'4	-14.7614
"210	-14.7624
7.86	-14.7624
▁HUAG	-14.7627
KUM	-14.7628
▁60082	-14.7631
4%'"2	-14.7632
▁15997	-14.7635
[^"2/5	-14.7636
▁CUAG	-14.7637
AIIHJAA	-14.7641
,'6]	-14.7646
▁471	-14.7647
2"2/'	-14.7647
#'"2;'	-14.7654
426.3	-14.7655
[\1	-14.7656
6]&1;	-14.7658
▁3.26	-14.7661
51"2;'	-14.7676
01,'95	-14.7676
▁4"30	-14.7681
0.8	-14.7682
%':#"2	-14.7683
\1"""	-14.7686
▁16.9	-14.7688
51"2:5	-14.7695
▁HVAT	-14.7695
+/7	-14.77
>1:0'	-14.77
▁3.57	-14.7702
#';	-14.7704
000&1"2	-14.7714
4:('"	-14.7716
TOAFU	-14.772
▁273	-14.7721
1,-^	-14.7721
▁2214	-14.7721
▁PUKI	-14.7722
▁1869	-14.7723
47.7	-14.7727
▁387	-14.7733
=2-""2	-14.7734
▁7,'4	-14.7736
▁YT	-14.7744
▁49,'	-14.7748
0.69	-14.7758
▁/1/6"2	-14.776
▁:1%:"	-14.7762
51/"2	-14.7763
:#'/#	-14.7765
▁16.5	-14.7775
▁134	-14.7775
'"2;'31	-14.7777
8%1"	-14.7778
AHIAT	-14.7779
*1/5"2	-14.778
0.7	-14.7787
ANVDI	-14.7794
0'/4"2	-14.7796
62"2;'	-14.7796
75.4	-14.7801
&1/]'/	-14.7807
HIAMU	-14.7816
▁260.	-14.7817
6.44	-14.7822
▁4102	-14.7829
>&1"2	-14.783
▁SSW	-14.7832
>'"2^	-14.7834
▁5.7	-14.7834
0]/'"	-14.7835
-90	-14.7835
(2/5'"2	-14.7842
SN	-14.7843
▁26]	-14.7848
▁15.6	-14.7849
▁286	-14.7851
▁60+1	-14.7853
BIM	-14.7853
▁382	-14.7855
3.9	-14.7856
US	-14.7861
▁^*	-14.7864
;'65	-14.7866
0"21)	-14.7867
413	-14.7869
▁61\1"2	-14.7871
GIAD	-14.7878
HXM	-14.7878
▁1.58	-14.7888
[1,2	-14.7893
▁474	-14.7896
6809	-14.7896
3.2]	-14.7899
▁,8/#	-14.7909
▁26.2	-14.7912
YGE	-14.7912
&'-""2	-14.7913
3/5"	-14.792
347	-14.7924
▁457	-14.7925
4,'2]	-14.7928
▁BUQUAL	-14.7933
▁BUR	-14.7935
▁45,'	-14.7935
▁079	-14.7936
OABUD	-14.7937
+1"2^	-14.7938
ISVA	-14.7938
▁2612	-14.7941
*"2:	-14.7941
2,--:	-14.7943
▁1.09	-14.7945
▁17.1	-14.7946
ILV	-14.7949
6"2/5	-14.795
▁7.4	-14.7956
0501	-14.7958
99.5	-14.7963
1/[^	-14.7965
*"2,-	-14.7974
*_"2	-14.7974
8+1	-14.7974
▁888	-14.7975
▁1358	-14.7976
▁21.1	-14.798
]+1	-14.7986
DOAZO	-14.7988
▁463	-14.7989
▁20.6	-14.7991
▁;'/6:	-14.7996
91,'2	-14.7998
ED	-14.8
▁4.11	-14.8002
▁21]	-14.8005
9'?'	-14.8013
.9]&1"2	-14.8016
▁0.94	-14.802
18.58	-14.8022
▁PEA	-14.8029
92$	-14.8036
3250	-14.8036
▁896	-14.8038
21.05	-14.8042
▁0.48	-14.8043
▁15.5	-14.8046
[/8"2	-14.8048
▁1194	-14.8051
▁285	-14.8054
[+;	-14.8058
ALIQ	-14.8059
▁+1/4'	-14.806
%2/	-14.8064
▁DOAH	-14.8068
%'/#"2	-14.8073
09,'3	-14.8074
-20	-14.8078
6.40	-14.808
['"2^	-14.8086
▁1590	-14.8092
\1*'"2	-14.8093
_^	-14.8104
▁0.52	-14.8107
%^"2/5	-14.811
3,2	-14.8115
41,'8	-14.8117
▁3"315	-14.8117
6.7]	-14.8123
8.68	-14.8124
>2"2/	-14.8125
VAW	-14.8126
▁/8':"2	-14.8127
▁26.1	-14.8129
▁>1&'"2	-14.8135
▁*1+1"2	-14.8143
5-7	-14.8149
MIN	-14.8149
▁470	-14.8152
[':5"	-14.8156
▁6103	-14.8158
;'"-	-14.8165
AHIAN	-14.8165
$;	-14.8165
10.35	-14.817
▁2266	-14.8172
:01;	-14.8174
1*1	-14.8175
"358	-14.8176
▁SOAWA	-14.8176
29	-14.818
!'7	-14.8183
4/;'	-14.8186
:('"2/5	-14.8186
▁HEKI	-14.8187
09.6	-14.8193
▁82"3	-14.8195
▁19.4	-14.8198
▁DISHX	-14.82
▁46,'	-14.8205
▁DUAD	-14.8206
.43	-14.8215
1"2+1:	-14.8224
85,'3	-14.8236
3.57	-14.8237
47.1	-14.8238
HVLX	-14.824
▁383	-14.8241
600]&1	-14.8241
"23	-14.8242
▁28.4	-14.8243
▁DWLI	-14.8245
2-30	-14.8247
▁21.9	-14.8249
SUAD	-14.825
▁779	-14.8258
▁17]	-14.8258
*',-	-14.8263
]',2	-14.8263
3,'15	-14.827
▁FVK	-14.8279
/2\1	-14.8279
▁15.7	-14.8287
8.0	-14.8289
!"2;'	-14.829
▁^%'	-14.829
+2,-	-14.8291
4.99	-14.8291
4"271	-14.8297
063.0	-14.8299
35.2	-14.83
▁91.2	-14.8301
▁151	-14.8307
'7\2	-14.8311
▁384	-14.8315
SVAI	-14.8317
3.3	-14.8319
▁_/]'"2	-14.8321
>'?'	-14.8324
▁?>"2	-14.8329
▁;'02	-14.8336
▁056	-14.8337
5'"	-14.8339
▁3741	-14.8341
▁1190	-14.835
>2)/	-14.8356
,'78	-14.8358
31;	-14.836
6^"	-14.8362
'/"2\	-14.8367
7.2]&1"	-14.8372
▁1273	-14.8374
["2/	-14.8379
▁2750	-14.8381
▁DOLO	-14.8387
▁182	-14.8393
3,'75	-14.8398
*':-	-14.8399
▁<'<'	-14.8402
1.02	-14.8402
▁LXGVA	-14.8406
▁1198	-14.8409
▁137.	-14.841
2&1"2;'	-14.8411
ADOASA	-14.8413
14.08	-14.8415
LIM	-14.8417
DVAM	-14.8424
6/7	-14.8431
8.49	-14.8432
AHIAJ	-14.8434
51"2/4	-14.8434
1.1	-14.8435
ANVLU	-14.8436
▁6-8	-14.8438
▁KVQUAL	-14.844
9.33	-14.8441
-80	-14.8443
▁1.56	-14.8443
▁499	-14.8446
/_'-""	-14.8448
▁8600]	-14.8452
*/8^"2	-14.8459
9.12	-14.846
0.9	-14.8464
▁71.	-14.8469
1/4'"	-14.847
▁7200	-14.8472
▁13.4	-14.8477
▁71&1	-14.8477
▁1760	-14.8486
09224	-14.8486
▁13.2	-14.8487
8"2/	-14.8494
+'/]	-14.85
:017'"	-14.8505
▁124	-14.8507
▁93]	-14.8508
▁22"3	-14.8511
10.97	-14.8516
4148	-14.8517
IAQ	-14.8519
1951	-14.8524
ADILO	-14.8533
"315	-14.8537
'&1/8'"	-14.8545
(2/5'"	-14.8557
▁20.0	-14.8557
▁QUAKI	-14.8561
▁BVAB	-14.8562
='"2;'	-14.8571
(2,-	-14.8574
▁51.	-14.8581
▁TVZ	-14.8583
▁YZ	-14.8585
LUH	-14.8585
YKI	-14.8592
>2+'	-14.8602
▁268	-14.8604
BUTOA	-14.8613
%/"2;'	-14.8613
▁54,'1	-14.8614
▁476	-14.8615
▁PVAGI	-14.8616
▁\?	-14.8616
▁1661	-14.8618
%&1^	-14.8623
2"2"-	-14.8624
985.	-14.8624
130]/	-14.8632
6.49	-14.8636
2/0'"2	-14.8638
▁74.	-14.8645
58.8	-14.865
▁50,'	-14.8655
▁29,'	-14.866
-0.5-1.	-14.8669
0-3	-14.8669
9:('	-14.8674
+2"'	-14.8681
▁34.0	-14.8687
)/5	-14.8694
▁46.9	-14.8696
▁GXADIA	-14.8698
SH	-14.8707
▁937	-14.871
3033	-14.8711
>+'"2	-14.8715
"-:	-14.8716
▁:1:8"2/5	-14.8741
▁1597	-14.8743
>'<"2	-14.8745
▁ZOT	-14.8747
▁357	-14.8748
▁LUGW	-14.8752
0_1"2	-14.8757
▁0.12	-14.8758
2.3]&1	-14.8764
1"2,-	-14.8767
11.30	-14.8768
▁10000&1	-14.8769
52["2	-14.877
=2:"	-14.8773
<>1"	-14.8774
DOAX	-14.8775
;'11	-14.878
:_"	-14.878
66.6	-14.878
=2-;'0	-14.8784
21.2]	-14.8785
8.40	-14.8787
',	-14.8799
▁977	-14.8809
PVAH	-14.8813
TIV	-14.8819
▁,-\1	-14.8826
566	-14.884
▁65]	-14.8845
[2/5'"	-14.8847
▁3"	-14.8847
▁12,'2	-14.8849
1,\	-14.8849
▁;'$	-14.885
295,'	-14.8855
+"2\	-14.8861
1%1"	-14.8867
(2:1	-14.887
▁24.2	-14.8872
0779	-14.8873
8,'32	-14.8884
$/1;	-14.8884
%17'"	-14.8886
#\-	-14.8898
▁384,'	-14.8898
595.9	-14.89
▁0.74	-14.8907
10.93	-14.891
79.3	-14.8918
.06	-14.8921
ISC	-14.8928
▁93,'	-14.893
\1*'"	-14.8931
▁1455	-14.8934
2.5]	-14.8942
#_1;	-14.8944
4]&1"	-14.8944
2,'96	-14.8946
8.69	-14.8946
5"2:5	-14.8951
31.78	-14.8952
8'---	-14.8953
▁07	-14.8953
81,'2	-14.8954
78.4	-14.8954
5.5	-14.8959
▁GEAGOL	-14.8972
#/8"'	-14.8975
"2;'7131	-14.8979
\1/]'"	-14.8981
▁92.	-14.8984
"2/5:1	-14.899
4.1	-14.9008
▁ZOBU	-14.9016
*'+-	-14.9021
UMV	-14.9026
VAGXA	-14.9028
>31"2	-14.9052
▁-4.	-14.9054
%'7	-14.9056
▁4,'7	-14.9065
;'17	-14.9065
4000&1"2	-14.9071
TVAH	-14.9071
IAZU	-14.9074
',2"2	-14.9079
▁613	-14.9081
UAMV	-14.9086
▁VK	-14.9087
▁240]&1"	-14.9087
▁578	-14.9092
4.33	-14.9094
▁8000&1	-14.9097
0.0	-14.91
':01	-14.9109
PUA	-14.9117
81"2/	-14.9119
<':	-14.9123
▁39574	-14.9123
':_"	-14.913
)2:1:1	-14.913
5.74	-14.9132
▁BUGIM	-14.9134
.97	-14.9136
▁52_"	-14.9144
4'"2/5	-14.9144
ABUZ	-14.9146
%')	-14.915
"2,--	-14.9152
3530	-14.9164
▁15.4	-14.9164
!2/'"	-14.9165
<^"	-14.9171
▁DUA	-14.9171
▁GWH	-14.9172
▁^/4'	-14.9173
1:^"	-14.9175
▁/6:5	-14.9178
.49	-14.9181
▁345	-14.9183
▁498	-14.9185
SVAK	-14.9187
[;'	-14.9189
744.	-14.9194
9"2/5	-14.9202
-1.	-14.9207
▁4278	-14.921
9.52	-14.9211
2.76	-14.9222
BUSA	-14.9223
▁DIIP	-14.923
/]'"2	-14.923
3]+1&1"2	-14.9239
5,--	-14.924
64.7	-14.9241
7.8	-14.9244
▁3.55	-14.9247
▁KVHI	-14.9253
52:('	-14.9255
"367	-14.9255
4.31	-14.9263
+1/8	-14.9267
':8,2	-14.9269
▁55]	-14.9274
*>	-14.9274
81.4	-14.9275
▁SSV	-14.9284
▁663	-14.9293
1"2:#	-14.9294
:"2\	-14.9294
▁*1*1	-14.9299
6,'4	-14.9299
/5"2;'	-14.9301
HXAGI	-14.9304
6/9"2	-14.9324
BUTI	-14.9326
UY	-14.9329
1"2/	-14.933
9:("2	-14.933
31.19	-14.9332
5.70	-14.9338
▁:#':"	-14.9351
▁]'%"	-14.9355
750]	-14.9355
8:_	-14.936
0.6	-14.9363
*"2"-	-14.9369
,'30	-14.9376
▁QAL	-14.9389
▁456	-14.9393
41-"	-14.9401
▁&'/	-14.9402
"365	-14.9407
IAC	-14.942
4,'5]	-14.942
▁2.57	-14.942
>/#	-14.942
KXDU	-14.9428
▁SUAQ	-14.9436
\/1"	-14.9438
2/47"	-14.9441
▁101	-14.945
27'31	-14.9452
37.6	-14.9455
%'/'"	-14.9459
ZOZ	-14.9464
▁588	-14.9465
12.7	-14.9469
9.82	-14.9489
JJH	-14.9494
(/"	-14.9496
!1/	-14.95
.47]	-14.9507
68.	-14.9525
1"2\1	-14.9529
▁/47"	-14.9531
:"2^	-14.9532
▁1700&1	-14.9538
BUDV	-14.9538
*"2199	-14.954
2"2197	-14.9545
▁91,'	-14.9545
▁DIALE	-14.9546
▁1930	-14.9547
JUSU	-14.9551
])	-14.9558
▁81]	-14.956
[1-""	-14.9568
▁1346	-14.9568
]1^	-14.9569
02"2:	-14.9569
▁GOAW	-14.9576
,-/#	-14.9587
7.01	-14.9594
1*';'	-14.9597
▁/7/7	-14.9598
▁12.0	-14.9601
1\('"	-14.9601
▁1074	-14.9602
#:8"	-14.9605
#&1^	-14.9615
▁2590	-14.9616
▁VAW	-14.962
▁OD	-14.9626
▁SP	-14.9626
]/5'"2	-14.9631
,'19	-14.9643
!'(	-14.9651
QUATU	-14.9652
▁15.1	-14.9655
+'"2/5	-14.9657
"2;':8	-14.9658
▁CVK	-14.9673
4:5	-14.9674
';':	-14.9676
76.1	-14.9677
2.97	-14.968
0578	-14.968
(:8	-14.9683
2350	-14.9686
MER	-14.9687
QUC	-14.9687
▁3962	-14.9688
▁6,'8	-14.9696
▁,8:	-14.9696
▁47]	-14.9699
'"21)	-14.9702
32.0	-14.9703
10.70	-14.9705
▁1.05	-14.9712
▁^]&1	-14.9714
▁24,'	-14.9715
▁0.85	-14.9723
▁233	-14.9726
4,'1	-14.9728
TVHIA	-14.9733
4&1^	-14.9743
12	-14.9747
%1;	-14.9749
1963	-14.9751
>'/6	-14.9769
89,'5	-14.9772
3/0	-14.9775
▁ZOM	-14.9775
▁98.	-14.9789
%'"2/5	-14.9793
▁"	-14.9797
4"2:('	-14.9809
▁/[1&	-14.9813
(1"2+	-14.9821
▁227	-14.9827
':_:"	-14.9828
▁DVHIA	-14.9829
▁172	-14.9832
▁18.8	-14.9834
*"2+'	-14.9836
1/5'^	-14.9837
▁HYHX	-14.9839
▁758	-14.9839
24	-14.9841
8';'3	-14.9842
9.9	-14.9847
%,-	-14.9856
▁24.6	-14.9861
▁70+1	-14.9862
▁7000&1	-14.9865
▁:'?"2/	-14.9865
+'^"	-14.9874
▁/2\	-14.9875
9.3	-14.9878
51"2/#	-14.9881
▁KXK	-14.9891
8,'28	-14.9895
+'/#	-14.9895
KIK	-14.9899
7%1	-14.9901
*?	-14.9908
':#1"	-14.9913
▁76.	-14.9918
%'"2:8	-14.9933
▁100-	-14.9945
▁76"2	-14.9947
▁]1/#	-14.9948
50]&1"	-14.9948
▁CUAL	-14.9953
;':8	-14.9957
:1+1	-14.9961
.1]	-14.9966
▁1244	-14.9967
38.3	-14.9967
▁1.72	-14.9967
>'^"	-14.9974
LXLX	-14.9984
7':	-14.9985
<"2^	-14.9988
!251"2	-15.0015
▁250730	-15.0017
19.93	-15.0021
?-	-15.0022
8'3"251	-15.0023
:#'/8'	-15.0025
%'%"2	-15.0025
2/]	-15.0031
▁WGO	-15.0032
IDW	-15.0033
.57	-15.0035
','[	-15.0042
▁449	-15.0047
▁CVABV	-15.0052
▁25073	-15.006
WZU	-15.0061
91;1	-15.0065
:,2	-15.007
271	-15.0073
▁13.5	-15.0081
7]&1	-15.0085
79	-15.0089
▁TIADU	-15.0089
▁DIIQ	-15.0093
▁14.2	-15.0095
▁LEQUA	-15.0109
▁:231"	-15.0111
DOAKIA	-15.0112
▁^:6':	-15.0133
*"2<	-15.0134
AZOGO	-15.0134
24,'3	-15.0142
ULO	-15.0163
*',2	-15.0167
▁4022	-15.0168
-2.3	-15.0175
%1-""2	-15.0176
GIM	-15.0185
QUAG	-15.0188
4.7	-15.0197
00&1"2	-15.0203
KVAF	-15.0206
"31"2	-15.0209
▁1998^	-15.0209
0:('	-15.021
▁358	-15.0223
▁:(:	-15.0225
*&"	-15.0229
▁71+/	-15.0237
▁/(31	-15.0242
8;1^	-15.0253
9-"	-15.0257
1991	-15.0277
1.78	-15.0277
3.66	-15.0278
▁3592	-15.029
▁0.01	-15.0297
[1;1^	-15.03
▁95.	-15.0306
!\'	-15.0308
▁%1"2;'	-15.0308
-15	-15.0311
SAZW	-15.0327
373	-15.0332
_1:	-15.034
02?"2	-15.0343
▁BUSA	-15.0353
25	-15.0359
5,-	-15.0359
\/0'	-15.0368
0"2\	-15.0371
HXAN	-15.0371
%"""^	-15.0372
%%1"2	-15.038
▁+131	-15.039
▁488	-15.0393
DIKI	-15.0393
007	-15.0396
GEAT	-15.0397
PVAN	-15.0399
2.11	-15.0414
8'3"2/	-15.0427
AIIHJC	-15.0432
14	-15.0434
2^---	-15.0436
▁18]&1	-15.0437
-11	-15.0444
▁28.5	-15.0446
1,'63	-15.0447
▁176	-15.045
/2&	-15.0452
▁FVKE	-15.0453
▁1.65	-15.0454
/'^"	-15.046
IAPV	-15.0462
HXAD	-15.0463
+/4	-15.0464
.58	-15.0465
GIK	-15.0479
530]	-15.048
/_'^"	-15.0483
8:^	-15.049
▁BUDVAH	-15.0492
▁DUABV	-15.0492
GIALE	-15.0496
139.9	-15.0501
▁KUJ	-15.0502
!1%1	-15.0502
2947	-15.0505
▁378	-15.0509
8"2/5	-15.051
#"2:	-15.0512
▁HUN	-15.0528
▁BUQAK	-15.0529
1-""2	-15.053
▁:1:8"	-15.054
'/7"	-15.0541
▁146	-15.0542
2&1"2/5	-15.0548
▁71:6	-15.0549
,-^/	-15.0552
2437	-15.0555
,'45	-15.0562
4+:	-15.0564
'^-	-15.0565
:"2/#	-15.0579
%'"2;'/	-15.0584
31,'5	-15.0588
QUAR	-15.0591
▁874	-15.0599
▁3166	-15.0603
▁WAHU	-15.0606
'%	-15.0607
,-"-	-15.062
▁EBU	-15.0621
]'"2/#	-15.0623
▁0.82	-15.0625
*1/#"	-15.0628
/4'/4'	-15.0636
16.4	-15.0638
2/0'"	-15.0639
▁91.	-15.0653
"2;'>1	-15.0671
5]	-15.0675
#'7	-15.0676
\1"2:	-15.0685
]'%	-15.0704
10:1	-15.0709
▁^<'	-15.0711
AZW	-15.0717
9.6	-15.0717
▁94.	-15.0723
PUAP	-15.0727
5,'24	-15.0731
KEAT	-15.0732
('-	-15.0733
9'"2199	-15.0738
7,-	-15.074
▁^98	-15.0744
ASAW	-15.0746
▁HWAG	-15.0747
APVAD	-15.0751
▁94	-15.0752
7300	-15.0755
"2;'/#	-15.076
2"2<	-15.0765
('/5	-15.0771
2:01^	-15.0771
▁073	-15.0772
▁/2&/5'^	-15.0789
4.78	-15.0792
DVAH	-15.0793
6-"7	-15.0794
1985	-15.0797
DIH	-15.0802
46.4	-15.0807
0]&1	-15.0812
5;'1	-15.0822
4.35	-15.0823
▁67.	-15.0825
13.50	-15.0826
▁[:	-15.0831
GY	-15.085
▁0.12"	-15.0853
>:_	-15.0854
-4.	-15.0869
6.4	-15.0873
,'06	-15.0874
1698	-15.0878
▁1194,'	-15.0878
['/8"2	-15.088
▁1200,'	-15.0885
/0'	-15.0893
:1+1]&1"	-15.0895
580]	-15.0895
11.22	-15.0896
,-?	-15.0899
▁%':01"	-15.0908
72.1	-15.091
2+"2	-15.0913
▁;'04	-15.0914
&'"2<	-15.0919
▁500&1"	-15.0923
817	-15.0924
[1+	-15.0926
GUAG	-15.0928
6.7	-15.093
32,'5	-15.0932
.12.0	-15.0937
▁83,'	-15.0939
9.70	-15.0944
▁700&1	-15.0948
2]'"'	-15.0948
HXD	-15.0954
%:5"2:	-15.0954
735	-15.0955
62,'3	-15.0956
/5'"2;':	-15.096
6/8	-15.0961
7850	-15.0962
*'"27	-15.0965
*1;1	-15.0974
▁88.	-15.0978
5326	-15.0978
3,'	-15.0986
▁112	-15.0992
▁4,'1	-15.0995
*/7	-15.0997
(1"2;'	-15.1013
1]&1	-15.1021
10.44	-15.1022
=&1	-15.1024
4.58	-15.1025
*_"	-15.1025
%2"""	-15.103
04,'7	-15.1036
<':8'	-15.1041
:0'"	-15.105
]&1^"2	-15.1053
5"""^	-15.1055
▁LILO	-15.1055
▁66.	-15.1061
*';1^	-15.1063
▁2952	-15.1063
8.96	-15.1064
6.02	-15.1065
4':/8'"	-15.1082
'&1"2;'	-15.1085
52"2/	-15.1087
▁777	-15.1092
"2/5/	-15.1092
▁29.8	-15.1096
#':	-15.1097
▁LEK	-15.1099
▁1441	-15.1102
.48	-15.1102
▁BUTI	-15.1102
55.9	-15.1112
&"2;'	-15.1114
▁6,'1	-15.112
▁GUBU	-15.1123
TOAQUA	-15.1126
▁72"3	-15.1127
#-""2	-15.1135
7.38	-15.1138
SUAL	-15.1156
▁:1%"2	-15.1158
▁26.6	-15.1161
▁569	-15.1165
9"2:8	-15.1182
80]&1"2	-15.1185
*&1"2	-15.1188
▁7000&1"	-15.119
-0.5	-15.1191
▁112.	-15.1191
▁/2[1	-15.1194
▁22.9	-15.1199
9"2;'	-15.1206
:1:8	-15.1206
5.60	-15.121
"2%1	-15.1221
.4]&1"2	-15.1222
AKUAL	-15.1226
▁:_:	-15.1228
60]	-15.1231
"2,-/	-15.1237
▁_?"2	-15.1248
99.7	-15.1258
▁17.8	-15.1262
4/-"	-15.1265
YI	-15.1275
0"2?	-15.1278
▁/2[	-15.1278
2978	-15.128
65092	-15.1292
3,'08	-15.1299
92;1	-15.1311
6'/5'"2	-15.1312
!'&	-15.1318
6.33	-15.1319
▁540	-15.132
60.0	-15.1322
=^	-15.1323
▁WAM	-15.1328
'^,-	-15.133
▁>1/	-15.1331
▁INGI	-15.1334
OG	-15.1341
2"2100	-15.1342
0670	-15.1343
▁6070	-15.136
00,'95	-15.1368
▁:017'	-15.1371
7.9	-15.1372
WAI	-15.1377
)2)"	-15.1384
$1^	-15.1398
84.4	-15.1401
6461	-15.1409
▁/]'/8	-15.141
▁890	-15.1411
42.8	-15.1417
9001	-15.142
]',-	-15.1421
1.0	-15.1432
!1,2	-15.1432
▁&'7	-15.1441
IBV	-15.1451
81/"	-15.1451
8'7	-15.1452
▁SUALU	-15.1458
11.	-15.1467
:6:6	-15.1469
49.5	-15.1473
9,2"2	-15.148
KIAI	-15.1483
▁]/8	-15.1487
IFV	-15.1493
['"2\	-15.1493
▁TOALO	-15.1494
_1/6'"2	-15.1502
▁28.9	-15.1505
>/[	-15.1505
WAHW	-15.1516
>/#'"'	-15.1519
'"'^	-15.1535
5,'3	-15.1536
▁5900	-15.1552
!?"	-15.156
10.39	-15.1565
▁733	-15.1568
▁SBU	-15.1568
22.3	-15.158
▁21"311	-15.1581
PIK	-15.1593
=1=1"	-15.1604
▁238	-15.1605
863	-15.1612
.30	-15.1621
+1"'	-15.1623
+:('	-15.1629
2_	-15.1633
#:#"	-15.1647
[1:('	-15.1647
▁159	-15.1653
'"2/6	-15.1658
▁480	-15.1663
UCV	-15.1664
9/8	-15.1668
.75]&1	-15.167
8.5]	-15.1672
▁KXL	-15.168
:5*'-	-15.1683
HIASA	-15.169
#'+"2	-15.1696
500&1"	-15.1699
▁93.	-15.1704
47]	-15.171
;'0591	-15.1716
34	-15.1722
+1/4'"	-15.1728
▁405	-15.1731
▁/7:8	-15.174
▁458	-15.1746
▁229	-15.1748
%';1^	-15.1749
▁072	-15.1749
▁1.29	-15.1754
3.	-15.1754
6/'"2/	-15.1754
▁3"3	-15.1757
▁200]&1"2	-15.1767
8]&1"	-15.1769
9.28	-15.1775
AGIAQ	-15.1781
▁72.	-15.1782
02"2\	-15.1791
.75	-15.1804
11	-15.1806
'/_'"2	-15.1808
▁7.0	-15.181
*1:-	-15.1812
▁TUDI	-15.1815
#,\	-15.1819
_-""	-15.1827
0.62	-15.1828
82.3	-15.1829
,'15	-15.183
GIAHU	-15.1832
[2;	-15.1833
/#:#	-15.1835
3.80	-15.1839
/'"2/5	-15.1849
▁&1:('"2	-15.1852
▁DWLE	-15.1853
▁1184	-15.186
XAZ	-15.1862
6'31	-15.1868
▁33.2	-15.1874
600	-15.1877
▁/4'/^	-15.188
▁600&1"	-15.1884
6"2\	-15.1888
62"2;'/	-15.189
GIAF	-15.189
[;1^	-15.1891
2,'84	-15.1896
750.	-15.1896
▁LED	-15.1897
73.5	-15.1902
4.26	-15.1912
32,2	-15.1914
53	-15.1918
>/#',2	-15.1919
NVT	-15.192
"2/#/	-15.1935
;17	-15.1939
:'^"	-15.1939
9"2/#	-15.1943
0^;	-15.195
*2/1	-15.195
DIJ	-15.1953
6,'8	-15.196
GVAS	-15.1963
0.12	-15.1963
5,'6	-15.1969
▁[^"2	-15.1976
/4&'	-15.1983
▁38519	-15.1996
<',-	-15.2
2400	-15.2007
0.13	-15.2014
!2+'	-15.2014
5747.	-15.202
GXHIA	-15.2021
SAQ	-15.2021
▁LOL	-15.2027
2,'5	-15.2041
▁WAG	-15.2042
.85	-15.2046
+1]&1"	-15.2047
▁2343	-15.2054
3,'6	-15.2055
9.10	-15.206
VANIA	-15.2064
HXG	-15.2064
▁209	-15.2072
$:"2	-15.2074
▁11"31	-15.2074
!$	-15.2074
HIAC	-15.2079
UHW	-15.2083
1,'9	-15.2096
3,'4	-15.2097
▁520	-15.2099
▁3909	-15.2104
ISVAM	-15.2105
5.45	-15.2108
ACVA	-15.2118
PVAK	-15.212
▁:#'/	-15.2143
▁</	-15.2145
>2/	-15.2146
!-"	-15.2154
&:1	-15.2156
2&1/#	-15.2157
62;1	-15.2168
88.2	-15.2169
5131"	-15.2171
-3.4	-15.2172
▁-""2/	-15.2174
#:8"2	-15.2175
1:7'"	-15.2176
5"2:('	-15.2181
8.2	-15.2191
▁&%1	-15.2193
:("2/5	-15.2194
!':#	-15.2194
2:01	-15.2195
DIW	-15.2199
71-"	-15.2202
▁GUDI	-15.2203
9.8	-15.2205
36	-15.221
65.7	-15.2211
'76	-15.2213
^"""	-15.2215
▁QAG	-15.2224
▁GXAWA	-15.2224
*'/1	-15.2244
91"'	-15.2247
02/^"	-15.2263
▁3676	-15.2267
2,-/4	-15.2269
▁1560	-15.2271
AUBU	-15.2274
'"2:9	-15.2274
▁20.9]	-15.2275
0';1^	-15.2277
=2%"2	-15.2279
900]&1"	-15.2289
<1?	-15.2291
\"2+'	-15.2303
%2,-	-15.2304
LUZ	-15.2307
2000^	-15.2322
4:"	-15.2327
▁75.	-15.2328
10.04	-15.2328
.8]&1	-15.2329
▁GXAD	-15.233
▁30&1	-15.2338
('/0	-15.2341
OAZ	-15.235
▁875	-15.2355
[1+'	-15.2359
▁28.5]	-15.2363
1600	-15.2374
[1/	-15.2377
▁QVJ	-15.2383
52:"2	-15.2385
▁HXPI	-15.2386
▁/_	-15.2388
51,'9	-15.2396
32"	-15.2403
+"2\1	-15.2405
▁1988.0	-15.2406
KYGI	-15.2407
44.2	-15.2414
6'/5	-15.2414
▁1075	-15.2415
6.66	-15.2429
▁3583	-15.2429
▁GWQU	-15.2433
9:#'	-15.2436
▁RG	-15.2438
▁3841	-15.2452
"2:5	-15.2454
\'^"	-15.2456
IIL	-15.246
▁^9	-15.2475
▁BVBV	-15.2477
747	-15.2479
DWU	-15.2487
DIID	-15.249
▁CVAF	-15.2497
▁SAG	-15.2503
▁1020	-15.2509
▁3'/	-15.2509
&2"2	-15.2519
6"2/#	-15.252
7'7	-15.252
0.63	-15.2531
&"2/	-15.2532
▁40&1	-15.2535
▁GOAI	-15.2536
72.7	-15.2539
0"""	-15.2541
▁2090	-15.2548
▁60.	-15.2555
52.11	-15.2556
▁]1"2	-15.2557
▁5200	-15.2562
*"2/	-15.2581
▁+)	-15.2602
8.7	-15.2607
(2["2	-15.2616
2727	-15.2622
▁26.8	-15.2622
!251"	-15.2623
02.9	-15.2623
5'7"	-15.2626
▁249	-15.2636
▁8.9	-15.2636
<2/5'	-15.2644
▁2801	-15.2645
GIQ	-15.2648
▁3,'1	-15.2653
NIG	-15.2655
71/	-15.2658
1986	-15.266
!'51	-15.2661
2.7	-15.2663
6.80	-15.2666
▁/7&1^	-15.268
.66	-15.268
:('/'	-15.2681
00]&1"	-15.2682
LIS	-15.2683
"37	-15.2687
▁728	-15.2695
['/]'	-15.2696
▁1922	-15.2705
9.7	-15.2707
YS	-15.2707
VAFU	-15.2714
▁334	-15.2719
▁219	-15.272
▁HEHXA	-15.2721
(1-	-15.2722
2,'63	-15.2745
▁830	-15.2748
8.25	-15.2753
28,'3	-15.2771
0,'38	-15.2772
+':_	-15.2775
2+1&1"	-15.2778
:'"2;'	-15.2784
WAQU	-15.2785
4000&1"	-15.2788
▁1355	-15.279
(1;	-15.2795
ANVD	-15.2795
OL	-15.2796
2149	-15.2798
-10	-15.2802
▁452	-15.2813
▁6031	-15.2814
3.07	-15.2825
>%1"2	-15.2826
"2)	-15.2832
2.73	-15.2841
9.92	-15.2844
▁359	-15.2851
34.5	-15.2859
UHXA	-15.286
!';	-15.2865
▁LEBU	-15.2884
:('/8'	-15.2889
976.1	-15.2895
6:7	-15.29
.50	-15.2901
.5]	-15.2903
0722	-15.2907
!'^	-15.2914
ADOAN	-15.2918
365.	-15.2928
1;'\2	-15.2934
▁GOGEA	-15.2935
62"2:#	-15.2947
4/^	-15.2953
\-"	-15.2953
+';	-15.2973
▁---/	-15.298
+"2&1	-15.2993
&1^7	-15.3003
SVABU	-15.3004
OAG	-15.3008
▁165	-15.301
CVAT	-15.3011
VGXA	-15.3016
▁ZUAF	-15.3035
4/;	-15.3042
▁EL	-15.3046
,':	-15.3052
/("	-15.3063
2:1"2:	-15.3063
.44	-15.3071
#\;	-15.3085
▁50.4	-15.309
▁TIAQU	-15.3092
>2^	-15.3093
2.07	-15.31
2.98	-15.3101
4.61	-15.3101
GWAG	-15.3104
LXGE	-15.3108
88	-15.311
:,-	-15.3111
&'/	-15.3113
AGIW	-15.3116
52:'"2	-15.3118
[1:1	-15.3119
51\	-15.3134
1.4]&1"	-15.3138
14.02	-15.3153
2/^	-15.3157
48.8	-15.3158
▁283.	-15.3161
']&1"2	-15.3163
82:	-15.3166
8.	-15.317
▁70.	-15.3172
4.55	-15.3175
3.53	-15.3176
,'166	-15.3177
▁418	-15.3178
,'49	-15.3182
('"2^	-15.3189
+2"2;'	-15.3195
.96	-15.3198
▁381	-15.3199
*_	-15.3202
%'"'	-15.3214
2\"2	-15.3225
▁900]&1	-15.3225
SUDU	-15.3235
8'-	-15.324
6'"2:1	-15.3249
2/51	-15.3253
#:"2;'	-15.3255
84,'7	-15.3256
41^"2	-15.3256
:1^"2	-15.3258
▁51/	-15.3258
0"2198	-15.3258
0.00	-15.3266
?1/	-15.3268
36]	-15.3276
TOAF	-15.328
>27	-15.3283
8317	-15.3285
6.39	-15.3287
▁81.	-15.3292
41^"	-15.3294
[2:6'	-15.3313
▁:8"2>	-15.332
2.9	-15.3321
417	-15.3336
62;	-15.3341
8%1"2	-15.3351
5,'71	-15.3351
3'"2	-15.3352
1---	-15.3353
]2;	-15.3355
683	-15.3359
4'31	-15.336
UHWAH	-15.3363
▁LOJ	-15.3367
▁DISVAQ	-15.3368
431,2	-15.337
-2.4-	-15.3372
*/0	-15.3378
6.2	-15.3379
'31,2	-15.338
71/,2	-15.338
82^"2	-15.3382
5,':	-15.3382
1.35	-15.3387
▁1"31"	-15.3387
.26	-15.3396
51,'[	-15.3398
2-10	-15.3401
>_	-15.3401
)1&1"2	-15.3407
1%1	-15.3409
WBI	-15.341
%2"2:	-15.3414
▁9455	-15.3424
SF	-15.3426
6'"2/'	-15.3434
2574	-15.3437
,'93	-15.3448
\'^"2	-15.346
6+'	-15.3467
▁+1^	-15.347
(':"2	-15.3472
0.19	-15.348
9:(	-15.3481
+1^"	-15.3486
▁784	-15.3493
▁*/8	-15.3501
▁HEI	-15.3504
*1"2:8	-15.3507
600&1"2	-15.3513
▁1215	-15.352
/#-"	-15.3523
/:6'	-15.3529
▁31.5	-15.3531
2:(	-15.3532
"2/6'	-15.3533
"220	-15.3536
62^"	-15.3538
12.71	-15.354
6'%"'	-15.3541
▁NVVA	-15.3543
2.08	-15.3561
2.12	-15.3569
4.84	-15.357
2487	-15.3584
▁934	-15.3589
;'10	-15.3591
GXDIA	-15.3595
973	-15.3615
]&1"2/5	-15.3622
1,'[	-15.3629
▁;'20	-15.3633
▁267	-15.3637
▁^&'	-15.365
3]&1	-15.3658
,'35	-15.3659
HXK	-15.3664
'/;	-15.3676
70.7	-15.368
7.20	-15.3685
'&1/8	-15.3694
86.9	-15.37
▁34.3	-15.3702
%'-""2	-15.3706
1.	-15.3712
▁576	-15.3712
92;	-15.3717
%"2:(	-15.3722
SAG	-15.3735
/61;1	-15.3743
("2"-	-15.3753
▁76,'	-15.3779
'"""^	-15.381
▁102.	-15.3814
1]&1"	-15.3822
9',-	-15.3824
<17'	-15.3825
+2"2/	-15.383
GEGI	-15.3831
▁:01/	-15.3832
1"219	-15.3833
▁403	-15.3836
▁465	-15.3846
-40	-15.3855
AHIAB	-15.3856
?/	-15.386
▁GVAD	-15.3872
35	-15.3875
'3	-15.3876
793	-15.3877
▁173	-15.388
▁226	-15.3882
2.13	-15.3884
8.75	-15.3885
8,'6	-15.3895
0,'3	-15.3898
▁-1.7-	-15.3899
▁566	-15.39
▁1,'2	-15.3903
3.9]&1"	-15.391
6800	-15.3912
▁/_'"2	-15.3912
#"2/	-15.3914
+1/8'"2	-15.3934
75.7	-15.3939
_/	-15.3951
9.09	-15.3957
'^"2/5	-15.3969
1.74	-15.3972
HXH	-15.3974
"2:#'	-15.3982
▁++	-15.3985
\'_	-15.3986
▁7000]&1	-15.3995
▁27,'	-15.3999
▁WAD	-15.4
SAZU	-15.4007
(1-""	-15.4011
27.9	-15.4021
2.0	-15.4022
▁?:	-15.4028
▁<1-"	-15.4029
▁14.3	-15.4032
503]	-15.4032
('/	-15.404
VTV	-15.4043
▁914.	-15.4048
▁2200	-15.4049
▁:8%'"2/	-15.4053
9324	-15.4057
▁104.	-15.4067
9000	-15.4073
▁HXAM	-15.4074
=2:"2	-15.4078
^-"	-15.4082
▁1594	-15.4086
\^"	-15.4087
.37	-15.4089
▁"-7	-15.4091
▁658	-15.4107
6"32	-15.411
'/'"2	-15.4113
ALID	-15.4115
▁90+1]	-15.4119
13.12	-15.4119
8.95	-15.413
ARKI	-15.4136
▁SGI	-15.4143
▁<1:	-15.4145
8/7	-15.4148
EAD	-15.4152
▁SVAX	-15.4159
61.4	-15.4159
&?'	-15.4161
▁\1?'"	-15.4199
0,'95	-15.42
0.91	-15.4206
=1=1^	-15.4207
)1^"	-15.4213
0]	-15.4214
4.5]	-15.423
?'"2/	-15.4234
+'\1/	-15.4239
888.	-15.4239
▁123	-15.4247
.87	-15.4252
-28	-15.4257
NVDW	-15.4261
▁0.95	-15.4262
▁250]&1	-15.4264
▁7/8'"	-15.4275
-300	-15.4292
82"2;'	-15.4294
▁2102	-15.43
DIAT	-15.4306
],-	-15.4306
▁["	-15.4307
.90	-15.4309
%'%"	-15.4321
*&'	-15.4331
.88	-15.4331
3346	-15.4344
37.25	-15.4351
DOAL	-15.4353
\17	-15.4364
▁2880	-15.4376
4':8	-15.4376
+/"2	-15.4387
KIHI	-15.4388
▁KIAM	-15.4406
*&"2	-15.4408
HER	-15.4408
7';	-15.4409
.1]&1	-15.4417
#/5	-15.4427
VHO	-15.4427
'31/	-15.4437
▁;'71/	-15.4443
%/0	-15.4445
TWA	-15.4447
▁523	-15.445
2.46	-15.445
▁1506	-15.4455
31/51	-15.4457
:1,2	-15.4465
1^;	-15.4468
>'%	-15.4473
▁1991.1	-15.4481
+2^	-15.4485
LILX	-15.449
%1"2;'	-15.4491
1675	-15.4493
/^"2	-15.4494
"2+	-15.4496
▁1599	-15.4501
386	-15.451
▁145	-15.4511
▁CD	-15.4514
▁50/	-15.4526
-2.1	-15.4528
,\31	-15.4533
*1"2\	-15.4559
▁FVL	-15.4561
3.02	-15.4567
?"2\	-15.4583
HIAGXA	-15.4593
4.96	-15.4601
GEAG	-15.4609
▁1258	-15.4616
%2/8"2	-15.4627
▁2594	-15.4631
▁BUSV	-15.4633
GVAGVA	-15.4635
52+1	-15.4637
*1"2;'71	-15.4637
2^7/	-15.4642
<1^"	-15.4662
[2?	-15.4665
3,-	-15.4681
▁HOR	-15.4685
7;'	-15.4686
CUBA	-15.4687
7^"	-15.4694
ILI	-15.4707
▁8600	-15.4711
▁1230	-15.4713
00-300	-15.4721
"2[4	-15.4721
2.75	-15.4727
▁JUKI	-15.473
:#1	-15.4731
>':"2	-15.4732
':1&1"	-15.4735
7.68	-15.4756
*1"2/	-15.4765
3.95	-15.4771
12.11	-15.4775
432.	-15.4787
1.5	-15.4787
▁LISU	-15.4787
1.40	-15.4796
▁90,'	-15.4803
▁355	-15.4814
KIAL	-15.4817
▁475	-15.482
\*1	-15.4832
:;1	-15.4835
▁0,'	-15.4835
0871	-15.4837
_'"2	-15.4838
HIABI	-15.4842
9.85	-15.4843
KIAD	-15.4848
1020	-15.4848
▁GUL	-15.4851
/;1	-15.4857
\^"2	-15.4867
▁3.7	-15.4871
▁186.	-15.4884
TUHXA	-15.4886
<1^"2	-15.4892
47,'9	-15.4894
▁665	-15.4895
6'/6	-15.4897
500]&1	-15.4898
31"2:8	-15.4908
)1,2	-15.4911
[/5"2	-15.4914
▁87,'	-15.4914
SUAW	-15.4915
▁4199	-15.4917
7.	-15.4923
:#'7	-15.4934
7:1	-15.494
8,'4	-15.4942
0143	-15.4948
▁BUKV	-15.4949
[:'	-15.4951
▁^/7&1^	-15.4958
:#'77	-15.497
▁210	-15.497
*';1	-15.4972
LOH	-15.4978
▁&1"	-15.498
▁380]	-15.5002
KIAH	-15.5003
51/^	-15.5013
▁$,'	-15.5013
03.9	-15.5014
$/1^	-15.5015
80.5	-15.5017
▁277	-15.5026
?"2:	-15.5033
-3.2-2	-15.5037
BUP	-15.5048
AHIAF	-15.5051
\'"'	-15.5055
(^"	-15.506
<'"2/	-15.5062
.47	-15.5069
2/(	-15.5074
▁:01_	-15.5088
6.0	-15.5096
170]	-15.5109
/2%1	-15.5113
JVF	-15.5126
&1"2?	-15.5136
1"2?	-15.5151
▁^>1	-15.5152
.93	-15.5159
OALU	-15.516
6:8	-15.5163
#-""	-15.5171
;'1	-15.5171
▁2858	-15.5179
▁8200	-15.518
2,'8	-15.518
2970	-15.5189
GEAC	-15.5191
6:7'	-15.5192
[:#	-15.5211
6.6	-15.5216
2,27	-15.5219
69.0	-15.5224
▁288	-15.5232
1:01	-15.5236
.56	-15.5237
51_	-15.5248
▁60075	-15.5251
2.91	-15.5254
72.3	-15.5269
3.89	-15.527
GWAQ	-15.5277
HUAKI	-15.5287
▁169	-15.5288
/"2)	-15.5296
1.3]	-15.5299
▁592	-15.53
▁BEA	-15.53
▁SUB	-15.5306
▁65.	-15.5307
▁871	-15.531
HXKI	-15.5317
71.6	-15.532
>;'	-15.5323
\/4	-15.5325
%:"2	-15.5325
,'6	-15.5332
2.2	-15.5334
KVBU	-15.5336
▁52.	-15.5337
;-#2-2	-15.5342
▁LIGO	-15.5342
1+31	-15.5364
4.63	-15.5366
▁;'71?	-15.5381
▁:1/0	-15.5383
97.8	-15.5386
QUAGO	-15.5387
933	-15.5391
OAK	-15.54
▁4000+1	-15.5408
\?^"	-15.5412
8)	-15.5412
8.4	-15.5421
▁118.	-15.5422
\'/]'"	-15.5423
VAKI	-15.5424
5.07	-15.543
HIADU	-15.5438
?^	-15.5447
81;'	-15.5456
*/8^"	-15.5465
61.6	-15.5468
,27	-15.5471
▁3.12	-15.5483
52:5"	-15.549
800	-15.5493
▁392	-15.5496
▁89.	-15.5502
5010	-15.5505
▁"-3	-15.5509
▁26,'	-15.552
▁708	-15.5524
UAHV	-15.5526
(:_	-15.553
1"2:	-15.5532
6"2:1	-15.5532
6'\2	-15.5533
/6/231	-15.5539
.2	-15.5539
NOWA	-15.5543
:'"2:	-15.5553
▁/5/5"	-15.5554
"31	-15.5556
/5"2^	-15.5558
[':01	-15.5562
3"2/	-15.557
8,'7	-15.557
8.63	-15.5578
?"2;':	-15.5583
8:1^	-15.5601
QWAZ	-15.5617
50.6	-15.5619
NVGI	-15.5619
0579	-15.5619
▁HIANVG	-15.5628
0'-"	-15.5631
2"2;'71	-15.5631
▁4100	-15.5633
2300	-15.5635
▁WQ	-15.5641
▁:(';	-15.5644
WGO	-15.5649
0'^"	-15.566
▁3"32"	-15.5663
DEAF	-15.5665
-0.8	-15.5674
("2:	-15.5689
%31;'	-15.569
▁PIH	-15.5706
QUAF	-15.5709
,81100'	-15.5709
▁<'\	-15.571
INTERNET	-15.5716
▁UAT	-15.5719
2.6	-15.5726
OECD	-15.5728
▁GVAT	-15.5729
6.97	-15.5737
▁236	-15.574
8^;	-15.5741
1998-1999	-15.5742
▁&1&	-15.5745
21.9	-15.5746
?"2>	-15.5748
1992	-15.5749
82^	-15.5753
VCDGIA	-15.5753
3.70	-15.5764
▁010-6	-15.5768
---"-	-15.5773
▁1715	-15.5776
.63	-15.578
1,\4"2	-15.578
▁KWAL	-15.5783
3766	-15.5784
9.30	-15.5788
DIIPV	-15.5794
HXX	-15.5794
34.8	-15.5795
33.6	-15.5796
17.7	-15.5801
7]&1,2	-15.5801
IAN	-15.5803
UAW	-15.5807
3,'8	-15.5808
▁53.	-15.5809
3683,'1	-15.5815
=;'	-15.5816
5595.	-15.5817
.03.0	-15.5846
ZWDOA	-15.5847
▁61\1"	-15.585
▁370,'1	-15.5854
5000]&1	-15.5854
7964	-15.5856
980	-15.5863
82"2^	-15.5868
97.0	-15.5873
>1/4	-15.5879
32.9	-15.5883
1.73	-15.5902
BVR	-15.5911
▁50+1]	-15.5918
9.2	-15.592
42.4	-15.5926
▁VADI	-15.5926
UAGIA	-15.5929
1476	-15.5938
.7]	-15.5943
GOQ	-15.5945
968	-15.5951
AOK	-15.5959
-4.7	-15.5961
▁GEAF	-15.5962
VANI	-15.5962
70.0	-15.5966
▁355,'	-15.5971
▁HUGI	-15.5971
-1.6	-15.5987
2,'1]	-15.5988
IAL	-15.5989
SWA	-15.5992
687	-15.5992
0.23	-15.5994
▁TUAU	-15.6004
▁3793,'	-15.6005
8,'79	-15.601
,'8	-15.6014
6.56	-15.6017
>_1	-15.6017
6000&1	-15.6027
&:"	-15.6028
4.08	-15.6029
.8-0.	-15.6038
*"2\	-15.6042
^"2^:	-15.6042
▁HIALU	-15.6046
0.25	-15.6053
330	-15.6056
3/5	-15.6057
▁257	-15.6066
▁77"36	-15.6066
82\1	-15.6078
-1.4	-15.6079
:5*'	-15.6093
755.	-15.6093
ADOAM	-15.6094
▁73"3	-15.6106
75,'7	-15.6109
3.8	-15.6113
165,'1	-15.6114
▁3826	-15.6116
▁300]&1"	-15.6118
:1/4'	-15.6118
▁KUS	-15.6124
/1/6"2	-15.6124
5492	-15.6131
▁1994.	-15.6136
▁QUAQU	-15.6137
▁30368	-15.6138
"""-"	-15.6153
,'32	-15.6157
4363	-15.616
▁4054,'	-15.6175
0&	-15.6192
1847	-15.6192
▁HUJ	-15.6197
▁/]'/51"	-15.62
▁SOAG	-15.6206
91:	-15.621
4,'19	-15.6211
▁JUQAJU	-15.6217
GXAL	-15.6219
996	-15.6219
▁GIP	-15.622
4.11.	-15.6223
▁110.	-15.6223
2.15	-15.6227
6.10	-15.624
0-60	-15.6241
6>1;'	-15.625
\:^"	-15.6255
['_1	-15.626
10.98	-15.6267
2,-/	-15.6272
▁89"3	-15.6272
▁26.7	-15.6273
QUAB	-15.6285
UTI	-15.6286
UADVA	-15.6298
"2:1:	-15.6298
6'/]	-15.6301
6/5'	-15.6303
1376	-15.6305
#;'2	-15.6311
▁325	-15.6318
▁MIM	-15.6322
3.15	-15.633
6.63	-15.6331
▁12.1	-15.6332
.3]&1	-15.6333
▁FVBUQ	-15.6336
▁7.8	-15.6342
23.2	-15.6342
AZUA	-15.6344
='%1	-15.6346
;':,2	-15.6352
76	-15.6357
40]	-15.6357
48,'6	-15.6363
62"2/5	-15.6365
7,'7	-15.6366
98-199	-15.6369
▁+1^"2	-15.637
▁/["	-15.6378
TIQUA	-15.6379
<"2/5	-15.6385
▁84,'	-15.6391
.9]&1"	-15.6402
▁1378	-15.6409
▁):('	-15.6413
76.6	-15.6423
UAHX	-15.6423
3.6	-15.6426
1^,-	-15.6429
75,'5	-15.643
=2^"2^	-15.643
▁3957	-15.6432
>1&'"	-15.6434
▁1050	-15.6435
▁88,'	-15.6444
8,'85	-15.6445
GUHXA	-15.6447
TUB	-15.6448
50]&1"2	-15.6449
[,'	-15.6449
▁;'03	-15.645
06.4	-15.6457
▁0'"2	-15.6457
▁9]	-15.6461
3.14	-15.6462
GVAC	-15.6463
▁LIC	-15.6468
BPGIA	-15.6468
DIKIAT	-15.6472
&1,2"	-15.6475
HVD	-15.6477
5.4	-15.6481
▁---:1	-15.6483
▁HIAD	-15.6484
75]	-15.6485
.99	-15.6486
BID	-15.649
)"2^	-15.6493
SUAJ	-15.6498
▁855	-15.6503
KIAP	-15.6505
▁^90	-15.6509
▁GEAB	-15.6516
:1+'^"	-15.6518
'["2	-15.652
76,'8	-15.6524
▁*/8"	-15.6537
74.0	-15.6539
+131	-15.6539
20.3	-15.6553
1000]&1	-15.6555
1/,2	-15.6557
78,'8	-15.656
2.34	-15.6564
▁1200]&1"	-15.6566
3/	-15.6568
93-19	-15.6573
2]'"2	-15.6577
*7/	-15.6579
6.43	-15.6581
71^"2	-15.6593
"2"-3	-15.6595
ALIG	-15.6595
/_'-"	-15.6599
,\10	-15.6601
2.17	-15.6606
04.0	-15.6608
0.70	-15.6618
---^	-15.6625
▁4.6	-15.6626
400+1	-15.6632
▁494	-15.6634
0,'64	-15.6637
-1999	-15.6639
▁HIAT	-15.6654
2^"2^	-15.6659
5.7	-15.666
▁:0:6'"	-15.6661
7:8	-15.6662
0819	-15.6662
9.36	-15.6672
[7	-15.6676
:1;':	-15.668
500/4'	-15.6682
0.8-0.	-15.6684
6:#	-15.6691
9,\	-15.6694
2.00	-15.6711
▁28,'	-15.6714
▁NIT	-15.6722
▁1260	-15.6736
1,2"2	-15.6739
20]	-15.6741
8.8	-15.6744
61,'8	-15.6744
1766	-15.6746
!';1	-15.6753
3,'22	-15.6761
5&1"	-15.6767
DOAP	-15.677
3'/4	-15.6787
350]	-15.6792
0"2+	-15.6795
▁/071	-15.68
.32	-15.6803
]]	-15.6805
52/9	-15.6808
▁ZWY	-15.6811
7.25	-15.6812
100-	-15.6813
.19	-15.6815
▁36.4	-15.6817
▁"-:0	-15.6826
▁7]+1	-15.6831
▁HXASA	-15.6842
SVACVA	-15.6846
▁\:("	-15.6847
/("2	-15.686
9.59	-15.6867
▁ZUA	-15.687
TOATOA	-15.687
:1?	-15.6881
▁KIS	-15.6887
(2["	-15.689
PVHO	-15.6895
▁100,'	-15.6896
13,'5	-15.6899
12.2	-15.6904
6280	-15.6924
LIBI	-15.6931
33.2	-15.6931
HVI	-15.6935
98.	-15.6942
4]/4'"	-15.6967
▁%1/#'	-15.6973
75]&1"	-15.6974
:5"2;'	-15.6976
▁LUHIA	-15.6982
7.92	-15.6985
WJV	-15.6999
AXAG	-15.7
▁1"313	-15.7001
1/5'-	-15.7003
51$'	-15.7007
997	-15.7019
▁LOMA	-15.7023
▁567	-15.7027
0.64	-15.7031
61"2	-15.7033
BUC	-15.7046
25.7	-15.7049
8,'74	-15.7056
15.3	-15.7057
▁790	-15.7064
3.30	-15.7072
▁4366	-15.7073
▁:01_"	-15.7077
▁558	-15.7086
▁234	-15.7105
195	-15.7107
600]	-15.7113
▁7131&	-15.7119
199	-15.7122
.3	-15.7128
259.	-15.7129
0---/	-15.7134
3202	-15.7136
-95	-15.715
%1"2:	-15.715
▁166.	-15.7152
▁TUAH	-15.7152
9':9	-15.7158
▁:8%'"2	-15.7162
'"2;'71	-15.7168
FUK	-15.7179
▁1189	-15.7184
'&^	-15.7188
%1^"2	-15.7188
-199	-15.7192
1,'27	-15.7206
12.8	-15.7209
▁CK	-15.7212
7,'	-15.7213
103.	-15.7222
00]&1;	-15.7223
22.1	-15.7227
UTU	-15.7229
4"32	-15.7231
2,2"2	-15.7236
OK	-15.7238
*2-	-15.7239
/_';	-15.7241
.15	-15.7242
/#^-	-15.7257
1"2195	-15.7261
&;'	-15.7271
6509	-15.7281
0"35	-15.7288
▁980	-15.7299
79,'	-15.7312
▁,-/	-15.7313
['7	-15.7319
0.04.	-15.7323
262.8	-15.733
'-";'	-15.7331
SOALO	-15.7337
EAG	-15.7342
['+1/	-15.7347
00]&1"2	-15.7348
6"37	-15.7352
'+"2	-15.7354
2_;	-15.7358
_1/6	-15.736
▁QWAS	-15.7362
▁206	-15.7366
"23,'	-15.7368
*:'"2	-15.7382
/27	-15.7387
▁08	-15.7389
▁KII	-15.74
QAD	-15.74
')"2	-15.741
IU	-15.7417
ZOJ	-15.742
SVAKY	-15.7422
3:#	-15.7425
---/5	-15.7426
,'36	-15.7428
70.4	-15.7428
▁1807	-15.7429
':5"	-15.7435
96	-15.7436
▁1106	-15.7436
9"37	-15.7447
6'3	-15.7454
0.28	-15.7454
4,'38	-15.7466
▁HVJ	-15.7467
%/8'"2	-15.7468
07.5	-15.7471
▁600&1	-15.7472
25.1	-15.7474
49]&1	-15.7484
1899	-15.749
2746	-15.7496
SABVA	-15.7501
▁280]	-15.7512
1999	-15.7512
8';1	-15.7521
_17	-15.7546
,2"-	-15.7547
78	-15.7547
9:#'"	-15.7549
▁0';1	-15.7562
0"'^	-15.757
984	-15.7571
IZO	-15.7572
▁10,'6	-15.7582
59,'3	-15.7587
BUDVAH	-15.7589
0.53	-15.7589
/7"2	-15.7591
HXL	-15.7594
3057	-15.7595
GXAHY	-15.7595
▁55.8	-15.7598
▁YLU	-15.76
GWAN	-15.7603
_':1	-15.7606
940]	-15.7606
HUAH	-15.7607
PIL	-15.7609
▁KIM	-15.761
58.7	-15.7611
▁LOP	-15.7616
2,'5]	-15.7626
NIA	-15.7629
[1"2\	-15.7632
6:(	-15.7646
▁:_%1	-15.7649
\']&1"	-15.7651
BVSW	-15.7652
75]&1	-15.7662
VAGI	-15.7663
13.3	-15.7663
6)	-15.7663
.3]	-15.767
00+1]&1"	-15.7671
▁15.8	-15.7673
IAH	-15.7688
2.25	-15.7693
UAGX	-15.77
83,'6	-15.7704
95	-15.7714
*)	-15.7717
&_	-15.7721
3-19	-15.7738
▁3]&1"	-15.7742
:_>1	-15.7755
GWJ	-15.7759
▁+/4	-15.7762
▁3003	-15.7763
66.7	-15.7782
1.4	-15.7787
478.	-15.779
8]&1	-15.7803
▁:1/#"	-15.782
▁571	-15.7839
9-	-15.7846
▁GWZ	-15.7849
6647	-15.7858
▁472	-15.7861
▁/91"	-15.7862
0,'66	-15.7865
0,2;	-15.7878
#'7:	-15.7881
5.3	-15.7882
16,'5	-15.7891
▁100]"	-15.7896
KID	-15.7909
,'91	-15.791
▁342	-15.793
=';1	-15.7932
'"2;'/6	-15.7933
1741	-15.7946
SAZ	-15.7948
▁369	-15.7949
BUHE	-15.7951
0745	-15.7966
8:1	-15.7967
▁3419	-15.7974
04.3	-15.798
▁:#/8"	-15.7982
"2+1	-15.7983
!2"2<	-15.7985
3762	-15.7987
7.1	-15.7987
/2\	-15.7989
▁^7'	-15.799
]':('	-15.7996
69	-15.7996
\'?	-15.8
0,'6	-15.8005
/0/(	-15.8014
52&1"	-15.8017
1,'75	-15.802
+'/(	-15.8036
TON	-15.8039
08,'6	-15.8042
EAZ	-15.8056
]"2/	-15.806
2.23	-15.8067
="2^	-15.8067
1.33	-15.808
1.81	-15.8085
2;'31	-15.8085
5"36	-15.809
^7/	-15.8094
61,'9	-15.8095
\/8	-15.811
52:'"	-15.8115
[2>1"	-15.812
9'7'	-15.8129
]/91"	-15.8129
"2"""	-15.8131
▁142	-15.8132
-3)	-15.814
▁/5'	-15.8145
PVAG	-15.8148
'%'^	-15.8149
5/#	-15.8153
PVATV	-15.8154
53.2	-15.8174
\:^	-15.8184
DIM	-15.8186
16,'	-15.8199
$':	-15.8207
▁164.	-15.8208
98,'	-15.8209
SWP	-15.821
&':	-15.8212
:6'>	-15.8218
'"2?	-15.8218
1.45	-15.8226
1.06	-15.823
CUAG	-15.8234
KIGY	-15.8238
93.9	-15.8244
^"2/4	-15.8251
'/';	-15.8252
6&	-15.8256
03	-15.8258
1.43	-15.826
41"2	-15.8261
0.43	-15.827
:1;'	-15.8277
*1:5"	-15.828
4,'0	-15.828
2:'/	-15.8292
'_	-15.8294
QUAS	-15.8295
000	-15.8303
▁4052	-15.8306
3.55	-15.8346
3.28	-15.835
=2"2:1	-15.8353
]':8	-15.8354
HYB	-15.8374
60.1	-15.8382
GVL	-15.8383
3"2\	-15.8387
35]&1"	-15.8393
?'7	-15.8394
!251	-15.8396
,'60	-15.8397
/0,2	-15.8401
01.2	-15.8401
▁584	-15.8409
["'^	-15.8413
ADILI	-15.8416
87,'8	-15.8418
DINO	-15.8419
▁HWH	-15.842
BUBI	-15.8441
92^	-15.8457
▁BUGVA	-15.846
10+1	-15.8463
+'\	-15.8467
▁4.9	-15.8482
1924	-15.8485
▁1,\1	-15.8487
0.74	-15.8493
FUKIA	-15.8497
DOABV	-15.8499
>'?	-15.8508
▁JUGX	-15.8512
3.52	-15.852
999	-15.852
▁:('/8'"	-15.8522
ISOA	-15.8524
0.1-0.	-15.8532
7465	-15.8537
44.0	-15.8539
0+1]	-15.8545
:2&1	-15.8558
VAE	-15.8567
031/	-15.8575
1.75	-15.8578
▁1246	-15.8582
1981	-15.8588
5,2;	-15.859
51^"2	-15.8602
2.57	-15.8604
9^"	-15.861
1.89	-15.8616
:1]&1"2	-15.8617
ASOAL	-15.8624
1,2"	-15.8625
VJ	-15.8631
▁HIAHIAH	-15.8638
#2;	-15.8639
:1]&1"	-15.8643
▁155	-15.8655
"2^?	-15.8658
&1:8'	-15.8683
/4',-	-15.8691
▁433	-15.8693
▁279	-15.8694
HVDVA	-15.8703
8.80	-15.8712
91;'	-15.8718
▁KIMI	-15.8718
5]+1&1	-15.8726
+1\	-15.8738
2;'"-	-15.8743
:2?"	-15.8746
▁339	-15.8765
9"39	-15.8771
690	-15.879
759	-15.879
_"2199	-15.8799
0710	-15.8806
-";'1	-15.8806
62.8	-15.8815
89.6	-15.8815
▁LXD	-15.882
<"2;'	-15.8827
8','	-15.8829
▁111	-15.8829
8.71	-15.8832
385	-15.884
2.1]	-15.8846
1.25	-15.8856
<2?"2	-15.8866
92,'0	-15.8877
▁204	-15.8879
^:1^	-15.8882
UHU	-15.8894
▁96,'	-15.8905
▁:1/"	-15.8908
GVADVA	-15.8911
ITV	-15.8913
/6"2^	-15.8916
▁152	-15.8928
/4>"2	-15.8931
▁TVG	-15.8938
▁2000&1"	-15.8941
7,'1	-15.8955
7.6]	-15.8965
135]	-15.8967
-2	-15.8976
UADU	-15.8977
[+	-15.8982
PVAFU	-15.8992
[/8"	-15.8997
▁GVAGO	-15.9
NVL	-15.9001
QWAF	-15.9017
:#;	-15.9023
2%'"	-15.9024
▁7&	-15.9027
>1,2	-15.9031
1"33	-15.9032
40+1	-15.9035
SWSW	-15.9035
.6	-15.9036
▁^>:	-15.9041
;'/6	-15.9041
▁216	-15.9046
▁<'\2	-15.9049
87.08	-15.9053
▁408	-15.9054
▁9.0	-15.9075
▁^_	-15.9084
▁1286	-15.9089
▁6]&1	-15.909
-0,'	-15.9093
4.53	-15.9095
▁^/4>	-15.9096
6.4]	-15.91
92]&1"	-15.9103
7.0	-15.9105
']&1"	-15.9118
▁800]	-15.9129
^"2^	-15.9134
<2?"	-15.9139
▁580	-15.9143
\1,-	-15.9145
4>"2;'	-15.9147
QUAI	-15.915
520]	-15.9155
▁252	-15.9162
1-";'	-15.9163
1690	-15.9165
3]+1&1	-15.9168
▁6:#'	-15.9176
UAKI	-15.9189
-";	-15.9195
PIALX	-15.9215
0.47	-15.9217
1956	-15.9222
2.6]	-15.9232
▁221	-15.9252
▁574	-15.9261
▁4081	-15.9262
GILX	-15.9268
▁LIB	-15.9275
9':01	-15.9285
900]	-15.9302
907	-15.9307
KIZ	-15.9307
"2100	-15.9314
18.8	-15.9316
4.	-15.9316
%'?	-15.9319
23.4	-15.9323
GIF	-15.9326
#:('	-15.9326
5:1"2	-15.9346
▁20&1"	-15.935
16.0	-15.9351
DVAJ	-15.9359
'"260	-15.9362
▁21.0	-15.937
5/8	-15.9373
▁1620	-15.9379
▁5.1	-15.9389
/8"2^	-15.9403
1941	-15.9407
VP	-15.941
1/]'/	-15.9416
LIFU	-15.9417
#?	-15.9423
/5'^"	-15.9423
]/8'"	-15.9425
!\?	-15.9426
!1^	-15.9429
1.95	-15.944
,'3]	-15.9446
KIR	-15.9471
8;1	-15.9473
NVS	-15.9487
▁102	-15.9491
3000&1"2	-15.9501
▁14000	-15.953
60,'1	-15.9538
%':6	-15.9539
75&1"	-15.954
3,'3	-15.9545
2980	-15.9546
▁1191	-15.9549
▁121.	-15.9554
▁495	-15.9555
SWL	-15.9563
▁335	-15.9565
52/('	-15.9571
5.76	-15.958
8554	-15.9581
KOG	-15.9582
0-5	-15.9586
BUMV	-15.9589
'[	-15.9598
5.9	-15.9598
9'/"2	-15.96
▁TVAT	-15.9612
%"2199	-15.9622
1"2;'71	-15.9653
GUJV	-15.966
▁4165	-15.9661
86	-15.9663
▁</"	-15.9673
17.6	-15.9674
▁^:0'	-15.9684
115.	-15.9693
2,'62	-15.9704
0,2;'	-15.9705
+2"""	-15.9718
▁74,'	-15.9751
35]	-15.9761
366	-15.9765
\1;'	-15.9778
285,'	-15.9783
[^"2/	-15.9795
'/["	-15.98
QUHIA	-15.981
57.	-15.981
04.2	-15.981
APVA	-15.9811
0.50	-15.9815
▁PVQ	-15.9822
1.67	-15.9831
▁10/4	-15.9836
7737	-15.9843
▁HOTOA	-15.9847
▁963	-15.985
1:'"	-15.9851
SAW	-15.9856
167.2	-15.9867
2690	-15.9871
#;1^	-15.9872
1,	-15.9873
▁23]	-15.9877
9.0	-15.9887
5"2:8	-15.9895
,'63	-15.9895
^:	-15.991
9.81	-15.9919
/"2&1	-15.9921
▁6800	-15.9936
"2"-:	-15.9938
▁1023	-15.9939
▁69"	-15.9947
'\1%1	-15.9959
▁71_	-15.9963
:1,-	-15.9976
/61"	-15.9985
2"35	-15.999
YD	-15.9992
▁1902	-15.9995
166.	-16.0016
\1^"	-16.002
▁QALI	-16.0036
4,2"	-16.0036
68	-16.0046
QWB	-16.0051
TVD	-16.0052
▁2)"	-16.0056
▁151]	-16.0058
']1	-16.006
▁62	-16.006
263.	-16.0079
▁1251	-16.0088
"360	-16.0096
▁76"	-16.0102
%/5	-16.0108
739	-16.0109
5"2>	-16.0116
20+1]	-16.0132
LIGE	-16.0164
▁+1]&1	-16.0168
▁CWAT	-16.0179
63,'	-16.0208
*,-	-16.0211
395	-16.0222
01"	-16.0226
6;1^	-16.0229
▁CPV	-16.0231
'+"	-16.0252
RH	-16.0308
-97	-16.031
▁TVQ	-16.0311
▁\1:('	-16.0312
▁103	-16.0315
77"3	-16.0323
6]	-16.0332
IGI	-16.0335
1"216	-16.034
▁:#/5'	-16.0358
AFUL	-16.0365
5,2;'	-16.0366
0:;	-16.038
630]	-16.0385
▁TIA	-16.0392
HYGI	-16.0411
)13"2	-16.0421
▁IU	-16.0444
GWAS	-16.0462
%/5'	-16.0469
UATV	-16.0477
2723	-16.0479
▁/#:('	-16.0489
5993	-16.0498
.41	-16.05
2"271	-16.0504
▁:(&1	-16.0512
IAD	-16.0515
;'31	-16.0516
4184	-16.0517
98.0	-16.0525
?;1	-16.0538
.62	-16.0539
▁1150	-16.0541
30,'9	-16.0542
▁IR	-16.0542
40,'3	-16.0543
1"2/1	-16.0544
▁YC	-16.0545
2.	-16.0555
▁KYD	-16.0567
DVALE	-16.0581
_1%'	-16.0583
70.9	-16.0584
%719	-16.0603
WLO	-16.0604
':6'	-16.0629
▁7'/	-16.0637
#"2+'	-16.0637
▁7%'	-16.0638
▁GOAKI	-16.0638
▁1916	-16.064
18.9]	-16.0659
758	-16.0663
.9	-16.0672
/4'^	-16.0676
927	-16.0684
/["2	-16.0688
'/]	-16.0691
95.	-16.0694
.527	-16.0699
4,	-16.0712
IIKIA	-16.0727
71^"	-16.0727
▁767	-16.0732
#'/1"	-16.0733
▁_-"	-16.0737
"25)	-16.074
9'"2:	-16.0744
▁BUU	-16.0752
:2+1	-16.0776
,'11	-16.0777
!'&1"2/	-16.0803
+-"	-16.0809
HVSU	-16.0809
▁SVAKI	-16.0811
,'5]	-16.0816
,'86	-16.0817
.7	-16.0825
917	-16.0827
>1&'	-16.0831
▁GOAD	-16.0839
▁2410	-16.0848
KVKI	-16.085
2"2+'	-16.0863
979	-16.0868
▁PVZ	-16.0881
TUG	-16.0902
▁NVLI	-16.092
▁BVZ	-16.0938
*/'"	-16.0943
='"2	-16.0956
.61	-16.0984
1800	-16.0985
▁1426	-16.0987
%2^"	-16.1001
2?"	-16.1009
4.82	-16.1011
5.85	-16.1017
0/4'	-16.1027
#1"	-16.1027
2?"2;'	-16.1032
"2:0'	-16.1036
4.6	-16.1064
SUF	-16.1065
62,-	-16.107
51.5	-16.1072
▁261	-16.1077
#\^	-16.109
70]	-16.1091
▁182.	-16.1108
▁1285	-16.1113
3.7	-16.1114
NVTI	-16.112
799	-16.1124
3]	-16.1144
8/0"	-16.1145
5"2\1	-16.1158
DOAQ	-16.1171
IGIA	-16.1191
VFV	-16.121
▁2/	-16.122
6"36	-16.1223
1/4'"2	-16.1225
AGXAK	-16.1227
71/4	-16.1231
48	-16.1235
DISVAG	-16.1238
AGIG	-16.1256
BUFU	-16.1267
(';'	-16.1267
ALIF	-16.128
763	-16.1281
0"2/#	-16.1283
▁%1:1"	-16.1286
ZWV	-16.1304
02/^	-16.1319
▁1316	-16.1324
▁860	-16.1325
,'95	-16.1328
8253	-16.1333
▁>"	-16.1347
DVAG	-16.1351
0"2/1	-16.1372
!1+'	-16.1374
7131	-16.1377
YGI	-16.1382
:1?"2	-16.139
:('"2;'	-16.1392
2-"7	-16.1394
'%'"2;'	-16.1395
;'6	-16.1406
TUR	-16.1412
914.0	-16.1414
.98	-16.1415
▁:1/'	-16.1418
▁5]&1"	-16.1421
71;	-16.1423
6&'	-16.143
1.2	-16.1438
766.	-16.1441
4896	-16.1465
▁1994.0	-16.1467
27'"	-16.1476
TOAR	-16.1478
3.92	-16.1485
▁UAM	-16.1492
]"2;'/	-16.1502
31/0	-16.1518
CVABV	-16.153
KINI	-16.1535
.6]	-16.154
6'+&	-16.1542
GUD	-16.155
&7	-16.1553
#/5'"2	-16.1571
!/4'	-16.1578
▁104	-16.1584
,'3	-16.1585
▁"-<	-16.1587
,'50	-16.1591
▁1259	-16.1601
▁GVD	-16.1603
▁/1"2	-16.1604
39	-16.1619
▁4:1	-16.163
&'&'	-16.1639
▁69	-16.1642
70]&1	-16.1653
GXAD	-16.1656
'31^"2	-16.1658
;'>1	-16.1666
ER	-16.1677
BVPV	-16.1684
-1	-16.1685
7182	-16.1705
62*'	-16.1707
1.15	-16.1712
▁20&1	-16.1736
]"2:1	-16.1747
88.0	-16.1756
22	-16.1758
1.14	-16.1761
▁+'/("	-16.1773
▁1041	-16.1778
▁BUTOA	-16.1792
450	-16.1797
643	-16.18
▁,8/	-16.1803
LIMU	-16.1806
4743	-16.181
DUALU	-16.1812
9'"2;'/	-16.1827
▁SVALI	-16.1829
▁:5:('	-16.1849
>"2\	-16.1859
▁)/	-16.1876
BUFV	-16.1881
▁CWAN	-16.1886
▁:1/4	-16.1887
▁^:9'	-16.192
6,-	-16.1926
#"2/#	-16.1934
▁71\	-16.1935
;':(	-16.1939
;':1	-16.1941
SOAH	-16.1961
=2%:	-16.1972
&/#"	-16.1975
3793	-16.1988
34.3	-16.201
718	-16.2016
<'>	-16.2022
TVTV	-16.2033
GWAL	-16.2036
▁JUL	-16.2045
▁SAC	-16.2048
2*	-16.2054
2719	-16.2061
82"2:	-16.2061
▁/]':	-16.2062
(\1	-16.2064
SUFU	-16.2066
2/"2:	-16.207
8.48	-16.2075
▁258	-16.2078
5'["	-16.2084
8.57	-16.2098
*,'	-16.2101
▁:_"	-16.2105
396,	-16.2111
1404	-16.2113
[/5"	-16.2161
%1/7	-16.2167
'&1-	-16.2215
_*	-16.2248
]'\1	-16.2254
16.	-16.2264
