<unk>	0
<s>	0
</s>	0
,	-2.86958
的	-3.54347
。	-3.58467
▁	-4.12199
、	-4.3024
在	-4.86455
和	-4.94632
“	-5.24231
了	-5.25174
)	-5.27538
是	-5.35507
月	-5.38124
中	-5.63027
为	-5.63704
年	-5.67883
不	-5.69074
一	-5.69439
(	-5.7014
”	-5.70688
人	-5.73184
有	-5.73647
:	-5.79892
上	-5.81646
对	-5.82453
大	-5.89337
1	-5.90392
日	-5.93617
说	-6.09272
3	-6.11534
地	-6.12885
与	-6.16004
2	-6.17431
中国	-6.17641
以	-6.21252
将	-6.27044
等	-6.27167
时	-6.31393
到	-6.33779
日电	-6.35688
要	-6.38318
新	-6.38742
多	-6.41573
他	-6.45049
4	-6.46903
出	-6.51985
后	-6.52748
从	-6.55317
向	-6.56154
就	-6.56212
我	-6.56785
家	-6.56948
着	-6.58051
国家	-6.59695
》	-6.59914
市	-6.60808
也	-6.60832
发展	-6.62801
于	-6.63118
工作	-6.63133
下	-6.63834
经济	-6.64356
名	-6.65025
来	-6.66436
并	-6.66513
《	-6.67804
·	-6.68398
个	-6.68431
;	-6.69822
这	-6.71926
张	-6.7366
国	-6.76325
而	-6.76339
会	-6.77242
同	-6.78096
高	-6.79185
用	-6.79786
▁(	-6.79825
三	-6.79984
之	-6.80801
政府	-6.82122
我们	-6.83637
5	-6.84399
里	-6.84566
前	-6.85022
长	-6.85643
企业	-6.87282
记者	-6.88551
美国	-6.88642
好	-6.89163
小	-6.89414
报道	-6.90295
已	-6.91333
水	-6.92244
过	-6.92532
分	-6.9427
还	-6.95064
使	-6.95435
山	-6.95497
10	-6.95899
把	-6.96843
生	-6.97078
都	-6.9728
队	-6.97404
问题	-6.9785
起	-6.98208
一个	-6.98322
得	-7.00257
但	-7.01556
王	-7.02619
行	-7.03705
无	-7.03766
进行	-7.04009
万	-7.04572
天	-7.04693
6	-7.06215
由	-7.07914
全国	-7.08082
被	-7.08584
开	-7.09124
性	-7.09602
法	-7.10215
本	-7.11287
华	-7.11723
金	-7.12156
文	-7.12646
建设	-7.12884
海	-7.12903
县	-7.13169
市场	-7.13302
?	-7.14432
他们	-7.15354
所	-7.15745
7	-7.16107
世界	-7.16549
9	-7.17624
区	-7.18322
:“	-7.18963
又	-7.1928
会议	-7.19448
我国	-7.19618
两	-7.20678
力	-7.20768
8	-7.20919
部	-7.20954
管理	-7.21548
化	-7.22153
国际	-7.2259
子	-7.22876
马	-7.2292
明	-7.23875
外	-7.23896
点	-7.24333
成	-7.24448
给	-7.25091
能	-7.2567
尔	-7.25749
今天	-7.25807
。(	-7.26164
应	-7.26489
可	-7.26677
摄	-7.26967
活动	-7.27441
心	-7.27471
代表	-7.27612
机	-7.27973
者	-7.28347
北京	-7.28738
美	-7.29164
学	-7.29229
村	-7.29275
”。	-7.29409
其	-7.29457
公司	-7.29949
事	-7.30848
表示	-7.31077
老	-7.31545
风	-7.31617
民	-7.32112
自	-7.32158
达	-7.32407
内	-7.32587
德	-7.32865
重	-7.34522
及	-7.3554
拉	-7.35566
总	-7.35699
12	-7.35734
手	-7.3597
头	-7.36309
元	-7.37102
社会	-7.3713
去	-7.37238
军	-7.37475
车	-7.37978
20	-7.38796
▁本报	-7.3883
生产	-7.39459
服务	-7.39602
林	-7.39615
。”	-7.39713
技术	-7.39829
建	-7.40276
情	-7.40472
全	-7.40489
特	-7.40978
花	-7.41662
赛	-7.41692
四	-7.41776
动	-7.41901
斯	-7.42615
当	-7.43159
没有	-7.4338
定	-7.43523
二	-7.4396
19	-7.44036
人民	-7.44296
李	-7.44817
发	-7.44847
台	-7.45483
路	-7.45796
文化	-7.45865
组织	-7.45976
通过	-7.46146
利	-7.46555
正	-7.46555
电	-7.46632
解决	-7.4712
今年	-7.47693
面	-7.48174
平	-7.48526
看	-7.49491
局	-7.49548
地区	-7.49606
”,	-7.49791
报	-7.49895
东	-7.50108
作	-7.50276
举行	-7.50401
一些	-7.50522
—	-7.51238
党	-7.51634
比	-7.51692
位	-7.52267
业	-7.52733
如	-7.52957
五	-7.53067
香港	-7.53112
克	-7.54243
书	-7.5451
教育	-7.5452
那	-7.54904
更	-7.54908
人员	-7.55553
安	-7.55602
白	-7.55922
去年	-7.56007
光	-7.56047
提高	-7.5665
加强	-7.57124
期	-7.57157
西	-7.57686
各	-7.57752
气	-7.58165
处	-7.58222
这一	-7.58715
最	-7.5873
周	-7.58851
认为	-7.59031
她	-7.59377
女	-7.59481
入	-7.59494
相	-7.59539
场	-7.59833
方	-7.60008
伊拉克	-7.60035
研究	-7.60177
南	-7.60225
道	-7.60614
参加	-7.62284
▁“	-7.62644
近	-7.63043
陈	-7.63359
战	-7.63427
人们	-7.6354
希望	-7.64387
意	-7.64509
清	-7.64546
目前	-7.64573
农民	-7.64695
级	-7.65112
次	-7.65558
进	-7.65876
门	-7.66015
线	-7.66411
这是	-7.66488
日本	-7.66771
工程	-7.6696
关系	-7.67052
加	-7.67582
们	-7.67726
省	-7.67924
11	-7.67926
刘	-7.68196
种	-7.6836
强	-7.68421
做	-7.6849
改革	-7.68957
实	-7.69235
该	-7.69772
任	-7.70178
科技	-7.70253
农业	-7.71318
声	-7.71393
春	-7.71655
走	-7.71921
!	-7.71941
送	-7.7221
群众	-7.72325
米	-7.72552
原	-7.72839
附图片	-7.73312
共	-7.73674
至	-7.73726
▁在	-7.7417
或	-7.74462
开始	-7.74998
条	-7.75374
要求	-7.75406
干部	-7.75548
它	-7.75575
打	-7.75983
农村	-7.75985
投资	-7.76018
厂	-7.77219
合作	-7.77251
江	-7.77461
可以	-7.77687
工	-7.77731
作为	-7.77763
单位	-7.77982
中央	-7.78391
总统	-7.78911
15	-7.78987
体	-7.79053
城	-7.79109
这个	-7.79353
30	-7.79504
信	-7.7961
回	-7.7967
0	-7.80052
两国	-7.80194
公	-7.80575
积极	-7.80765
乡	-7.80906
委员会	-7.80988
立	-7.81375
制	-7.81568
连	-7.81743
总理	-7.81848
努力	-7.82001
生活	-7.82259
户	-7.8247
再	-7.82687
你	-7.82816
领导	-7.82901
首	-7.83196
红	-7.8352
——	-7.83554
成为	-7.83664
见	-7.83823
决定	-7.8412
有关	-7.84197
科	-7.84238
▁据新华社	-7.8444
中心	-7.84471
部门	-7.84798
八	-7.84811
实现	-7.85109
银行	-7.85281
百	-7.85549
量	-7.85703
办	-7.85931
身	-7.86062
计划	-7.86092
黄	-7.8622
.	-7.86355
自己	-7.86625
间	-7.87062
收	-7.87304
通	-7.87352
联合国	-7.87594
这些	-7.87866
第一	-7.8801
流	-7.88204
团	-7.88264
水平	-7.88366
联	-7.88523
物	-7.88685
曾	-7.89209
需要	-7.89488
员	-7.8973
志	-7.89846
千	-7.89901
交	-7.89934
受	-7.89955
却	-7.89959
产品	-7.89964
亚	-7.89977
罗	-7.90121
稳定	-7.90306
▁本报讯	-7.90417
难	-7.90465
英	-7.90477
巴	-7.90946
只	-7.91456
想	-7.91475
阿	-7.91759
21	-7.92266
商	-7.9228
政策	-7.92378
站	-7.92496
就是	-7.92501
兴	-7.92578
委员	-7.9324
很	-7.93296
城市	-7.93552
集团	-7.93787
以及	-7.94629
农	-7.95041
正在	-7.95085
安全	-7.95094
让	-7.95179
事业	-7.95422
支持	-7.95718
石	-7.9603
奖	-7.96035
▁本报记者	-7.96048
主	-7.96422
像	-7.96431
13	-7.96436
经	-7.96459
新的	-7.9648
雪	-7.96788
副	-7.96814
主席	-7.9705
已经	-7.97144
余	-7.97493
北	-7.97677
称	-7.97747
才	-7.97765
合	-7.97776
理	-7.98122
进一步	-7.98273
节	-7.98304
数	-7.98426
干	-7.98789
传	-7.98917
政治	-7.99061
继续	-7.992
边	-7.99291
现在	-7.99454
约	-7.99507
开发	-7.99625
发生	-7.99668
转	-7.99692
国务院	-7.99745
保	-7.99796
增长	-7.99885
万元	-7.99998
口	-8.00081
项目	-8.00088
集	-8.00138
占	-8.00526
上海	-8.01012
实施	-8.01162
共同	-8.01326
远	-8.01396
此	-8.01466
常	-8.01507
▁新华社北京	-8.01612
爱	-8.01681
18	-8.02144
号	-8.02317
1998	-8.02364
50	-8.02401
金融	-8.02438
1997	-8.0249
几	-8.025
组	-8.02521
许多	-8.02586
何	-8.02596
真	-8.02603
情况	-8.02868
工业	-8.02924
必须	-8.03173
钱	-8.03614
建立	-8.04063
卡	-8.04199
放	-8.04437
价	-8.04504
俄罗斯	-8.04821
火	-8.04955
院	-8.05035
世	-8.05388
案	-8.05551
波	-8.05813
指出	-8.05921
方面	-8.06015
六	-8.0611
驻	-8.06128
色	-8.062
▁新华社	-8.06465
深	-8.06507
报告	-8.06531
会见	-8.0667
比赛	-8.06777
不能	-8.06946
职工	-8.06986
访问	-8.06996
界	-8.07003
开展	-8.0708
14	-8.0709
因	-8.07368
变	-8.07491
早	-8.07767
运	-8.08066
谈	-8.08072
16	-8.08256
河	-8.0831
双方	-8.08324
环境	-8.08395
的发展	-8.08535
▁本报北京	-8.08996
图	-8.09296
联合	-8.09349
取得	-8.09418
杨	-8.09542
先	-8.09618
然	-8.10056
日前	-8.10287
写	-8.10372
代	-8.10378
古	-8.10702
便	-8.11239
以来	-8.11505
经营	-8.11887
权	-8.11919
品	-8.11979
届	-8.12173
布	-8.12717
如何	-8.12894
镇	-8.12979
率	-8.13051
度	-8.13156
州	-8.13217
田	-8.13223
伊	-8.1328
促进	-8.13459
民族	-8.13699
飞	-8.13712
大学	-8.13808
增加	-8.13865
每	-8.14028
树	-8.14135
维	-8.14149
提出	-8.14282
25	-8.14287
关于	-8.14491
项	-8.15067
科学	-8.15385
专	-8.15515
提	-8.15731
一次	-8.15816
胜	-8.15915
采取	-8.16163
不断	-8.16287
关	-8.16337
同时	-8.16443
保护	-8.1673
吃	-8.16745
同志	-8.16778
乐	-8.16798
23	-8.16869
落	-8.16995
岁	-8.17082
少	-8.17506
眼	-8.1755
龙	-8.17581
时间	-8.17597
非	-8.1762
这种	-8.17753
派	-8.1807
记	-8.18242
监督	-8.18399
质量	-8.18757
这次	-8.18881
话	-8.18894
费	-8.18897
主要	-8.1916
教	-8.19241
历史	-8.19302
制度	-8.19426
十	-8.19531
房	-8.19727
24	-8.19857
提供	-8.19889
病	-8.20151
增	-8.2025
强调	-8.2037
感	-8.20385
证	-8.2062
单	-8.20857
外交	-8.20872
玉	-8.21055
资金	-8.21059
亿元	-8.21103
带	-8.21147
居	-8.21203
治	-8.21402
由于	-8.21621
请	-8.21752
热	-8.21783
政	-8.21835
问	-8.22117
取	-8.22346
全面	-8.22415
其中	-8.22431
他说	-8.22465
学习	-8.22787
仍	-8.23254
园	-8.23745
七	-8.23943
双	-8.23946
吴	-8.24032
自己的	-8.24037
发现	-8.24059
产	-8.24066
一位	-8.24626
『	-8.24796
』	-8.24797
亿美元	-8.24811
件	-8.24994
创	-8.25546
委	-8.25663
影响	-8.25794
艺术	-8.25916
云	-8.25958
宣布	-8.26147
系统	-8.26381
进入	-8.26568
困难	-8.26607
土	-8.26632
专家	-8.26708
措施	-8.26822
大会	-8.26948
机构	-8.27079
......	-8.27295
最近	-8.27641
分别	-8.27718
选	-8.27811
任务	-8.27945
一年	-8.28047
讲	-8.28356
社	-8.28368
贸易	-8.2869
画	-8.28694
英国	-8.28699
义	-8.28956
格	-8.29114
26	-8.29884
第二	-8.29897
首都	-8.29903
价格	-8.30045
欧盟	-8.30555
新闻	-8.30621
一种	-8.30805
哈	-8.3082
精神	-8.30857
永	-8.31051
管	-8.31085
轮	-8.31142
机关	-8.31155
列	-8.31213
以上	-8.3137
税	-8.31463
接	-8.31496
获得	-8.31541
保持	-8.31632
地方	-8.31715
得到	-8.31761
亮	-8.31905
体育	-8.31927
介绍	-8.32201
快	-8.32394
也是	-8.32402
A	-8.32452
油	-8.32619
重点	-8.32642
40	-8.32649
100	-8.32814
条件	-8.32913
青	-8.32983
法国	-8.33192
游	-8.33248
17	-8.33282
满	-8.33467
实行	-8.33578
周恩来	-8.33632
往	-8.33646
图片	-8.33875
22	-8.33906
求	-8.33956
没	-8.34076
据	-8.34165
空	-8.34258
俄	-8.3431
武	-8.34338
和平	-8.34454
法律	-8.35025
思	-8.35126
规定	-8.35143
夫	-8.35213
现	-8.35218
货	-8.35512
改	-8.35527
儿	-8.35665
纳	-8.35715
坚持	-8.35732
赵	-8.35789
中华人民共和国	-8.35799
楼	-8.35801
则	-8.36028
日在	-8.36159
因为	-8.36277
越	-8.36308
达到	-8.36364
未	-8.36383
纪念	-8.36413
新华社记者	-8.36485
这样	-8.36621
修	-8.36821
住	-8.36876
官	-8.37038
———	-8.37222
孙	-8.37228
来自	-8.37326
致	-8.3733
韩国	-8.37393
领导人	-8.37676
信息	-8.37835
庆	-8.38001
半	-8.38017
徐	-8.38095
亚洲	-8.38097
▁图片	-8.38219
28	-8.38241
愿	-8.38309
学生	-8.38409
严重	-8.38437
字	-8.3855
成功	-8.38575
经过	-8.38674
夜	-8.38679
景	-8.38778
初	-8.39238
推动	-8.39349
调整	-8.39421
球	-8.39447
战略	-8.39578
作出	-8.39602
仅	-8.39608
获	-8.3964
受到	-8.40018
起来	-8.40451
具有	-8.40531
别	-8.40595
均	-8.40619
尼	-8.40728
准备	-8.40751
反	-8.40793
访	-8.40793
剧	-8.40822
结	-8.40857
失	-8.41496
程	-8.41635
帮助	-8.41649
1996	-8.41692
言	-8.41728
两个	-8.41781
塔	-8.41942
望	-8.42019
利用	-8.42226
目	-8.4223
重要	-8.42252
代表团	-8.42392
复	-8.42517
活	-8.4252
只有	-8.42753
行动	-8.42903
结束	-8.43012
讨论	-8.43158
调查	-8.43233
展	-8.43284
产业	-8.43299
星	-8.43318
青年	-8.4332
人才	-8.43402
部长	-8.43428
编	-8.43461
发挥	-8.43462
随	-8.43474
什么	-8.43633
方式	-8.43864
经济发展	-8.44017
电话	-8.4415
良	-8.44264
九	-8.44545
文明	-8.44586
亲	-8.44621
刚	-8.44637
款	-8.44661
调	-8.44674
宝	-8.44694
查	-8.44765
出现	-8.44825
部分	-8.44932
可能	-8.45019
资源	-8.45279
不仅	-8.45323
步	-8.45648
国内	-8.4579
还是	-8.46021
听	-8.46308
进行了	-8.4636
群	-8.46551
收入	-8.46656
造	-8.46673
喜	-8.46677
沙	-8.4675
解	-8.46805
▁据	-8.46821
重大	-8.47147
∶	-8.47169
虎	-8.47177
排	-8.47528
馆	-8.47696
基本	-8.47782
防	-8.4781
保证	-8.4791
太	-8.48018
牌	-8.48111
交通	-8.48151
如果	-8.48208
还有	-8.48239
升	-8.48468
曲	-8.48486
200	-8.48682
类	-8.48717
亿	-8.48723
其他	-8.48736
商品	-8.48862
神	-8.4944
苦	-8.49456
汽车	-8.49467
思想	-8.49495
使用	-8.49896
论	-8.49928
包	-8.50023
章	-8.50025
兰	-8.50141
广大	-8.50156
港	-8.5019
尚	-8.50414
投入	-8.50475
知	-8.50611
票	-8.50696
军事	-8.50779
型	-8.50882
即	-8.50916
期间	-8.50934
目标	-8.51042
低	-8.51227
能力	-8.51357
吉	-8.51366
盘	-8.51366
学校	-8.51505
留	-8.51516
片	-8.51554
装	-8.51624
图为	-8.51663
本报	-8.51699
既	-8.5176
完成	-8.52015
警	-8.52019
销	-8.52057
史	-8.52078
胡	-8.52094
优势	-8.52104
3.	-8.52172
统一	-8.52268
观	-8.52278
直	-8.52456
根据	-8.5249
源	-8.52623
北京市	-8.52688
按	-8.52744
船	-8.52763
加快	-8.5282
祖国	-8.52821
养	-8.53076
资	-8.53081
雨	-8.531
▁3	-8.53307
草	-8.53362
托	-8.53412
接受	-8.53602
负	-8.53644
基	-8.53651
传统	-8.53789
第三	-8.53972
歌	-8.54043
不是	-8.5438
靠	-8.54445
分析	-8.54471
十分	-8.5451
财政	-8.54551
各种	-8.54639
宁	-8.55032
欢迎	-8.5504
质	-8.55061
较	-8.55073
贷款	-8.55148
医院	-8.55169
来到	-8.55339
班	-8.55388
温	-8.55428
春节	-8.55437
松	-8.55445
属	-8.5551
旅游	-8.55528
正式	-8.55543
药	-8.55717
推进	-8.55786
先进	-8.55808
贡献	-8.55835
抓	-8.56041
兵	-8.56132
买	-8.5615
周年	-8.56173
领域	-8.56178
离	-8.56437
容	-8.56453
之一	-8.56473
师	-8.56511
洪	-8.5652
务	-8.56566
出版	-8.56729
建议	-8.56811
支	-8.56963
应当	-8.57034
室	-8.57161
待	-8.57208
27	-8.57257
而且	-8.5726
日电记者	-8.57276
存	-8.57299
有关部门	-8.57314
卫	-8.57468
职	-8.5747
网	-8.57558
产生	-8.57618
深入	-8.57667
照	-8.57874
器	-8.5791
伟	-8.57939
样	-8.58018
澳门	-8.58054
族	-8.58161
假	-8.58225
鲁	-8.58291
造成	-8.58304
会谈	-8.58316
选举	-8.58321
协议	-8.58324
应该	-8.58517
选手	-8.58736
铁路	-8.58746
尽	-8.58924
一项	-8.59133
年来	-8.59163
世纪	-8.59217
29	-8.59311
执行	-8.59419
段	-8.59437
杰	-8.59573
扩大	-8.59712
以色列	-8.60083
额	-8.60306
某	-8.60437
礼	-8.60446
计	-8.60724
协会	-8.60762
京	-8.6082
酒	-8.61144
黑	-8.61175
超	-8.61434
欧洲	-8.61547
石油	-8.61588
足	-8.61601
许	-8.61723
严	-8.61789
内容	-8.61825
牛	-8.61909
重视	-8.61945
领	-8.62015
式	-8.62071
形势	-8.62127
桥	-8.62263
奇	-8.62268
评	-8.62306
美元	-8.62458
股	-8.62476
丽	-8.62646
成立	-8.63024
表	-8.63031
关注	-8.63033
卫生	-8.63118
部队	-8.63132
富	-8.63378
厅	-8.63474
长期	-8.63563
基础	-8.6362
形成	-8.63734
演	-8.63843
天津	-8.63956
31	-8.63988
行政	-8.64127
雷	-8.64138
除	-8.6432
功	-8.64355
视	-8.64381
层	-8.64454
久	-8.64471
改善	-8.64539
的重要	-8.64573
德国	-8.64617
冰	-8.64694
发行	-8.64876
不少	-8.64933
因此	-8.64982
举	-8.65034
认真	-8.65096
民主	-8.6524
的问题	-8.65279
作用	-8.654
版	-8.65409
精	-8.65438
出口	-8.65533
演出	-8.65577
料	-8.65626
广	-8.6565
朱	-8.65662
堂	-8.65662
召开	-8.65731
李鹏总理	-8.6593
包括	-8.66017
阶段	-8.66049
下岗职工	-8.66064
荣	-8.66092
交流	-8.66145
最高	-8.66277
扶贫	-8.66429
危机	-8.66751
血	-8.66799
读者	-8.66882
他的	-8.66885
看到	-8.66931
处理	-8.6694
木	-8.67173
死	-8.67197
灯	-8.67203
综合	-8.67206
客	-8.67222
协	-8.6725
个人	-8.67264
贵	-8.67508
革命	-8.67596
第	-8.6768
都是	-8.67865
停	-8.67973
出席	-8.68255
库	-8.68318
最后	-8.68355
大家	-8.68357
设	-8.6853
独	-8.68728
卖	-8.68744
夏	-8.6875
冷	-8.68769
一起	-8.68865
读	-8.69043
行业	-8.69274
举行的	-8.69319
近日	-8.69446
福	-8.69461
利益	-8.69579
果	-8.69613
60	-8.69827
采访	-8.69976
安南	-8.70113
行为	-8.70169
笔	-8.70692
晓	-8.70754
呼吁	-8.7076
敬	-8.70762
下岗	-8.70812
知识	-8.70997
的新	-8.71088
不同	-8.71119
钟	-8.71123
人的	-8.71148
盛	-8.71164
主任	-8.71174
过去	-8.71187
自然	-8.71405
80	-8.71504
全部	-8.71545
诗	-8.71549
电视	-8.71549
一条	-8.71603
意义	-8.71641
按照	-8.71998
劳动	-8.7235
培训	-8.72364
责任	-8.7237
谁	-8.72384
结果	-8.72483
降	-8.7261
中的	-8.72689
表明	-8.72873
宣传	-8.72945
成果	-8.73007
预	-8.73047
铁	-8.73073
发表	-8.73122
设备	-8.73209
优秀	-8.73214
居民	-8.73317
政协	-8.73407
各地	-8.73535
减	-8.73575
首次	-8.73724
存在	-8.73817
康	-8.73915
社会主义	-8.74061
指	-8.74322
孩子	-8.74418
人口	-8.74471
阳	-8.74574
之后	-8.74678
令	-8.74794
苏	-8.74893
友好	-8.74931
力量	-8.75148
购	-8.75231
登	-8.7527
菜	-8.75289
!”	-8.75315
之间	-8.75354
实践	-8.75711
形式	-8.75723
维护	-8.75737
消费者	-8.7575
这里	-8.75847
▁据新华社北京	-8.75886
座	-8.75905
势	-8.75973
营	-8.75974
的工作	-8.75992
岁的	-8.76357
基地	-8.76409
竞争	-8.76685
备	-8.76908
减少	-8.77017
导	-8.77317
切	-8.77427
勇	-8.77848
仪式	-8.77853
银	-8.77977
朝	-8.7803
韩	-8.78033
当前	-8.78071
500	-8.78077
投	-8.78156
恢复	-8.7828
叫	-8.7828
在北京	-8.7832
机制	-8.78553
标	-8.78558
争	-8.78564
梅	-8.78714
旧	-8.78714
大型	-8.78761
令人	-8.78771
当地	-8.78815
先后	-8.78867
相信	-8.78971
救	-8.79037
谢	-8.79123
上的	-8.7915
首先	-8.79232
冠军	-8.79286
特别是	-8.7933
反对	-8.79337
小组	-8.79382
历	-8.79478
搞	-8.79488
特别	-8.79499
湖	-8.79503
规模	-8.79543
素质	-8.79551
台湾	-8.79602
为了	-8.79682
直接	-8.79752
有限公司	-8.79844
汉	-8.79966
顺	-8.79972
但是	-8.80032
批准	-8.80036
现象	-8.80042
大力	-8.80061
对于	-8.80074
非常	-8.80091
更加	-8.80103
实际	-8.80195
一直	-8.80228
具	-8.80482
先生	-8.80664
任何	-8.80719
助	-8.80742
纪	-8.80927
负责人	-8.81035
泰	-8.8117
根	-8.81251
音	-8.81258
服	-8.81272
伤	-8.81327
付	-8.81344
差	-8.81359
街	-8.81833
参与	-8.82108
食	-8.82222
害	-8.82241
照片	-8.82288
外长	-8.82329
生命	-8.82347
临	-8.82397
核	-8.82552
落实	-8.82581
杯	-8.82638
昌	-8.82664
梁	-8.82696
您	-8.82715
理论	-8.82752
制定	-8.82804
扬	-8.831
护	-8.83107
善	-8.83134
断	-8.83143
医	-8.83274
将于	-8.83473
短	-8.83538
角	-8.83591
创造	-8.83673
各级	-8.83684
电子	-8.83805
所有	-8.83808
▁1	-8.83945
绿	-8.84442
算	-8.84468
换	-8.84472
校	-8.84568
作品	-8.84659
检查	-8.85023
今天下午	-8.85042
全市	-8.85118
非洲	-8.85141
普	-8.85342
土地	-8.85401
索	-8.85408
简	-8.85429
加大	-8.85431
毒	-8.8544
依法	-8.85455
笑	-8.8546
冬	-8.8547
甲	-8.85474
家庭	-8.85932
恩	-8.8594
郑	-8.85941
友	-8.85962
每年	-8.86102
震	-8.86149
变化	-8.8624
彩	-8.86304
感到	-8.86306
怀	-8.8637
犯罪	-8.86415
负责	-8.86427
整	-8.86506
今	-8.86529
今后	-8.8657
不会	-8.86652
女子	-8.86669
.0	-8.86724
萨	-8.86818
丁	-8.86859
审议	-8.86892
专业	-8.86992
决	-8.87087
丰	-8.873
极	-8.87364
就业	-8.87386
再次	-8.8749
急	-8.8782
70	-8.87838
基层	-8.87857
时代	-8.87874
瓦	-8.88309
毛	-8.88311
著名	-8.88381
事件	-8.88518
男	-8.88537
有的	-8.88693
散	-8.88792
做好	-8.88792
才能	-8.88952
未来	-8.89095
举办	-8.89116
一家	-8.89363
然而	-8.89389
不可	-8.89454
江苏	-8.89486
供	-8.89579
山东	-8.89583
7.	-8.89723
忠	-8.89741
左	-8.89751
有效	-8.89771
指导	-8.89782
西藏	-8.89799
文艺	-8.89813
对此	-8.8998
体系	-8.89991
紧	-8.90057
优	-8.90069
成绩	-8.90097
年前	-8.90121
参加了	-8.9018
归	-8.90207
标准	-8.90261
第十	-8.90359
市民	-8.90363
工作的	-8.90381
征	-8.90596
陆	-8.90734
鱼	-8.90738
烟	-8.90739
广泛	-8.90741
案件	-8.90798
广东	-8.90825
增强	-8.90832
最大的	-8.91025
面对	-8.91125
是在	-8.91161
齐	-8.91231
连续	-8.91244
明显	-8.91261
的人	-8.91358
进展	-8.91402
学院	-8.91494
到了	-8.91522
免	-8.91691
卢	-8.91725
控制	-8.91744
集体	-8.91865
认	-8.92051
配	-8.92071
如今	-8.92182
呢	-8.92223
泰国	-8.9244
贫困	-8.92454
地震	-8.92491
今天在	-8.92493
公里	-8.9255
挂	-8.92703
补	-8.92713
惊	-8.92723
二十	-8.92808
幅	-8.92902
中共	-8.93066
了解	-8.93078
考	-8.93133
守	-8.93223
篇	-8.93226
含	-8.93226
坐	-8.93226
一批	-8.93241
%	-8.93443
系	-8.93471
”、“	-8.93489
响	-8.93566
迎	-8.9369
瑞	-8.93707
绝	-8.93724
莫	-8.93731
关心	-8.93885
经验	-8.93978
各项	-8.94006
欧	-8.94184
封	-8.94236
细	-8.94237
结构	-8.94246
语	-8.94711
医疗	-8.9475
设计	-8.94752
会晤	-8.94754
外国	-8.94889
本报记者	-8.94934
汇	-8.94956
南非	-8.95236
朋友	-8.95262
现代	-8.95373
晚	-8.95669
互	-8.95672
印	-8.95715
博	-8.95765
赴	-8.95776
塞	-8.95776
祥	-8.95777
衣	-8.95778
虽然	-8.95794
今天上午	-8.95815
近年来	-8.95848
体制	-8.95863
运动	-8.95884
凡	-8.96295
乡镇企业	-8.96404
力度	-8.96529
公开	-8.96609
一样	-8.96697
境	-8.96699
决议	-8.96785
倒	-8.96812
穿	-8.96817
议会	-8.96861
一行	-8.96906
利率	-8.96949
队伍	-8.97162
藏	-8.9723
野	-8.97234
仁	-8.9734
销售	-8.9734
引	-8.97354
印尼	-8.97359
能够	-8.97368
观众	-8.97385
面临	-8.97439
日讯记者	-8.97455
出了	-8.9751
泉	-8.97865
唐	-8.97866
具体	-8.97915
商业	-8.97958
矿	-8.97964
真正	-8.98094
老人	-8.98134
发言	-8.98171
育	-8.9832
广州	-8.98361
迪	-8.98394
完	-8.98429
顺利	-8.98463
轻	-8.98547
李鹏	-8.98878
振	-8.98881
梦	-8.98926
2000	-8.98994
引起	-8.99027
抗	-8.99147
息	-8.99291
必	-8.99335
献	-8.99358
劳	-8.99378
厚	-8.99431
人类	-8.99518
高兴	-8.99518
成员	-8.99543
公布	-8.9956
座谈会	-8.99713
依	-8.99929
宋	-8.99989
退	-8.99992
奥	-8.99999
培养	-9.00007
挑战	-9.00011
年代	-9.00027
联系	-9.00039
组成	-9.00154
90	-9.00385
各国	-9.00401
一定	-9.00491
基金	-9.00554
新疆	-9.00581
住房	-9.00593
批	-9.00692
集中	-9.00801
很大	-9.00806
旗	-9.00927
讲话	-9.00961
典	-9.0105
是一个	-9.01081
选择	-9.01089
或者	-9.01328
店	-9.01509
原因	-9.01567
素	-9.01579
威	-9.01599
’	-9.0162
姆	-9.01629
宜	-9.0163
参	-9.01675
南京	-9.01865
-	-9.01981
坚	-9.02052
采	-9.021
岛	-9.02155
疑	-9.02179
越来越	-9.0218
持续	-9.02182
完善	-9.02195
明确	-9.02249
地位	-9.02303
全省	-9.02413
找	-9.02533
竟	-9.02732
B	-9.02732
慰问	-9.02738
主持	-9.02894
这位	-9.0311
人权	-9.03148
审	-9.03183
缺	-9.03257
端	-9.03287
井	-9.03288
纷纷	-9.03288
共和国	-9.0329
300	-9.03312
取得了	-9.03518
执	-9.03611
值	-9.03615
刻	-9.03632
形	-9.03671
健康	-9.03675
消	-9.03794
忙	-9.03846
异	-9.03846
多名	-9.0385
给予	-9.03867
时期	-9.03881
庄	-9.03912
突出	-9.03923
价值	-9.03931
适应	-9.04025
机会	-9.04085
人士	-9.04144
启	-9.04337
戏	-9.04386
意大利	-9.04407
严格	-9.04447
办法	-9.04511
▁2	-9.04634
邀请	-9.04754
季	-9.04897
贺	-9.04964
跑	-9.04973
尽管	-9.05011
教师	-9.05018
日讯	-9.05078
赶	-9.05095
此次	-9.05164
第一次	-9.05184
团结	-9.05297
准	-9.05387
破	-9.05461
叶	-9.05541
联盟	-9.05571
访华	-9.05697
业务	-9.05778
确定	-9.0583
易	-9.05859
认识	-9.05884
士	-9.06005
棋	-9.06025
▁1、	-9.06039
进步	-9.06059
万人	-9.06066
探	-9.06095
▁从	-9.06102
载	-9.06112
证券	-9.06118
充分	-9.0612
-0	-9.06295
售	-9.06518
足球	-9.06522
板	-9.06597
环	-9.06605
答	-9.06646
诚	-9.06653
攻	-9.06658
秋	-9.06686
唱	-9.06687
一切	-9.0675
工人	-9.06773
▁李	-9.06791
航	-9.06884
告	-9.0697
题	-9.07071
大量	-9.0711
效益	-9.0716
戴	-9.07264
深圳	-9.07266
状况	-9.07266
已有	-9.07294
方案	-9.07404
超过	-9.07434
提出的	-9.07648
▁《	-9.07694
只要	-9.077
播	-9.07795
伯	-9.07846
改革开放	-9.07868
安排	-9.07942
统计	-9.08024
莫斯科	-9.08399
帮	-9.08411
香	-9.08412
再就业	-9.08416
乌	-9.08431
郭	-9.08431
妇女	-9.08444
繁荣	-9.08446
江泽民	-9.08506
主义	-9.08698
发展的	-9.08729
智	-9.08959
课	-9.08986
杜	-9.09019
规范	-9.09029
货币	-9.09032
教授	-9.09033
昨天	-9.09033
35	-9.09049
幕	-9.09181
沈阳	-9.09206
意见	-9.09215
平均	-9.09478
融	-9.0953
是否	-9.09542
欢	-9.09549
范	-9.09554
突破	-9.09582
灵	-9.09589
/	-9.0961
遗	-9.09611
味	-9.09611
乱	-9.09612
逐步	-9.09621
大使	-9.09636
意识	-9.09638
建筑	-9.09649
完全	-9.0968
拿	-9.09866
限	-9.09956
财	-9.10011
伟大	-9.10076
兼	-9.10079
安理会	-9.10167
架	-9.10207
汇率	-9.1024
灾	-9.10374
会上	-9.10427
推	-9.10465
副主席	-9.10628
随着	-9.10638
寒	-9.1072
洋	-9.10725
设施	-9.10758
呼	-9.10803
面积	-9.10812
▁中国	-9.10824
需求	-9.10829
保险	-9.10836
普通	-9.10854
四川	-9.10858
▁2、	-9.10866
中华	-9.11151
反映	-9.11246
川	-9.11293
浙江	-9.1131
制造	-9.11347
辉	-9.11354
材	-9.1137
份	-9.11378
推出	-9.11384
粮	-9.11394
饭	-9.11394
‘	-9.11408
纽约	-9.11413
普遍	-9.11416
成了	-9.11646
开放	-9.1173
一天	-9.11872
试	-9.11914
?”	-9.1199
希	-9.11991
诺	-9.12004
卫星	-9.12052
手段	-9.12121
需	-9.12372
对中国	-9.12504
击	-9.12554
追	-9.12599
勤	-9.12614
借	-9.12619
形象	-9.12633
也有	-9.1277
▁本报驻	-9.12801
会见了	-9.1291
录	-9.12983
的主要	-9.13021
影	-9.13057
不到	-9.1313
阵	-9.13216
微	-9.13223
词	-9.13225
粮食	-9.13253
全球	-9.13365
下降	-9.13434
良好	-9.13587
机场	-9.13677
五年	-9.13824
勒	-9.13855
确保	-9.13869
的历史	-9.1391
山区	-9.1391
的大	-9.14025
男子	-9.1404
首相	-9.14072
比赛中	-9.14073
工作人员	-9.14284
终	-9.14285
静	-9.14419
秘书长	-9.14427
俊	-9.14475
儿童	-9.1449
副主任	-9.14529
小学	-9.14536
官员	-9.14549
治理	-9.14561
的作用	-9.14568
客人	-9.14697
前景	-9.14701
席	-9.14915
5%	-9.14971
念	-9.15051
官兵	-9.15143
资产	-9.1531
李岚清	-9.15345
文物	-9.15387
上述	-9.1541
地说	-9.15481
和发展	-9.15487
几个	-9.15575
邓小平	-9.15685
跃	-9.15707
九届全国人大一次会议	-9.15729
折	-9.1573
朝鲜	-9.15738
甚至	-9.15742
食品	-9.15772
尽快	-9.15772
有些	-9.1581
领导干部	-9.15921
重庆	-9.16025
巨	-9.16065
峰	-9.1611
激	-9.16288
赞	-9.16293
在这里	-9.16316
有了	-9.16331
故	-9.1636
方法	-9.16397
重要的	-9.16523
地区的	-9.16747
输	-9.16855
并不	-9.16884
小时	-9.16909
森	-9.16919
八届	-9.16939
朱镕基	-9.16958
黎	-9.16963
禁	-9.1699
零	-9.16998
皮	-9.16999
1995	-9.17035
注意	-9.17036
难以	-9.17072
创作	-9.17098
一份	-9.17121
节日	-9.17229
即将	-9.17461
招	-9.17525
也不	-9.17561
埃	-9.17576
电力	-9.17611
▁4	-9.1763
餐	-9.17641
探索	-9.17656
推广	-9.17658
的一个	-9.17925
顾	-9.17941
关键	-9.18068
建成	-9.18172
切实	-9.1818
武器核查	-9.18275
▁我	-9.18319
比较	-9.1862
闻	-9.18732
邮	-9.18831
克林顿	-9.18892
▁1997	-9.18931
吗	-9.18935
政府工作报告	-9.18969
遇	-9.18986
风险	-9.19
多个	-9.19373
开幕	-9.19387
知道	-9.1942
候	-9.1944
佳	-9.19474
雄	-9.19552
多年	-9.19574
顿	-9.19574
翻	-9.19588
因素	-9.19625
改变	-9.19661
一致	-9.197
特色	-9.19777
珍	-9.20226
秀	-9.20233
李瑞环	-9.20246
硬	-9.20246
壮	-9.20246
的精神	-9.20339
江泽民主席	-9.20425
潮	-9.20436
党中央	-9.2046
事务	-9.20557
命	-9.20589
▁张	-9.20627
私	-9.20743
州市	-9.20744
巴格达	-9.20868
污染	-9.2091
符合	-9.20917
设立	-9.20976
道路	-9.21197
策	-9.21305
月份	-9.21416
险	-9.21458
承	-9.21474
水利	-9.21475
保障	-9.21487
成就	-9.21489
略	-9.21527
宏	-9.21555
结合	-9.21578
网络	-9.2158
损失	-9.2158
资料	-9.2161
相互	-9.2162
众	-9.21829
转变	-9.21956
国有	-9.21992
效	-9.22109
舞	-9.2216
科研	-9.22247
敏	-9.22247
一片	-9.22309
资本	-9.22414
前往	-9.2242
重新	-9.22606
来的	-9.22726
及其	-9.22727
日晚	-9.22866
旅	-9.2288
晨	-9.22922
左右	-9.22935
金融危机	-9.2295
灾区	-9.22993
1000	-9.23023
执法	-9.23024
400	-9.23096
▁王	-9.23343
止	-9.23513
贝	-9.23584
杀	-9.23601
那么	-9.23606
明天	-9.23644
将在	-9.23806
从事	-9.23965
施	-9.24127
辽宁	-9.24217
继	-9.24221
现场	-9.24223
繁	-9.24268
董	-9.24287
核查	-9.24312
云南	-9.24337
埃及	-9.24355
洛	-9.24417
司	-9.24747
全国政协	-9.24771
表演	-9.24809
及时	-9.24815
例	-9.24879
沿	-9.24896
净	-9.24977
漫	-9.24977
迅速	-9.24979
显示	-9.24981
展览	-9.24986
巴黎	-9.25017
运动员	-9.25039
三年	-9.25324
以下	-9.25342
盟	-9.25527
终于	-9.25601
庭	-9.25602
密	-9.25638
辛	-9.2566
伴	-9.25671
十二	-9.25672
伊朗	-9.25692
年的	-9.25817
热情	-9.25843
出席了	-9.25911
39	-9.2601
公安	-9.26065
新年	-9.2611
多种	-9.2619
三个	-9.26203
奋	-9.26317
暖	-9.26351
斌	-9.2637
观念	-9.26394
提案	-9.26466
▁一	-9.26615
一点	-9.26641
整个	-9.26759
健	-9.26818
良好的	-9.26919
合理	-9.27021
检	-9.27036
钢	-9.27057
乘	-9.27057
邓小平理论	-9.27064
宽	-9.27074
锦	-9.27074
密切	-9.27091
预算	-9.27099
发出	-9.27118
电脑	-9.2712
那些	-9.27125
如此	-9.27263
的情况	-9.27289
交易	-9.27305
▁这	-9.27339
工商	-9.27454
围	-9.27605
母亲	-9.27718
泽	-9.27783
菲	-9.27784
1994	-9.27785
购买	-9.27817
飞机	-9.27866
联赛	-9.28027
有人	-9.2803
同意	-9.28072
▁李鹏	-9.28118
文学	-9.28179
音乐	-9.28255
协调	-9.28288
棉	-9.28437
扎	-9.28452
聚	-9.28461
右	-9.28485
卷	-9.28497
芳	-9.28498
圣	-9.28498
稿	-9.28498
忧	-9.28499
广告	-9.28521
丰富	-9.28526
打击	-9.28527
服装	-9.28531
对话	-9.2857
东京	-9.28607
部部长	-9.28672
拥有	-9.2884
军区	-9.28846
表现	-9.28856
跳	-9.29118
菲律宾	-9.29218
羊	-9.2922
考虑	-9.29224
河北省	-9.29276
有利于	-9.293
教学	-9.29397
股市	-9.29481
上了	-9.29504
对外	-9.29665
块	-9.29717
胜利	-9.29844
走向	-9.29903
洁	-9.29939
秒	-9.29942
途径	-9.29946
套	-9.30177
公路	-9.30197
很多	-9.30221
8%	-9.30234
之间的	-9.30289
战胜	-9.30369
废	-9.30671
湖北	-9.30683
谈判	-9.30726
抵达	-9.30734
来了	-9.30825
一般	-9.30892
创新	-9.3116
钱其琛	-9.31249
登记	-9.31252
祖	-9.31281
积	-9.31321
示	-9.31323
压	-9.31324
十五	-9.31336
多少	-9.31365
若	-9.31374
消费	-9.31378
速度	-9.31412
材料	-9.31429
刚刚	-9.31459
的同时	-9.31539
至今	-9.31626
原则	-9.31635
研讨会	-9.31658
从而	-9.31765
的决定	-9.31885
艺	-9.31971
滑	-9.32107
办公室	-9.32157
岗	-9.32174
的时候	-9.32229
主办	-9.32265
党的	-9.32362
一系列	-9.32422
述	-9.325
方面的	-9.32527
些	-9.32544
的关系	-9.32558
来说	-9.32758
这项	-9.3277
盖	-9.32894
掉	-9.32896
鼓励	-9.32897
现代化	-9.32921
规划	-9.32958
都有	-9.3297
战争	-9.32978
600	-9.33019
离开	-9.33075
为主	-9.33129
加工	-9.33191
科学家	-9.33351
宾	-9.33625
C	-9.33643
偏	-9.33646
冯	-9.33646
自治区	-9.3368
程度	-9.33719
国有企业	-9.33762
当天	-9.33799
军队	-9.33911
这样的	-9.34019
▁二	-9.34025
日至	-9.34177
记者刘	-9.34223
以后	-9.34241
总结	-9.34284
劲	-9.34358
吕	-9.34403
曹	-9.34403
人民日报	-9.34432
担任	-9.34442
数字	-9.34494
多人	-9.34613
36	-9.34885
年轻	-9.35044
途	-9.35056
危	-9.35073
两年	-9.35074
缓	-9.35146
雅	-9.35167
肉	-9.35168
舍	-9.35168
怎样	-9.3517
考察	-9.35173
申请	-9.35192
战士	-9.35232
说明	-9.35335
起了	-9.35651
规	-9.35719
延	-9.35774
巨大	-9.35793
正是	-9.35815
4·	-9.35832
末	-9.35908
浪	-9.35909
国民经济	-9.35922
坦	-9.35936
两会	-9.35937
浓	-9.35937
渠道	-9.3594
议	-9.35966
通知	-9.36018
适	-9.36033
迎接	-9.36038
进口	-9.36122
对伊拉克	-9.36131
证明	-9.36166
日上午	-9.36383
有所	-9.36573
记者王	-9.36644
序	-9.36689
摆	-9.36706
顶	-9.36711
莱	-9.36711
迁	-9.36713
友谊	-9.36714
履行	-9.36725
第四	-9.3674
依然	-9.36756
虎年	-9.36782
国民	-9.36833
采用	-9.3687
队员	-9.3693
国防	-9.3699
参观	-9.36991
▁目前	-9.37127
责	-9.37242
迹	-9.37354
划	-9.37409
沉	-9.37427
模	-9.37455
冲	-9.37478
铜	-9.37492
潘	-9.37493
特殊	-9.37499
用于	-9.37507
在全国	-9.37726
周总理	-9.37734
国际社会	-9.38035
的经济	-9.38048
提出了	-9.38093
万吨	-9.3814
荒	-9.38183
射	-9.3821
测	-9.38216
曼	-9.3822
上升	-9.38222
怎么	-9.38241
休	-9.38256
固	-9.3828
霞	-9.3828
谋	-9.38281
多次	-9.38412
党员	-9.38522
象	-9.38539
成效	-9.38542
牧	-9.38588
工作者	-9.38611
达成	-9.38685
亩	-9.38754
问题上	-9.3878
态	-9.38929
寻	-9.38938
不得	-9.38958
抵	-9.38989
岸	-9.39
忘	-9.39009
范围	-9.39019
两国关系	-9.39027
背	-9.39052
感谢	-9.39056
寿	-9.39074
迫	-9.39074
跟	-9.39075
充满	-9.39078
荷兰	-9.39084
出来	-9.39099
局势	-9.39178
信心	-9.39181
运输	-9.39256
金牌	-9.39276
每天	-9.39449
广西	-9.39525
等方面	-9.39527
年度	-9.39531
针对	-9.39594
市政府	-9.39597
一场	-9.39625
底	-9.39675
置	-9.39716
移	-9.39773
2·	-9.39776
38	-9.39783
纪录	-9.39815
▁去年	-9.3982
话剧	-9.39839
抢	-9.39849
罪	-9.39867
D	-9.39873
不要	-9.39874
强烈	-9.39916
义务	-9.39931
指数	-9.3994
45	-9.40104
流动	-9.4015
自身	-9.40183
,1997	-9.40184
中国人民	-9.40263
名单	-9.40301
▁——	-9.40362
特点	-9.40401
注	-9.40403
宣	-9.40487
当选	-9.40504
贯彻	-9.40651
倍	-9.40681
精神文明建设	-9.40688
始终	-9.40689
的心	-9.40693
的影响	-9.40776
产量	-9.40805
解放军	-9.40812
文章	-9.40881
科学技术	-9.40896
48	-9.41064
改造	-9.4111
全体	-9.41218
为此	-9.41396
而是	-9.41414
市委	-9.41416
筹	-9.41437
▁三	-9.4144
透	-9.4145
有着	-9.41472
胡锦涛	-9.41493
阴	-9.41494
纺织	-9.41495
几乎	-9.41516
下跌	-9.41609
新春	-9.41689
运行	-9.41829
河北	-9.41899
中方	-9.42073
技	-9.42162
申	-9.42165
只是	-9.4225
加拿大	-9.42313
蓝	-9.42315
面向	-9.42357
导致	-9.42358
村民	-9.42588
工作会议	-9.42604
最终	-9.42639
西安	-9.42647
带来	-9.42689
展开	-9.4288
大连	-9.42899
进程	-9.42943
研究所	-9.43004
署	-9.43058
纸	-9.43072
宗	-9.43108
3000	-9.43119
奔	-9.43136
腾	-9.4314
桑	-9.43141
坚决	-9.4316
紧急	-9.43164
海湾	-9.43173
作者	-9.43239
决心	-9.43262
之中	-9.43286
第五	-9.43293
两位	-9.43406
万多	-9.43654
局面	-9.43731
世界上	-9.43736
自由	-9.43841
企	-9.43919
似	-9.43948
琴	-9.43973
佩	-9.43974
籍	-9.43974
争取	-9.44021
昆明	-9.4403
我们的	-9.44035
更大	-9.44068
几年	-9.44124
签署	-9.4429
▁记者	-9.4449
决赛	-9.44541
麦	-9.44699
暴	-9.44738
34	-9.4479
现实	-9.44808
燃	-9.44814
陶	-9.44814
指挥	-9.44823
承诺	-9.44827
安置	-9.44869
办理	-9.44982
巴西	-9.45063
洲	-9.45178
丹	-9.45392
东北	-9.4547
刊	-9.45538
雷锋	-9.4558
鸣	-9.45661
栏	-9.45661
寄	-9.45662
印度	-9.4571
▁江泽民	-9.45747
人均	-9.45801
兼并	-9.45845
委会	-9.45943
性的	-9.45979
原来	-9.45982
作了	-9.46072
法院	-9.46122
书记	-9.46213
岗位	-9.46223
中国队	-9.46299
中东	-9.46368
祝贺	-9.46378
赫	-9.46485
蒂	-9.46515
冲突	-9.46521
公斤	-9.4653
▁1998	-9.46533
》、《	-9.46546
股票	-9.46564
消息	-9.46625
人物	-9.46728
海关	-9.46815
一名	-9.46845
个月	-9.46866
个体	-9.47247
跨	-9.47269
祝	-9.47301
亲切	-9.47317
成都	-9.47367
弱	-9.47372
颇	-9.47377
秩序	-9.47378
丝	-9.47378
迟浩田	-9.47378
蔬菜	-9.47379
茶	-9.47379
湖南	-9.47388
人民的	-9.47432
0.2	-9.47882
人大代表	-9.4821
0.4	-9.48222
幸	-9.48229
艳	-9.48247
脚	-9.48247
横	-9.48247
凯	-9.48248
武器	-9.48296
故事	-9.484
救灾	-9.48405
正常	-9.4849
通信	-9.48593
日下午	-9.48713
总经理	-9.48904
动物	-9.49021
惠	-9.4911
犯	-9.49112
穷	-9.49119
▁今年	-9.4912
递	-9.49125
开拓	-9.49128
瑞士	-9.49145
之际	-9.49176
他们的	-9.49274
经常	-9.49277
紧张	-9.49338
年初	-9.49428
武汉	-9.49707
内部	-9.49778
下乡	-9.49834
担	-9.49864
鹏	-9.49905
学者	-9.49963
辞	-9.49989
鼓	-9.49998
痛	-9.50009
摄影	-9.5001
拒绝	-9.50013
援助	-9.50019
内蒙古	-9.50031
计算机	-9.50037
等问题	-9.50077
第一个	-9.50094
事故	-9.50231
经济建设	-9.50314
露	-9.50503
市场经济	-9.50543
心里	-9.50634
稳	-9.50649
返	-9.50743
的小	-9.50845
坛	-9.50882
伦	-9.50896
岩	-9.50901
鸡	-9.50902
毅	-9.50902
哈尔滨	-9.50902
霍	-9.50902
旺	-9.50903
研制	-9.50903
编辑	-9.50905
降低	-9.50946
环保	-9.50956
方向	-9.50964
绿色	-9.50964
航空	-9.50968
人民币	-9.51006
会长	-9.51091
方便	-9.51106
目的	-9.51211
当时	-9.51391
著	-9.51395
此间	-9.5146
主张	-9.5146
友好合作关系	-9.51593
的原则	-9.51666
烈	-9.51706
不足	-9.51732
毕业	-9.51738
时说	-9.51749
煤	-9.51779
弹	-9.51786
东南亚	-9.51794
枪	-9.51802
涌	-9.51802
池	-9.51803
桂	-9.51803
警察	-9.51815
河南	-9.51842
正确	-9.51844
中共中央	-9.51857
报纸	-9.51878
体制改革	-9.51883
三十	-9.51934
节目	-9.51939
图书	-9.52002
当年	-9.52051
今晚	-9.5207
海南	-9.52285
持	-9.52545
脑	-9.52616
党委	-9.52652
账	-9.52672
朗	-9.52683
屋	-9.52684
捐	-9.52687
错	-9.52706
偿	-9.52709
燕	-9.52711
纯	-9.52713
盼	-9.52713
西班牙	-9.52713
淡	-9.52713
闭幕	-9.52717
热烈	-9.52719
西方	-9.52736
山西	-9.52821
年底	-9.52822
国家的	-9.52953
你们	-9.52967
的成绩	-9.53039
西部	-9.53095
高度	-9.53144
经济增长	-9.53271
国外	-9.53397
部副部长	-9.53401
金融机构	-9.53467
立即	-9.5347
取消	-9.53484
日子	-9.53531
扩	-9.53538
患	-9.53561
虽	-9.53599
福建	-9.5361
怕	-9.53627
岭	-9.5363
旅客	-9.53651
更多的	-9.53674
听取	-9.53709
分钟	-9.53725
理解	-9.5373
参赛	-9.53732
吨	-9.53792
过程中	-9.53942
▁据悉	-9.54098
进行的	-9.54273
迈	-9.5431
速	-9.5433
为什么	-9.54356
司法	-9.54389
高级	-9.54433
革	-9.54521
败	-9.54522
介	-9.5455
旋	-9.54554
嘉	-9.54555
咨询	-9.54555
冒	-9.54556
步伐	-9.54563
这么	-9.54569
中美	-9.54572
学会	-9.54727
走出	-9.5473
系列	-9.54754
权利	-9.55016
下来	-9.55092
讯	-9.55105
▁他说	-9.55159
委书记	-9.55199
在人民大会堂	-9.5521
的要求	-9.55241
事实	-9.55245
趋	-9.55474
巴勒斯坦	-9.55489
宇	-9.5549
码	-9.55491
天气趋势	-9.55495
博士	-9.55511
部署	-9.55574
仍然	-9.55605
永远	-9.55606
一件	-9.55632
走上	-9.55665
与中国	-9.55694
长春	-9.56157
税收	-9.56179
最大	-9.56217
功能	-9.56386
邦	-9.56396
谷	-9.56424
哥	-9.56433
锡	-9.56434
训练	-9.56436
试验	-9.56443
涉及	-9.56467
营业	-9.56502
机遇	-9.56529
广场	-9.56558
供应	-9.56572
航天	-9.56583
各类	-9.56584
品种	-9.56707
还要	-9.56868
拥	-9.56906
提供了	-9.57244
哪	-9.5727
他在	-9.57283
物资	-9.57353
磋商	-9.57385
茂	-9.57386
邻	-9.57386
表彰	-9.57387
奶	-9.57388
存款	-9.57444
中国政府	-9.57465
跨世纪	-9.57479
了一个	-9.57481
满意	-9.57483
团体	-9.57496
新型	-9.5751
最新	-9.57513
女排	-9.5769
人生	-9.57692
发言人	-9.57973
沈	-9.58043
就有	-9.58077
都要	-9.58147
的基础上	-9.58155
府	-9.58209
句	-9.5832
签	-9.58336
实力	-9.58338
盈	-9.58346
孟	-9.58346
澳大利亚	-9.58346
敢	-9.58348
畅	-9.58348
我的	-9.58361
违法	-9.58393
0.5	-9.58414
经历	-9.58424
值得	-9.58507
总额	-9.5852
品牌	-9.58582
的基本	-9.58631
队的	-9.58766
全国人大	-9.58955
0.3	-9.58993
中外	-9.59036
隆	-9.592
法制	-9.59287
遍	-9.59305
矛盾	-9.59318
炮	-9.59318
旁	-9.59319
摊	-9.59319
联合国秘书长安南	-9.59323
状态	-9.59326
趋势	-9.59327
宗教	-9.59352
位置	-9.59385
压力	-9.59418
女儿	-9.59493
代表们	-9.59613
▁刘	-9.59639
一座	-9.59776
全国政协副主席	-9.59777
专门	-9.6002
共有	-9.60077
附	-9.60225
骨	-9.60262
蔡	-9.60298
毫	-9.60299
刀	-9.60299
婚	-9.60299
缘	-9.603
捷	-9.603
勘查	-9.603
制裁	-9.60334
邓小平同志	-9.60346
联合国安理会	-9.60361
孩子们	-9.60408
海洋	-9.60431
职能	-9.60497
会议上	-9.60501
中国共产党	-9.60583
抓好	-9.60593
立法	-9.6066
只能	-9.60664
名牌	-9.60698
建国	-9.60813
江西	-9.61251
蒙	-9.61259
66	-9.61281
朴	-9.61288
剂	-9.61288
涛	-9.6129
显著	-9.61294
荣誉	-9.61301
示范	-9.61304
全国政协九届一次会议	-9.61332
武装	-9.61361
整体	-9.61376
公安局	-9.61386
寻找	-9.6143
职业	-9.61438
回到	-9.61453
享	-9.61559
做出	-9.61635
法规	-9.61771
鲜	-9.61873
不过	-9.61882
跌	-9.62147
方针	-9.62156
济	-9.62189
公共	-9.62198
就会	-9.62241
统	-9.62268
肖	-9.62288
阻	-9.62288
铺	-9.6229
41	-9.62293
斗争	-9.62297
整顿	-9.62309
防止	-9.62319
修改	-9.62372
常务	-9.62374
克服	-9.62408
的话	-9.6241
投资者	-9.62735
图片新闻	-9.62784
▁问	-9.62873
成本	-9.62999
▁———	-9.63034
所以	-9.63072
56	-9.63158
告诉	-9.63208
监	-9.63259
南部	-9.63266
不再	-9.6327
股份	-9.63273
童	-9.63274
巴基斯坦	-9.63298
扫	-9.63299
卢森堡	-9.63299
坡	-9.63299
租	-9.63299
贾	-9.63299
拨	-9.63299
闯	-9.63299
虚	-9.633
俗	-9.63301
约旦	-9.63307
一支	-9.63345
家乡	-9.63409
收到	-9.63623
江苏省	-9.63637
的目标	-9.63648
此外	-9.63662
非法	-9.63667
评选	-9.63772
组建	-9.63829
65	-9.64069
黄河	-9.64075
1%	-9.64122
走进	-9.64132
恶	-9.64246
缩	-9.64295
兑	-9.64305
秦	-9.64318
搭	-9.64319
踏	-9.64319
饮	-9.6432
承担	-9.64332
出版社出版	-9.64337
美术	-9.64355
职务	-9.64375
在中国	-9.64401
辽宁省	-9.64432
社会主义市场经济	-9.64498
创建	-9.64565
做到	-9.64677
她们	-9.6468
回答	-9.64766
提前	-9.64795
中国驻	-9.648
林业	-9.64832
本次	-9.64916
收费	-9.6496
人民群众	-9.6499
前进	-9.65009
▁今天	-9.65128
遇到	-9.65161
企业的	-9.65203
相当	-9.65236
出现了	-9.65242
伦敦	-9.65285
杂	-9.65289
溪	-9.65349
君	-9.6535
帕	-9.6535
凤	-9.65351
函	-9.65351
撤军	-9.65402
任命	-9.65406
区域	-9.6542
丰收	-9.65434
得到了	-9.65484
最低	-9.65509
公园	-9.6552
深化	-9.65662
放在	-9.65871
根本	-9.65916
美好	-9.6603
识	-9.66264
珠	-9.66268
苗	-9.66374
耀	-9.66392
彭	-9.66392
汪	-9.66392
泪	-9.66392
诊	-9.66392
洞	-9.66393
飞行	-9.66404
青少年	-9.66415
进一步加强	-9.66431
种植	-9.66443
深刻	-9.66451
人民法院	-9.66464
两岸	-9.66489
独立	-9.66498
优化	-9.66549
内地	-9.66597
唯一	-9.666
共同努力	-9.66603
发布	-9.66669
最后一	-9.66683
和社会	-9.66827
东方	-9.66829
除了	-9.66983
介绍了	-9.6711
留下	-9.6715
外资	-9.6724
作出了	-9.67338
始	-9.67351
昆	-9.67374
刑	-9.67376
抽	-9.67423
贴	-9.67431
晋	-9.67444
墙	-9.67444
饱	-9.67445
允许	-9.67447
激烈	-9.67458
回归	-9.67479
荡	-9.67487
济南	-9.67489
心中	-9.67508
生态	-9.6752
▁这是	-9.67639
人数	-9.67662
▁5	-9.67726
人民大会堂	-9.67748
一道	-9.67905
中华民族	-9.68022
主题	-9.68298
多万元	-9.68331
众多	-9.68333
裁	-9.68398
人民政府	-9.68472
啊	-9.68508
娜	-9.68508
舆论	-9.68508
娃	-9.68509
联邦	-9.68551
陪同	-9.68555
无法	-9.68609
的生活	-9.68617
数量	-9.68724
少年	-9.6878
无论	-9.68796
生存	-9.68796
5000	-9.68859
吸引	-9.69063
找到	-9.6912
位于	-9.6917
01	-9.69172
篮	-9.69321
各个	-9.69402
夺得	-9.69407
诉	-9.69464
之路	-9.69542
脱	-9.6955
侯	-9.69582
枚	-9.69583
焦	-9.69583
鸿	-9.69583
韦	-9.69584
牵	-9.69584
恐怖	-9.69584
董事长	-9.69585
牡丹	-9.69585
竹	-9.69585
逝世	-9.69591
避免	-9.69595
议员	-9.69626
分子	-9.69628
吉林	-9.69674
37	-9.6974
山东省	-9.69755
失业	-9.6978
的情况下	-9.69813
领导同志	-9.6986
84	-9.69875
75	-9.69895
校长	-9.69898
比例	-9.70115
各自	-9.70139
科索沃	-9.70372
促	-9.70468
宫	-9.70619
日起	-9.70622
储	-9.70652
亡	-9.70654
避	-9.70656
侵	-9.70662
夫人	-9.70664
柬埔寨	-9.7067
傅	-9.7067
拉那烈	-9.7067
暂	-9.7067
郊	-9.7067
晶	-9.70671
95	-9.70683
英雄	-9.70732
能否	-9.70767
愿意	-9.70851
搞好	-9.70924
灾民	-9.70968
文件	-9.71017
迷	-9.71018
时刻	-9.71028
权力	-9.71041
72	-9.71071
▁当	-9.71105
局长	-9.71194
58	-9.71209
院长	-9.71225
应用	-9.71241
东西	-9.71253
全县	-9.71336
来访的	-9.71448
运用	-9.71513
他还	-9.71567
控	-9.71687
母	-9.71749
抱	-9.71769
汤	-9.7177
违反	-9.71785
股份有限公司	-9.71786
处于	-9.71787
重申	-9.71856
油田	-9.71889
55	-9.71895
树立	-9.71967
一步	-9.71989
另	-9.71999
日益	-9.72016
老师	-9.72017
主动	-9.7212
的国际	-9.7216
看望	-9.7228
合同	-9.72361
的老	-9.72374
快速	-9.72414
另一	-9.72434
长江	-9.72669
币	-9.72729
海外	-9.72744
域	-9.72748
肥	-9.72772
每个	-9.728
润	-9.72822
毕	-9.72826
乔	-9.72845
揭	-9.72864
墨西哥	-9.7288
碑	-9.7288
探矿权	-9.7288
柳	-9.72881
辉煌	-9.72883
围绕	-9.72885
3%	-9.72886
出版社	-9.72943
杭州	-9.72988
森林	-9.72988
越南	-9.73092
已成为	-9.73196
是一种	-9.73232
成员国	-9.73293
建交	-9.73408
在京	-9.73477
市长	-9.73627
加强对	-9.73667
将继续	-9.73726
周恩来同志	-9.73771
谈到	-9.73809
安徽	-9.73836
拍	-9.73917
教练	-9.73957
广东省	-9.73966
坏	-9.73992
袁	-9.74004
墨	-9.74005
洗	-9.74006
过程	-9.7401
国务院副总理李岚清	-9.74012
优惠	-9.74023
决策	-9.74028
批评	-9.74041
预计	-9.74053
舞台	-9.74101
草案	-9.74111
记者李	-9.7414
合格	-9.74151
各界	-9.74198
空气	-9.74211
下去	-9.74453
大学生	-9.74516
种子	-9.74578
艺术家	-9.74626
操	-9.7463
般	-9.74799
冠	-9.74833
其实	-9.75066
46	-9.75093
俱乐部	-9.75128
让人	-9.75131
棋手	-9.75131
脸	-9.7514
闪	-9.7514
摘	-9.7514
穆	-9.7514
榜	-9.75141
圆	-9.75142
I	-9.75142
吹	-9.75142
尊重	-9.75167
停止	-9.75169
广播	-9.75174
展示	-9.75176
患者	-9.75227
实现了	-9.75237
笔者	-9.75338
晚上	-9.7535
显	-9.75467
信任	-9.75467
很快	-9.75591
几天	-9.75601
一代	-9.75638
强化	-9.75722
全国人大代表	-9.75804
33	-9.76028
访问的	-9.76125
五十	-9.76133
据了解	-9.76179
映	-9.76268
党的十五大	-9.76274
甘	-9.76287
贯	-9.76288
戈	-9.76289
挤	-9.7629
驻华大使	-9.76291
孔	-9.76292
妈妈	-9.76292
郎	-9.76292
引导	-9.76324
1993	-9.76353
满足	-9.76366
贵州	-9.76378
带动	-9.76433
国务委员	-9.76499
天气	-9.76507
就要	-9.76584
196	-9.76756
万亩	-9.7676
声明	-9.76809
平等	-9.76896
的变化	-9.7711
费用	-9.77138
▁陈	-9.77279
验	-9.77338
分配	-9.77339
沟	-9.77415
状	-9.77417
欣	-9.77427
箱	-9.77436
锦标赛	-9.77451
倾	-9.77453
贤	-9.77453
阅	-9.77453
巧	-9.77454
鸟	-9.77454
耳	-9.77454
奋斗	-9.77456
中东和平进程	-9.77457
举措	-9.77459
机械	-9.77461
死亡	-9.77471
效果	-9.77483
医药	-9.77502
带领	-9.77538
的代表	-9.77589
河南省	-9.77601
球员	-9.77601
党政	-9.77627
32	-9.77695
引进	-9.77728
表示欢迎	-9.77807
经营者	-9.77816
生物	-9.77839
的合作	-9.77968
86	-9.78015
经贸合作	-9.78079
势头	-9.7823
▁四	-9.78283
耕	-9.78363
一百	-9.78434
于是	-9.78506
面前	-9.78511
全国人大常委会	-9.78529
华盛顿	-9.78556
豪	-9.78562
轨	-9.78579
叶利钦	-9.78587
培	-9.78591
档	-9.78598
误	-9.78599
须	-9.78617
绍	-9.78623
粉	-9.78628
添	-9.78628
威胁	-9.78629
美国总统克林顿	-9.78629
98	-9.7863
劣	-9.7863
扣	-9.7863
武术	-9.78644
68	-9.78657
评论	-9.78658
投票	-9.78684
国债	-9.78687
透露	-9.78692
致富	-9.78705
世界纪录	-9.78745
演员	-9.78747
使命	-9.78801
表达	-9.7884
基金会	-9.7888
益	-9.78886
在于	-9.78935
春天	-9.78986
东亚	-9.78995
的地方	-9.79013
的关键	-9.79048
本届	-9.79053
他表示	-9.79091
举办的	-9.7913
有一个	-9.79161
开罗	-9.7918
的立场	-9.79408
的政治	-9.7943
之前	-9.79535
办事	-9.79686
相比	-9.79692
两国人民	-9.79726
津	-9.79733
旱	-9.79774
锋	-9.79802
册	-9.79811
陵	-9.79818
摇	-9.79818
新加坡	-9.79819
侧	-9.79819
全国人大常委会副委员长	-9.7982
国际货币基金组织	-9.7982
闲	-9.7982
尾	-9.79821
滨	-9.79822
瓜	-9.79822
百分之	-9.79822
比上年	-9.7983
乔石	-9.79858
游客	-9.79899
接待	-9.79903
配合	-9.7991
评价	-9.79916
觉得	-9.79959
父亲	-9.79967
层次	-9.79969
街头	-9.79991
气温	-9.79999
家里	-9.80062
商场	-9.80148
59	-9.80167
较大	-9.80171
加入	-9.80242
学雷锋	-9.80537
2%	-9.80724
▁第三	-9.80887
▁本报讯记者	-9.81006
奏	-9.81007
吧	-9.81023
尉健行	-9.81024
拟	-9.81024
混	-9.81024
床	-9.81025
滚	-9.81025
南斯拉夫	-9.81025
替	-9.81025
飘	-9.81025
蛋	-9.81026
培育	-9.81037
对记者说	-9.81042
禁止	-9.81044
处罚	-9.8106
由中国	-9.81073
限制	-9.81109
万美元	-9.81144
今天在这里	-9.812
山西省	-9.81241
创业	-9.81281
能源	-9.81283
外交部	-9.8132
活力	-9.81322
不分配	-9.81378
1992	-9.81411
民间	-9.81482
的第一	-9.81524
缴	-9.8158
下了	-9.81644
全军	-9.81724
几十	-9.81825
▁我们	-9.8185
0.1	-9.8187
大国	-9.81882
中国的	-9.81918
公司的	-9.81933
的支持	-9.82033
南方	-9.82074
▁这次	-9.82105
议案	-9.82106
变成	-9.82109
作家	-9.8214
的基础	-9.82152
▁图为	-9.82158
潜	-9.82168
仪	-9.8218
撤	-9.8218
姓	-9.82206
授	-9.82213
累	-9.82215
冬奥会	-9.82236
残	-9.8224
邓	-9.8224
交换了意见	-9.82244
石家庄	-9.82244
赖	-9.82244
浩	-9.82244
摩	-9.82245
菊	-9.82246
做了	-9.82263
典型	-9.82271
潜力	-9.82318
集团公司	-9.82352
基因	-9.82358
夺	-9.82373
街道	-9.82381
作风	-9.82458
▁为了	-9.82459
自治	-9.8247
出售	-9.8256
尤其是	-9.82612
它们	-9.82613
交往	-9.82633
回国	-9.82633
委员们	-9.82695
机构改革	-9.82723
总体	-9.82736
同样	-9.82819
乡村	-9.82873
73	-9.8311
78	-9.83176
与合作	-9.83285
书画	-9.83382
其它	-9.83407
逐	-9.8344
练	-9.83446
伊斯兰	-9.83478
国务院总理李鹏	-9.83478
盗	-9.83478
镜	-9.83478
逢	-9.83479
凭	-9.8348
检察	-9.83484
规律	-9.83487
退休	-9.83499
通讯	-9.83504
发展中国家	-9.83512
49	-9.83543
老百姓	-9.83545
国有企业改革	-9.83553
空间	-9.83651
等地	-9.83739
93	-9.83773
打工	-9.83818
热点	-9.8384
十五大	-9.83902
公正	-9.83917
省长	-9.83996
态度	-9.84021
下午	-9.8409
市场的	-9.84392
规定的	-9.84486
110	-9.84658
援	-9.84679
恒	-9.84705
骗	-9.84729
猪	-9.84729
棚	-9.8473
敲	-9.8473
治疗	-9.84744
平衡	-9.84784
抓住	-9.84806
网球	-9.84808
隆重	-9.84813
上下	-9.84831
启动	-9.84864
消除	-9.84901
那样	-9.84916
建立了	-9.84938
学术	-9.84947
伟人	-9.84959
年以来	-9.85028
的事	-9.85033
伍	-9.85052
交警	-9.85095
她的	-9.85185
的邀请	-9.85228
):	-9.85273
百年	-9.85289
百万	-9.85391
总部	-9.85427
晚会	-9.85754
一定要	-9.85769
衡	-9.85938
巡	-9.85974
淑	-9.85994
隐	-9.85994
页	-9.85995
魏	-9.85995
皇	-9.85995
伏	-9.85995
M	-9.85995
评估	-9.85997
破坏	-9.86008
鼓舞	-9.86009
厦门	-9.86016
总公司	-9.86022
负担	-9.86023
所在	-9.86066
美国的	-9.86078
协商	-9.86115
在一起	-9.86117
各族	-9.86179
节约	-9.86217
以前	-9.86259
相关	-9.86272
前来	-9.86303
高校	-9.86305
出发	-9.8637
代表大会	-9.86382
▁第二	-9.86402
2.5	-9.86482
1.5	-9.86503
的时间	-9.86565
属于	-9.86592
月生	-9.86632
本月	-9.86653
带着	-9.86722
全社会	-9.86732
96	-9.86755
83	-9.86764
城乡	-9.86814
很好	-9.86849
上海市	-9.86933
召开的	-9.87072
用户	-9.87168
不久	-9.87198
新华社	-9.87199
澳	-9.87208
1.2	-9.8722
窗	-9.87244
亏	-9.87274
尘	-9.87275
可持续发展	-9.87277
烧	-9.87277
高度重视	-9.87302
领导班子	-9.87308
85	-9.8732
亚洲金融危机	-9.8732
举行了	-9.87322
春耕	-9.87326
湖北省	-9.87358
打破	-9.87373
还在	-9.87408
维修	-9.87409
大厦	-9.8742
父母	-9.87425
6000	-9.87432
南宁	-9.87468
委副书记	-9.87493
经贸	-9.87507
国内外	-9.87557
中俄	-9.87652
主人	-9.87846
深深	-9.8786
国会	-9.87892
一段	-9.87925
列车	-9.87941
人心	-9.88062
和中国	-9.88276
还将	-9.88307
解放	-9.88473
彦	-9.88524
人民检察院	-9.88573
土耳其	-9.88574
剑	-9.88575
博物馆	-9.88575
虹	-9.88575
辈	-9.88575
钻	-9.88576
亏损	-9.88578
模式	-9.88606
截至	-9.88609
考核	-9.88615
追求	-9.88625
汉族	-9.88632
42	-9.88685
法庭	-9.88734
读书	-9.88751
推行	-9.88773
中央银行	-9.88807
曾经	-9.88832
思路	-9.88845
0.6	-9.88846
发表了	-9.88941
公报	-9.89021
化学	-9.8904
一大	-9.89125
长沙	-9.89158
63	-9.89219
治安	-9.89255
不知	-9.89357
然后	-9.89456
当然	-9.89477
多年来	-9.89489
电影	-9.89557
进一步发展	-9.89607
阿拉伯	-9.89732
中学	-9.89769
乡镇	-9.8985
佛	-9.89887
凌	-9.89889
毛泽东	-9.8989
玩	-9.8989
直辖市	-9.89891
印度尼西亚	-9.89892
宿	-9.89892
甘肃	-9.89892
有助于	-9.89893
的企业	-9.89915
中央电视台	-9.89925
窗口	-9.89926
构成	-9.89934
公安机关	-9.89939
优质	-9.89944
附近	-9.89958
初步	-9.89987
是我国	-9.89999
伊拉克武器核查危机	-9.9
副总理	-9.90017
予以	-9.90038
国产	-9.90051
数据	-9.90054
是个	-9.90097
绿化	-9.90101
围棋	-9.90105
称号	-9.90116
79	-9.90116
▁钱其琛	-9.90174
月底	-9.90479
经济的	-9.90509
大选	-9.90572
69	-9.90665
76	-9.90729
发生了	-9.90785
7%	-9.90831
律	-9.90836
体现	-9.9085
的建议	-9.90892
爆	-9.90896
标志	-9.91029
呈	-9.9104
▁根据	-9.91069
泥	-9.91125
乎	-9.91186
趣	-9.91189
腐败	-9.91204
驱	-9.91223
恰	-9.91224
庞	-9.91225
懂	-9.91225
搬	-9.91226
遵守	-9.9123
51	-9.91235
好的	-9.9126
依靠	-9.91274
利润	-9.91295
通过了	-9.91302
另外	-9.91312
不久前	-9.91337
云南省	-9.91389
十年	-9.91486
健全	-9.91517
第六	-9.9159
一块	-9.91643
针	-9.91645
150	-9.91664
外汇	-9.91797
后的	-9.91818
结构调整	-9.91907
来访	-9.9206
带来了	-9.92286
贩	-9.92303
都在	-9.92305
91	-9.92327
记者杨	-9.92367
十四	-9.92381
可是	-9.92408
界的	-9.92417
竞	-9.92473
侨	-9.92494
120	-9.92502
弃	-9.92544
贫	-9.92552
温暖	-9.92569
湘	-9.92575
渔	-9.92575
畜	-9.92576
姿	-9.92577
隔	-9.92577
困境	-9.92587
后来	-9.92592
游泳	-9.92592
句话	-9.92616
司机	-9.92658
主要是	-9.92689
表示感谢	-9.9269
确	-9.9275
改进	-9.92804
市委书记	-9.92846
流通	-9.92896
北方	-9.9293
十几	-9.92937
经济效益	-9.93005
见到	-9.93094
黄金	-9.93218
语言	-9.93241
群众的	-9.93283
不同的	-9.93321
大幅	-9.93339
纳税	-9.93345
市场上	-9.93403
有利	-9.93462
在会上	-9.93485
剧院	-9.93655
心理	-9.93665
99	-9.93672
内外	-9.93705
那里	-9.93736
97	-9.9378
斗	-9.93873
鉴	-9.93875
柏	-9.93883
世纪的	-9.93913
薄	-9.93937
吴邦国	-9.93941
一国两制	-9.93944
新华社发美联社	-9.93944
计划生育	-9.93945
辅	-9.93945
谭	-9.93945
锁	-9.93945
香港特别行政区	-9.93945
葛	-9.93946
麻	-9.93946
卓	-9.93946
挖	-9.93946
汗	-9.93946
枝	-9.93947
掌握	-9.93948
在我国	-9.93966
庆祝	-9.93982
战斗	-9.93995
指标	-9.94004
资助	-9.94007
周围	-9.94045
亚欧	-9.94047
愿望	-9.9405
九段	-9.94092
44	-9.94183
最好	-9.9419
劳动力	-9.9421
农户	-9.9424
反应	-9.94272
当代	-9.9435
十八	-9.94516
经费	-9.9452
汉城	-9.94587
的经验	-9.94695
军人	-9.94886
常委	-9.95053
好事	-9.95082
贸	-9.95084
空军	-9.95085
誉	-9.95145
诸	-9.95167
召	-9.95218
总裁	-9.95242
订	-9.95263
牢	-9.95334
脱贫	-9.95334
袋	-9.95334
玛	-9.95335
采矿权	-9.95335
VCD	-9.95336
圈	-9.95336
缺乏	-9.9534
丹麦	-9.95347
’98	-9.95348
感觉	-9.95356
活跃	-9.95385
华侨	-9.95413
院士	-9.95413
武警	-9.95416
难题	-9.95424
延安	-9.95429
振兴	-9.9543
相结合	-9.9544
700	-9.95518
风景	-9.95656
儿子	-9.95696
是由	-9.95839
制作	-9.95842
联合会	-9.95847
也许	-9.95853
发表的	-9.95871
上午	-9.96066
回家	-9.96086
地质	-9.96376
议长	-9.96453
北部	-9.96489
且	-9.96499
东部	-9.96562
又有	-9.96567
大地	-9.96628
天的	-9.9666
浦	-9.96687
的原因	-9.96706
姜	-9.96742
胸	-9.96743
S	-9.96743
奥运会	-9.96745
模范	-9.96746
签订	-9.96751
奉献	-9.96755
危害	-9.96771
中国选手	-9.96779
承包	-9.96786
容易	-9.96792
特困	-9.96797
1999	-9.96804
香港回归	-9.96815
条例	-9.96831
不够	-9.96837
提高了	-9.96857
率领	-9.96857
新一届	-9.96908
800	-9.96911
开采	-9.96958
工厂	-9.96988
52	-9.97004
全国人民	-9.97005
身边	-9.97022
第二次	-9.97156
想到	-9.97258
转化	-9.9727
6%	-9.97393
他对	-9.97489
活动的	-9.97499
必要	-9.97537
书法	-9.97681
习	-9.98097
磊	-9.98168
什	-9.98169
仲	-9.9817
厉	-9.98171
郁	-9.98171
巩固	-9.98171
伙伴关系	-9.98171
猛	-9.98172
概	-9.98172
张家口	-9.98172
柱	-9.98172
垃圾	-9.98172
桌	-9.98172
墓	-9.98172
公务员	-9.98173
愈	-9.98173
牙	-9.98173
估计	-9.98176
夫妇	-9.98186
所谓	-9.98188
累计	-9.98192
拍卖	-9.98194
监管	-9.98207
82	-9.98208
内阁	-9.98225
共识	-9.98232
华人	-9.98295
湖南省	-9.98319
交谈	-9.98344
经理	-9.98366
1991	-9.98497
贫困地区	-9.9856
全年	-9.98601
物质	-9.98621
四个	-9.98635
带来的	-9.98682
也要	-9.98751
各界人士	-9.988
新华社记者刘	-9.98821
组成的	-9.98849
主席团	-9.99022
手中	-9.99052
立场	-9.99115
厂长	-9.99147
81	-9.99153
落后	-9.99231
冬季	-9.99274
突	-9.99369
要把	-9.99506
大大	-9.99531
1.8	-9.99541
阔	-9.99604
敦	-9.99608
奉	-9.99609
兹	-9.99619
颗	-9.9962
钦	-9.9962
内塔尼亚胡	-9.9962
症	-9.9962
翼	-9.9962
书记处书记	-9.99621
绪	-9.99621
亦	-9.99621
坝	-9.99621
艰苦	-9.99621
纵	-9.99621
辰	-9.99621
住宅	-9.99623
摆脱	-9.99633
对外开放	-9.99643
课题	-9.99649
捐款	-9.99654
兴趣	-9.99659
时候	-9.99676
顾问	-9.99682
优良	-9.99686
产值	-9.99689
兴奋	-9.99698
特委会	-9.99726
工资	-9.99807
的办法	-9.99854
各方	-9.99916
他认为	-9.99925
和其他	-9.99959
协定	-10.002
在此	-10.0025
结束后	-10.0033
当局	-10.0035
财政部	-10.0038
斯特	-10.0042
吸	-10.0047
转让	-10.0058
海军	-10.0074
辆	-10.0083
对手	-10.0086
政协委员	-10.0096
绩	-10.0097
观看	-10.0097
尤	-10.0102
郑州	-10.0109
浮	-10.0109
姚	-10.0109
辩	-10.0109
湿	-10.0109
尝	-10.0109
狂	-10.0109
拆	-10.0109
元旦	-10.0111
幸福	-10.0112
--	-10.0112
复杂	-10.0112
二是	-10.0114
西北	-10.0115
宪法	-10.0116
展出	-10.0119
最佳	-10.0121
私营企业	-10.0122
激动	-10.0123
农药	-10.0125
施工	-10.0126
核心	-10.0132
一周	-10.0132
城镇	-10.0136
浙江省	-10.0141
主体	-10.0149
通报	-10.0156
形成了	-10.0158
▁上海	-10.0168
仅仅	-10.0169
公民	-10.017
▁李岚清	-10.0185
大部分	-10.0189
民警	-10.019
爱国	-10.0195
全国各地	-10.0198
下的	-10.0206
万名	-10.0214
和平与	-10.0225
又是	-10.0233
的消息	-10.0242
妹	-10.0252
百姓	-10.0255
软	-10.0256
芬	-10.0256
彼	-10.0258
吐	-10.0258
奥地利	-10.0258
漠	-10.0258
偶	-10.0258
暗	-10.0258
敌	-10.0259
塘	-10.0259
苍	-10.0259
获悉	-10.0259
引起了	-10.0259
审判	-10.0259
击败	-10.026
九五	-10.0261
回忆	-10.0261
饭店	-10.0262
审计	-10.0263
杂志	-10.0264
表决	-10.0264
轨道	-10.0265
破产	-10.0266
宁夏	-10.0266
技能	-10.0271
告诉记者	-10.0274
哪里	-10.0275
大规模	-10.0276
工艺	-10.0277
成长	-10.0279
福利	-10.028
创办	-10.0281
注重	-10.0285
精心	-10.0286
至少	-10.0286
格局	-10.029
定期	-10.0291
人大	-10.0292
科技进步	-10.0295
局局长	-10.0298
的实际	-10.03
促进了	-10.0308
总量	-10.0315
64	-10.0318
0.9	-10.0326
身体	-10.0327
一是	-10.0338
发动	-10.0338
将会	-10.035
遭	-10.035
47	-10.037
三大	-10.038
化工	-10.0385
债	-10.0386
的领导	-10.04
资格	-10.0401
貌	-10.0404
车辆	-10.0407
扶	-10.0408
冻	-10.0408
阶	-10.0408
刺	-10.0409
马来西亚	-10.041
屏	-10.041
颜	-10.041
绘	-10.041
拳	-10.041
锐	-10.041
逐渐	-10.041
更好	-10.041
授予	-10.041
监察	-10.041
公仆	-10.0411
似乎	-10.0411
办公厅	-10.0412
掌声	-10.0412
妻子	-10.0414
精彩	-10.0416
第七	-10.042
▁1.	-10.0422
旨在	-10.0422
棉花	-10.0423
61	-10.0427
把握	-10.043
遭受	-10.0431
▁10	-10.0432
大臣	-10.0434
光盘	-10.0434
查处	-10.0435
星期	-10.0436
北爱	-10.0436
福建省	-10.0437
自觉	-10.0437
的结果	-10.0438
送到	-10.0443
真实	-10.0444
香港特区	-10.0464
实业	-10.0467
道德	-10.0485
提交	-10.05
画家	-10.0502
高潮	-10.0504
绵	-10.0513
工会	-10.0518
一生	-10.0519
一部	-10.0521
农产品	-10.0524
大厅	-10.0528
进了	-10.0531
困	-10.055
续	-10.055
新技术	-10.0551
研	-10.0556
醒	-10.0556
挥	-10.0556
黑龙江	-10.0559
竞争力	-10.056
览	-10.0562
慢	-10.0563
稀	-10.0564
孝	-10.0564
沃	-10.0564
喝	-10.0564
旭	-10.0564
滩	-10.0564
串	-10.0564
扶持	-10.0564
损害	-10.0565
陆续	-10.0565
少数民族	-10.0566
教训	-10.0566
开辟	-10.0567
债券	-10.0568
灾害	-10.0568
的做法	-10.0568
祝愿	-10.0568
▁据新华社华盛顿	-10.0569
信贷	-10.057
江西省	-10.0571
太阳	-10.0571
副秘书长	-10.0573
传播	-10.0573
村里	-10.0574
航空公司	-10.0581
拉萨	-10.0585
我们要	-10.0585
新华社记者王	-10.0595
现有	-10.0611
希望工程	-10.0616
一张	-10.0634
日元	-10.0641
增加了	-10.0665
新世纪	-10.0668
据统计	-10.0672
享受	-10.0677
人选	-10.0686
谈话	-10.0694
一流	-10.0698
这场	-10.0698
番	-10.07
同期	-10.0702
己	-10.0704
植	-10.0706
姐	-10.0708
平方米	-10.0711
的意见	-10.0716
88	-10.0716
座谈	-10.0719
污	-10.0719
址	-10.072
舰	-10.072
铭	-10.072
等参加了会见	-10.072
灭	-10.072
豆	-10.072
彻底	-10.072
火箭	-10.0721
电力设施	-10.0723
突然	-10.0723
职责	-10.0724
乘客	-10.0724
昔日	-10.0724
寻求	-10.0725
藏族	-10.0725
实验	-10.0726
动力	-10.0727
思考	-10.0727
的政策	-10.0728
三峡	-10.0729
委托	-10.0732
现代化建设	-10.0737
摄影报道	-10.0738
回升	-10.074
明星	-10.0757
外经贸	-10.0761
在内的	-10.0761
已达	-10.0765
的改革	-10.0776
两名	-10.0779
时指出	-10.078
由此	-10.0786
身上	-10.0802
天津市	-10.081
北约	-10.0813
过去的	-10.0813
高科技	-10.0818
的根本	-10.0821
判	-10.0838
必要的	-10.084
臣	-10.0851
支队	-10.0856
以便	-10.0864
民航	-10.0866
淮	-10.087
训	-10.0875
染	-10.0876
孤	-10.0876
默	-10.0878
玲	-10.0878
萍	-10.0879
堡	-10.0879
弟	-10.0879
抛	-10.0879
熊	-10.0879
乌克兰	-10.0879
罢	-10.0879
蒋	-10.0879
独联体	-10.0879
严峻	-10.0879
差距	-10.088
耶夫	-10.088
危险	-10.0881
揭晓	-10.0881
双边关系	-10.0882
瑞典	-10.0883
开幕式	-10.0883
听到	-10.0884
手续	-10.0885
简单	-10.0888
回顾	-10.0889
气象	-10.0889
发射	-10.0891
往往	-10.0893
电视台	-10.0898
彩电	-10.0899
普及	-10.0901
原油	-10.0905
古巴	-10.0905
办公	-10.0908
女士	-10.091
和平解决	-10.0912
多家	-10.0914
未能	-10.0919
年龄	-10.0923
重要讲话	-10.0926
有关方面	-10.0928
十一	-10.0932
一九	-10.0932
地点	-10.0936
副部长	-10.0937
近期	-10.094
线路	-10.0945
家属	-10.0945
全局	-10.0945
中两国	-10.0948
企业家	-10.0968
西南	-10.0968
过年	-10.0972
自动	-10.0973
效率	-10.0988
特区	-10.0993
福州	-10.1018
相对	-10.1028
举行会谈	-10.103
渡	-10.103
近几年	-10.1032
日在这里	-10.1032
创造了	-10.1037
毁	-10.1038
深情	-10.1039
驾	-10.104
中共中央政治局委员	-10.104
奎	-10.104
妙	-10.104
茨	-10.104
姑娘	-10.104
叹	-10.104
哀	-10.104
意味着	-10.104
犹	-10.104
炉	-10.104
嘴	-10.104
盐	-10.104
垦	-10.104
挺	-10.104
岳	-10.104
贬值	-10.104
(%)	-10.1041
矿产资源	-10.1041
中国人民解放军	-10.1042
金大中	-10.1042
印象	-10.1043
配套	-10.1043
预测	-10.1043
减轻	-10.1045
新华社北京	-10.1047
竞赛	-10.1047
加速	-10.1048
商业银行	-10.1052
四川省	-10.1053
交换	-10.1053
半年	-10.1054
范围内	-10.1054
中宣部	-10.1061
一下	-10.1064
发电	-10.1067
的方针	-10.1067
失去	-10.1074
▁2.	-10.1075
水果	-10.1081
自我	-10.1104
京剧	-10.1116
引发	-10.1122
随后	-10.1123
总是	-10.1129
内政	-10.1131
赛事	-10.114
产品质量	-10.114
4%	-10.1142
风格	-10.1143
余名	-10.115
为期	-10.1155
时强调	-10.1165
来信	-10.1166
京城	-10.1169
必将	-10.1179
握	-10.1182
充	-10.1184
别人	-10.1192
乃	-10.12
荷	-10.1202
伪	-10.1202
艾	-10.1203
炸	-10.1203
邱	-10.1203
莲	-10.1204
中共中央政治局常委	-10.1204
乒乓球	-10.1204
黎巴嫩	-10.1204
俞	-10.1204
国家主席江泽民	-10.1204
因特网	-10.1204
悬	-10.1204
擂	-10.1204
气象预报	-10.1204
琳	-10.1204
眼睛	-10.1204
袭击	-10.1204
罚款	-10.1206
所作的	-10.1207
江泽民总书记	-10.1209
贫困人口	-10.1209
救助	-10.121
告别	-10.121
称赞	-10.1213
鲜花	-10.1214
身份	-10.1215
高达	-10.1223
更好地	-10.1228
官方	-10.1233
74	-10.1233
新建	-10.1235
理想	-10.1235
1.6	-10.1236
江主席	-10.124
▁男	-10.1244
江南	-10.1257
记录	-10.1259
市区	-10.127
接着	-10.1275
话题	-10.1291
故乡	-10.1301
7·	-10.1301
0.8	-10.1304
感受	-10.1311
89	-10.1323
龄	-10.1325
本世纪	-10.1325
宴	-10.1326
日报	-10.133
熟	-10.1335
三国	-10.1336
违	-10.1356
人大常委会	-10.1363
阳光	-10.1364
极大	-10.137
驶	-10.137
丧	-10.1371
慕	-10.1371
脉	-10.1371
彬	-10.1371
布鲁塞尔	-10.1371
雅加达	-10.1371
覆盖	-10.1371
欲	-10.1371
舒	-10.1371
寨	-10.1371
探讨	-10.1371
上市	-10.1372
曼谷	-10.1372
纪律	-10.1373
冲击	-10.1373
债务	-10.1373
国务院副总理	-10.1373
论坛	-10.1374
号召	-10.1375
进出口	-10.1384
邮电	-10.1385
证据	-10.1387
十六	-10.1388
坚定	-10.1389
他希望	-10.1395
事迹	-10.1397
900	-10.1408
.00	-10.1423
音乐会	-10.1439
领先	-10.1439
罗马	-10.1439
,194	-10.1444
53	-10.1462
历史上	-10.1465
高效	-10.1486
77	-10.1487
工商局	-10.1495
57	-10.15
唯	-10.1506
招待会	-10.1529
罚	-10.1533
役	-10.1536
触	-10.1538
灰	-10.1539
摸	-10.154
耗	-10.154
霸	-10.154
滋	-10.154
捕	-10.154
饰	-10.154
掘	-10.154
扑	-10.154
扭	-10.154
颁奖	-10.1541
观察	-10.1542
抢救	-10.1543
▁上证	-10.1544
肯定	-10.1544
财务	-10.1546
结合起来	-10.1546
日开始	-10.1548
负责同志	-10.155
优先	-10.1551
朱镕基总理	-10.1551
乐观	-10.1555
并且	-10.1556
波兰	-10.1557
上涨	-10.1571
一辆	-10.1574
基本法	-10.1581
外地	-10.1593
临时	-10.1609
▁2:	-10.1611
就能	-10.1626
适当	-10.1628
午	-10.163
十三	-10.1638
拿出	-10.1638
两次	-10.1641
有可能	-10.1642
巨大的	-10.1647
公安部	-10.1647
签署了	-10.1648
他强调	-10.1653
积极性	-10.1656
觉	-10.1659
今日	-10.1663
拜	-10.1668
两天	-10.1696
崇	-10.1701
宪	-10.1704
聘	-10.1709
塑	-10.171
赏	-10.1711
虑	-10.1711
雕	-10.1712
扰	-10.1712
李铁映	-10.1712
改制	-10.1712
兆	-10.1712
滞	-10.1712
慎	-10.1712
悲	-10.1712
偷	-10.1712
疫	-10.1712
逃	-10.1712
昂	-10.1713
轰	-10.1713
填	-10.1713
P	-10.1713
幼	-10.1713
氏	-10.1713
理事会	-10.1713
堆	-10.1713
八一队	-10.1713
赔偿	-10.1713
养殖	-10.1714
更是	-10.1715
解释	-10.1715
怀念	-10.1717
赞助	-10.1717
应邀	-10.1717
充分发挥	-10.1719
戏剧	-10.1719
假酒	-10.1722
记者招待会	-10.1722
1.7	-10.1724
迎春	-10.1725
恶化	-10.1725
纪念馆	-10.1725
期限	-10.1728
物价	-10.1728
9%	-10.1728
产业化	-10.1731
万人次	-10.1731
千万	-10.1731
青岛	-10.1732
将军	-10.1732
准确	-10.1745
制度改革	-10.1746
不管	-10.1757
一度	-10.1763
十七	-10.1766
水资源	-10.1768
动员	-10.1768
0.7	-10.1773
87	-10.1782
经济形势	-10.1789
的态度	-10.1821
增进	-10.1826
一届	-10.184
社会各界	-10.1844
与会	-10.1853
增长率	-10.1858
元钱	-10.186
不住	-10.1862
会场	-10.1865
富有	-10.1869
就此	-10.188
束	-10.1882
廉	-10.1884
织	-10.1884
距	-10.1884
释	-10.1886
忽	-10.1886
龚	-10.1888
勃	-10.1888
的气氛	-10.1888
驰	-10.1888
攀	-10.1888
皆	-10.1888
鹿	-10.1888
朵	-10.1888
廊	-10.1888
新闻媒体	-10.1888
勋	-10.1888
衔	-10.1888
壁	-10.1888
寺	-10.1888
一体化	-10.1888
富裕	-10.1889
植树	-10.1891
命令	-10.1892
歌舞	-10.1893
房屋	-10.1893
如下	-10.1896
关怀	-10.1899
喜庆	-10.1901
前夕	-10.1903
药品	-10.1903
收购	-10.1904
居住	-10.1905
发达国家	-10.1905
智利	-10.1905
草原	-10.1911
率先	-10.1912
大多数	-10.1918
较好	-10.1919
拜年	-10.1934
新华社发	-10.1937
全会	-10.1937
见面	-10.1948
全区	-10.1951
新闻界	-10.1958
开展了	-10.1974
高等	-10.1989
两项	-10.2002
名将	-10.2006
多数	-10.2008
上岗	-10.2009
▁1:	-10.2014
拉美	-10.203
也将	-10.2032
更为	-10.2037
涉	-10.2056
哲	-10.2059
阁	-10.206
秘	-10.206
径	-10.2063
打开	-10.2065
炼	-10.2066
磁	-10.2066
喷	-10.2067
柴	-10.2067
酸	-10.2067
切尔诺梅尔金	-10.2067
遥	-10.2067
耐	-10.2067
比利时	-10.2067
乙	-10.2067
弘扬	-10.2067
锅	-10.2067
▁中共中央政治局委员	-10.2067
监测	-10.2068
塑料	-10.2068
国有资产	-10.2069
地震灾区	-10.207
友好关系	-10.207
热烈欢迎	-10.207
防范	-10.2073
依据	-10.2074
男排	-10.2075
装备	-10.2075
春节期间	-10.2077
税务	-10.2079
精品	-10.2081
气候	-10.2081
宁波	-10.2083
新任	-10.2084
执政	-10.2087
社会保障	-10.2092
外交部长	-10.2098
青海	-10.2106
清理	-10.2111
▁据报道	-10.2126
日在此间	-10.2136
农业生产	-10.2142
医学	-10.2147
球队	-10.2156
同中国	-10.2169
客观	-10.219
▁随着	-10.22
他指出	-10.2204
同时也	-10.2219
予	-10.222
日讯新华社记者	-10.2226
大局	-10.2226
中国国际	-10.2235
截	-10.224
闹	-10.2246
拔	-10.2246
硕	-10.2247
艇	-10.2248
艾滋病	-10.2248
押	-10.2248
洒	-10.2248
仰	-10.2248
睡	-10.2248
株	-10.2248
薛	-10.2248
庙	-10.2248
依法治国	-10.2248
瓶	-10.2248
温家宝	-10.2248
炎	-10.2248
剩	-10.2249
残疾	-10.2249
缅怀	-10.2249
哪些	-10.225
距离	-10.225
之情	-10.2251
某些	-10.2253
十四届	-10.2254
合肥	-10.2254
国防部长	-10.2256
总统府	-10.2256
100%	-10.2257
4000	-10.2259
考古	-10.2259
拍摄	-10.226
调解	-10.2261
标志着	-10.2268
获奖	-10.227
第三次	-10.2274
金额	-10.2275
期待	-10.2276
这就是	-10.228
世界杯	-10.228
平稳	-10.2281
医生	-10.2287
很有	-10.2294
季节	-10.2308
九届	-10.231
爱心	-10.2312
2.2	-10.2315
在京举行	-10.2319
到底	-10.2334
大事	-10.2338
中关系	-10.2344
在此间	-10.2348
并非	-10.2349
一些国家	-10.2351
在上海	-10.2359
研讨	-10.237
参观了	-10.2373
光明	-10.2382
她说	-10.2382
回来	-10.2384
主权	-10.2394
首脑	-10.2404
种种	-10.2411
力争	-10.2417
旅游业	-10.242
闭	-10.243
在北京举行	-10.2432
凭证式国债	-10.2433
基里延科	-10.2433
与此同时	-10.2433
撞	-10.2433
丘	-10.2434
第九届全国人民代表大会第一次会议	-10.2434
乳	-10.2434
裂	-10.2434
委内瑞拉	-10.2434
忍	-10.2434
俩	-10.2434
丢	-10.2434
屈	-10.2434
纲	-10.2434
习惯	-10.2434
赤字	-10.2435
否	-10.2436
控股	-10.2437
感染	-10.2437
设置	-10.2438
放弃	-10.2438
▁新华社华盛顿	-10.2439
紧紧	-10.2439
程序	-10.2439
股份制	-10.2441
克林顿总统	-10.2446
公告	-10.2447
商标	-10.2449
毕业生	-10.2453
11.	-10.2455
试点	-10.2456
▁第四	-10.246
本办法	-10.2461
使馆	-10.2462
制定了	-10.2465
制约	-10.2472
推向	-10.2478
派出	-10.2487
05	-10.2504
体现了	-10.2526
决赛中	-10.2533
际	-10.2536
08	-10.254
数十	-10.2542
学科	-10.2554
余人	-10.2559
赶到	-10.2581
还没有	-10.2596
来看	-10.2603
体会	-10.2605
员工	-10.261
男女	-10.2611
2.1	-10.2612
长野	-10.2613
看来	-10.2615
宏观调控	-10.2622
谢里夫	-10.2622
乌鲁木齐	-10.2622
坎	-10.2622
日内瓦	-10.2622
杆	-10.2622
姜春云	-10.2622
廷	-10.2622
炳	-10.2622
耶路撒冷	-10.2622
淘汰	-10.2622
眉	-10.2622
惑	-10.2622
萧	-10.2622
雾	-10.2622
虫	-10.2623
中央军委副主席	-10.2623
注册	-10.2624
东南亚金融危机	-10.2624
广阔	-10.2624
反腐败	-10.2625
清楚	-10.2625
软件	-10.2625
题词	-10.2626
辞职	-10.2626
考试	-10.2626
发表讲话	-10.2628
主教练	-10.2628
警告	-10.2629
审查	-10.263
鉴定	-10.2631
滑雪	-10.2631
真诚	-10.2633
必然	-10.2633
商店	-10.2635
受伤	-10.2638
书店	-10.2641
采取措施	-10.2643
小麦	-10.2647
光荣	-10.2648
大胆	-10.266
数千	-10.2662
亲自	-10.2663
这两	-10.2675
社区	-10.2677
看法	-10.2678
1.3	-10.2683
首位	-10.2684
战线	-10.2686
亚军	-10.269
成立了	-10.2703
四十	-10.2704
1500	-10.2712
全力	-10.2715
的事情	-10.2728
显得	-10.2739
欢乐	-10.2741
月初	-10.2742
是什么	-10.2747
几位	-10.2765
成功地	-10.2767
重庆市	-10.2767
1.0	-10.2792
湾	-10.2801
察	-10.2805
的看法	-10.2808
况	-10.2808
菜篮子	-10.281
舞蹈	-10.2814
彭楚政	-10.2814
逾	-10.2814
国内生产总值	-10.2814
罕	-10.2814
缆	-10.2814
帝	-10.2815
慈	-10.2815
腰	-10.2815
证券投资基金	-10.2815
钧	-10.2815
描	-10.2815
娱乐	-10.2815
连日来	-10.2815
糖	-10.2815
颁发	-10.2816
奖励	-10.2817
热闹	-10.2817
主管部门	-10.2818
冰箱	-10.2818
廉政	-10.2818
紧密	-10.2818
分歧	-10.2818
继续保持	-10.2822
67	-10.2822
陕西	-10.2823
营造	-10.2824
制止	-10.2826
周刊	-10.2826
空中	-10.2833
阿拉伯国家	-10.2838
外贸	-10.284
呈现	-10.2841
转增	-10.2842
很难	-10.2854
助理	-10.2856
长征	-10.2857
生意	-10.286
高于	-10.2862
小康	-10.2864
......”	-10.2871
苏丹	-10.2874
人民政协	-10.2883
各省	-10.2885
术	-10.2888
过来	-10.289
低于	-10.2893
喜欢	-10.2905
地处	-10.2936
回答了	-10.2939
长城	-10.2943
大师	-10.2952
港澳	-10.2955
日宣布	-10.2962
是为了	-10.2968
一方面	-10.297
一边	-10.2976
大幅度	-10.2983
出生	-10.2988
武器核查危机	-10.2999
高技术	-10.3001
政协九届一次会议	-10.3002
尊	-10.3002
赠	-10.3005
这部	-10.3007
泳	-10.3008
伸	-10.301
谦	-10.301
奈	-10.301
董建华	-10.301
译	-10.301
登记管理机关	-10.301
国务院地质矿产主管部门	-10.3011
怪	-10.3011
阿拉法特	-10.3011
拓宽	-10.3011
昭	-10.3011
前五名	-10.3011
棵	-10.3011
被评为	-10.3011
司令	-10.3011
高度评价	-10.3012
党和政府	-10.3012
继承	-10.3014
承认	-10.3015
煤矿	-10.3016
居委会	-10.3017
布赫	-10.3017
灵活	-10.3018
深化改革	-10.3019
账户	-10.302
功夫	-10.3023
之行	-10.3024
暴力	-10.3028
前不久	-10.3029
常委会	-10.3029
再度	-10.3046
全国政协委员	-10.3046
制品	-10.3047
成熟	-10.3053
争夺	-10.3059
篮球	-10.3059
保留	-10.3062
权益	-10.3063
财产	-10.3072
重组	-10.3074
10%	-10.3077
2.4	-10.3077
影片	-10.3086
当选为	-10.3099
生产力	-10.311
主要原因	-10.3116
以往	-10.3118
第九届	-10.3121
工具	-10.3122
月球	-10.3126
第二十	-10.3145
共产党	-10.3149
厂家	-10.319
海口	-10.3198
十大	-10.3202
孩	-10.3204
这个问题	-10.3206
迟	-10.3209
赔	-10.321
小平同志	-10.321
叔	-10.321
栋	-10.321
乡亲们	-10.321
尖	-10.3211
衰	-10.3211
窝	-10.3211
胶	-10.3211
柜	-10.3211
天然气	-10.3211
莉	-10.3211
凉	-10.3211
埋	-10.3211
煤炭	-10.3211
腊	-10.3211
葬	-10.3211
艰巨	-10.3211
捐赠	-10.3211
救援	-10.3213
接触	-10.3213
支援	-10.3214
该公司	-10.3214
指责	-10.3215
吴仪	-10.3215
和平进程	-10.3216
档案	-10.3216
宾馆	-10.3216
影视	-10.3216
总书记	-10.3219
支付	-10.3219
基础设施	-10.322
化肥	-10.3224
波音	-10.3225
深切	-10.3226
贫困户	-10.3227
东盟	-10.3227
2.3	-10.323
一番	-10.3236
务实	-10.3237
太原	-10.3239
农业科技	-10.324
企业集团	-10.3243
各方面	-10.3244
返回	-10.3246
列入	-10.3248
出席会议	-10.325
该地区	-10.325
国旗	-10.3254
各级政府	-10.3259
新鲜	-10.3264
龙头	-10.3265
文字	-10.3267
法官	-10.3269
得很	-10.3273
健康发展	-10.3277
小型	-10.3286
加以	-10.3293
支出	-10.3296
有效地	-10.3303
防治	-10.3306
城区	-10.3307
吸引了	-10.331
老同志	-10.3323
接受了	-10.3325
代理	-10.3333
省政府	-10.3337
有限	-10.3347
听说	-10.3358
事情	-10.3365
社会发展	-10.3368
产权	-10.3384
确实	-10.3385
挑	-10.341
纷	-10.3414
抚	-10.3415
唐家璇	-10.3415
滥	-10.3415
葡	-10.3415
鹤	-10.3415
兄弟	-10.3415
坑	-10.3415
崔	-10.3415
挪威	-10.3415
爆炸	-10.3415
脱贫致富	-10.3416
抓住机遇	-10.3416
解放思想	-10.3418
妇联	-10.3418
陷入	-10.3418
图书馆	-10.342
缓解	-10.3421
业绩	-10.3422
所长	-10.3422
第八届	-10.3423
转移	-10.3423
▁在谈到	-10.3425
尚未	-10.343
再就业工程	-10.3431
次全体会议	-10.3432
获胜	-10.3435
干警	-10.3436
利息	-10.3437
汇报	-10.3437
少数	-10.3442
接见	-10.3445
今天在北京	-10.3446
有关规定	-10.3448
春运	-10.3457
数学	-10.3462
不可能	-10.3465
感情	-10.3467
风云	-10.3469
幅度	-10.3469
政党	-10.3472
因而	-10.3489
吸收	-10.3497
顾客	-10.3497
选出	-10.3526
提名	-10.3531
三次	-10.3534
友协	-10.3534
已由	-10.3539
县委	-10.3544
军民	-10.3545
委员会主席	-10.3548
艺术品	-10.3554
实际上	-10.3556
今天在京	-10.3579
一个新的	-10.3585
报刊	-10.3588
农业部	-10.361
峡	-10.3611
全党	-10.3612
电器	-10.3614
汽	-10.3617
工作报告	-10.3619
仓	-10.3621
凝	-10.3622
T	-10.3622
瓷	-10.3623
剪	-10.3623
马克思主义	-10.3623
十五届中央委员	-10.3623
殷	-10.3623
维也纳	-10.3623
尹	-10.3623
漂	-10.3623
堵	-10.3623
插	-10.3623
冶	-10.3623
魂	-10.3623
愁	-10.3623
浅	-10.3623
候选人	-10.3623
冈	-10.3623
国家教委	-10.3625
国家计委	-10.3625
文化部	-10.3625
投诉	-10.3626
祝福	-10.3627
类似	-10.3628
1988	-10.3631
办事处	-10.3632
柏林	-10.3632
环节	-10.3636
角度	-10.3637
走私	-10.3637
首批	-10.3638
珠海	-10.3639
担心	-10.364
冰雪	-10.3643
直到	-10.3644
战友	-10.3645
重要作用	-10.3661
场所	-10.3662
班子	-10.3663
调动	-10.3664
▁06	-10.3665
遭到	-10.3677
运作	-10.3678
反映了	-10.3684
第二届	-10.3684
房子	-10.3688
兴建	-10.3693
电信	-10.3699
往来	-10.3705
发达	-10.3725
我想	-10.3732
近百	-10.3735
病人	-10.3745
会谈后	-10.3755
记者周	-10.376
双方就	-10.3764
是指	-10.377
做出了	-10.3785
早已	-10.383
液	-10.3834
蓄	-10.3835
欠	-10.3835
平方公里	-10.3836
轩	-10.3836
阿根廷	-10.3836
K	-10.3836
疏	-10.3836
帆	-10.3836
踪	-10.3836
滴	-10.3836
田纪云	-10.3836
鼠	-10.3836
帅	-10.3836
苏哈托	-10.3836
沪	-10.3836
致力于	-10.3836
堪	-10.3836
雁	-10.3836
桃	-10.3836
储蓄	-10.3836
积累	-10.3837
检测	-10.3838
休息	-10.3839
共产党员	-10.384
筹备	-10.384
宏伟	-10.3842
协助	-10.3844
阳市	-10.3845
命运	-10.3846
季度	-10.3847
经贸关系	-10.3848
财经	-10.3849
投产	-10.3849
崇高	-10.385
经济的发展	-10.385
申报	-10.3851
总会	-10.3859
收获	-10.3864
环境保护	-10.3865
库克	-10.3865
常常	-10.3872
中国科学院	-10.3874
接近	-10.3875
室内	-10.3877
罗干	-10.3877
物理	-10.3878
观点	-10.3882
去年底	-10.3882
已被	-10.3892
新华社记者张	-10.3893
格外	-10.3895
文选	-10.3903
1990	-10.3914
场面	-10.3914
子女	-10.3933
本身	-10.3939
缴纳	-10.3953
分流	-10.3955
对抗	-10.3957
特区政府	-10.3973
找到了	-10.3976
此前	-10.3978
更新	-10.3989
地球	-10.3998
比分	-10.4009
对待	-10.402
武力	-10.4032
贷	-10.4042
肯	-10.4047
楚	-10.4048
慰	-10.405
肩	-10.4051
盾	-10.4052
娘	-10.4053
烦	-10.4053
合法权益	-10.4053
漏	-10.4053
碎	-10.4053
正式友好访问	-10.4053
谨	-10.4053
暨	-10.4053
欧佩克	-10.4053
贾庆林	-10.4053
鞋	-10.4053
叙	-10.4053
揽	-10.4053
熟悉	-10.4053
喊	-10.4053
遗憾	-10.4053
N	-10.4053
开工	-10.4054
仿佛	-10.4054
为人民服务	-10.4054
颁布	-10.4054
领袖	-10.4054
凝聚	-10.4054
智慧	-10.4054
外交部发言人	-10.4054
抵京	-10.4058
稳步	-10.4058
党的十五大精神	-10.4059
双拥	-10.4059
下岗职工再就业	-10.406
黑龙江省	-10.406
沟通	-10.406
80%	-10.406
保健	-10.4063
发放	-10.4064
专题	-10.4064
免费	-10.4065
电视剧	-10.4066
承办	-10.4066
院校	-10.4069
收藏	-10.4069
经济和社会发展	-10.4072
最多的	-10.4075
国际市场	-10.4076
发扬	-10.4082
预赛	-10.4086
中午	-10.4099
美洲	-10.4103
刊登	-10.4109
1.4	-10.4112
好评	-10.4114
长远	-10.4117
1.1	-10.4119
理由	-10.4119
后果	-10.4135
变得	-10.4149
李德	-10.4159
朝阳	-10.4178
基础上	-10.4182
主持人	-10.4188
日电据	-10.4192
路子	-10.4194
一套	-10.4199
解除	-10.4204
自主	-10.4218
该市	-10.422
界人士	-10.4227
年轻人	-10.4232
涨	-10.4244
中央军委	-10.427
十九	-10.4271
忆	-10.4271
锭	-10.4274
辖	-10.4275
堤	-10.4275
红十字会	-10.4275
挽	-10.4275
甜	-10.4275
俭	-10.4275
孕	-10.4275
颂	-10.4275
主席团常务主席	-10.4275
晴	-10.4275
假冒伪劣	-10.4275
呀	-10.4275
月加入中国共产党	-10.4275
弄	-10.4276
佐	-10.4276
记者李长云	-10.4276
在中南海会见了	-10.4276
新西兰	-10.4276
亭	-10.4276
利比亚	-10.4276
国大党	-10.4276
频繁	-10.4276
艰苦奋斗	-10.4276
压锭	-10.4276
考验	-10.4278
孤儿	-10.4279
举行了会谈	-10.4279
装置	-10.4281
生态环境	-10.4282
清醒	-10.4282
手术	-10.4283
的名字	-10.4283
具备	-10.4283
忘记	-10.4284
基础设施建设	-10.4284
导演	-10.4285
在各个领域	-10.4287
过渡	-10.4289
亲属	-10.429
党委书记	-10.4291
色彩	-10.4291
红旗	-10.4292
信息产业	-10.4292
选票	-10.4293
占领	-10.4296
放松	-10.4297
声音	-10.4298
吉林省	-10.4299
互相	-10.4299
边防	-10.43
派出所	-10.4305
社会稳定	-10.4309
安徽省	-10.431
首届	-10.4316
副总统	-10.4324
条约	-10.4326
开支	-10.4328
响起	-10.4334
每一个	-10.4345
干部群众	-10.4367
新时期	-10.4369
杰出	-10.4369
四强	-10.437
剧团	-10.4372
办好	-10.4373
中国画	-10.4374
六十	-10.4382
平均每	-10.4383
以此	-10.4383
流行	-10.4389
近来	-10.4406
管理局	-10.4408
农场	-10.441
委员会主任	-10.4424
增多	-10.443
合并	-10.4431
领导下	-10.4441
极为	-10.4444
表现出	-10.4445
高原	-10.4446
主场	-10.4451
本轮	-10.4457
特使	-10.4475
佳节	-10.4477
高新技术	-10.4493
交给	-10.4496
赞赏	-10.4497
▁6007	-10.45
慧	-10.4501
渐	-10.4502
约旦河西岸	-10.4502
豫	-10.4503
怨	-10.4503
举行的记者招待会上	-10.4503
帽	-10.4503
扶贫攻坚	-10.4503
胎	-10.4503
特命全权大使	-10.4503
仙	-10.4503
牲	-10.4503
吊	-10.4503
翔	-10.4503
秉	-10.4503
渴	-10.4503
狗	-10.4503
腿	-10.4503
勘探	-10.4503
驾驶	-10.4503
狠抓	-10.4503
检验	-10.4504
十五大精神	-10.4506
不得不	-10.4507
科教兴国	-10.4508
景象	-10.4509
信誉	-10.451
房地产	-10.4511
浪费	-10.4511
难忘	-10.4514
买卖	-10.4514
海南省	-10.4514
健身	-10.4515
结论	-10.4518
目的是	-10.452
干预	-10.4522
促使	-10.4523
平静	-10.4524
打算	-10.4524
收支	-10.4528
贵阳	-10.4529
南昌	-10.4529
接到	-10.453
办学	-10.4534
举报	-10.4537
经济结构	-10.4538
目前已	-10.4538
农田	-10.4539
贫困县	-10.454
20%	-10.4549
一定会	-10.4553
化解	-10.4556
爆发	-10.4559
冬天	-10.4559
要坚持	-10.456
感动	-10.4561
科索沃问题	-10.4566
古老	-10.4573
公平	-10.4583
议程	-10.4591
高峰	-10.4595
知识经济	-10.4599
新增	-10.4644
记者问	-10.4664
大街	-10.4665
市场竞争	-10.4676
兰州	-10.4684
解困	-10.47
张北	-10.4702
疾	-10.4732
耶	-10.4733
裕	-10.4734
迅	-10.4735
赚	-10.4735
柬	-10.4735
哨	-10.4735
丙	-10.4735
罗马尼亚	-10.4735
F	-10.4735
中西部地区	-10.4735
粗	-10.4735
艘	-10.4735
涯	-10.4735
磨	-10.4735
儒	-10.4735
呵	-10.4735
九届人大一次会议	-10.4735
障碍	-10.4735
天安门	-10.4735
盆	-10.4735
长野冬奥会	-10.4736
宗旨	-10.4736
除夕	-10.4736
询问	-10.4737
计算	-10.4738
疾病	-10.4738
烈士	-10.4738
构想	-10.4738
淮河	-10.474
审批	-10.474
招标	-10.4741
财富	-10.4742
面貌	-10.4744
年代初	-10.4746
外债	-10.4746
白宫	-10.4747
的一个重要	-10.4748
克隆	-10.4748
行列	-10.4752
运营	-10.4753
专项	-10.4765
因病	-10.4766
严肃	-10.4771
青春	-10.4774
利税	-10.4785
新华社记者李	-10.4786
各部门	-10.4807
春节前	-10.4809
致使	-10.4814
观看了	-10.482
大批	-10.4824
开发区	-10.4827
武汉市	-10.4829
艺术团	-10.483
大众	-10.4833
冰球	-10.4837
平安	-10.4841
好转	-10.4858
北京大学	-10.4859
开创	-10.4867
座谈会上	-10.4881
发明	-10.4886
学员	-10.4892
议题	-10.4912
可见	-10.4931
责任制	-10.496
甚	-10.4969
赤	-10.4971
惜	-10.4972
恐	-10.4973
国际象棋	-10.4973
舟	-10.4973
奥尔布赖特	-10.4973
弊	-10.4973
国家杜马	-10.4973
褚时健	-10.4973
下岗女工	-10.4973
坤	-10.4973
人民检察院检察长	-10.4973
锻炼	-10.4973
戒	-10.4973
劝	-10.4973
荣毅仁	-10.4973
宏观经济	-10.4973
薪	-10.4974
辣	-10.4974
盒	-10.4974
外汇储备	-10.4974
欣赏	-10.4974
美丽的	-10.4975
北爱尔兰	-10.4976
统一战线	-10.4976
在人民大会堂会见了	-10.4976
建设有中国特色社会主义	-10.4976
选拔	-10.4977
失败	-10.4979
农业产业化	-10.498
珍贵	-10.498
乃至	-10.498
背景	-10.4981
献血	-10.4981
骨干	-10.4982
反响	-10.4984
适合	-10.4984
九十	-10.4986
民政部	-10.4991
▁4.	-10.4992
法制建设	-10.4993
名誉	-10.4996
寒风	-10.5
境内	-10.5004
周恩来总理	-10.5009
一大批	-10.5011
安装	-10.5012
新春佳节	-10.5013
科龙	-10.5014
每次	-10.5024
开设	-10.5025
政府和人民	-10.503
火车	-10.5043
著作	-10.5046
从此	-10.5054
放心	-10.5055
第一天	-10.508
操作	-10.5082
发展势头	-10.5092
作业	-10.5095
再现	-10.5102
眼下	-10.5113
历史性	-10.5124
金融市场	-10.5171
妇	-10.5206
民工	-10.5208
领域的合作	-10.5212
疗	-10.5213
辽	-10.5215
秧	-10.5215
拼	-10.5217
逼	-10.5217
一九九八年	-10.5217
撒	-10.5217
悼	-10.5217
许宏治	-10.5217
汛	-10.5217
铸	-10.5217
茶话会	-10.5217
彝族	-10.5217
万国权	-10.5217
碧	-10.5217
逊	-10.5217
遣	-10.5217
洽	-10.5217
拼搏	-10.5217
莫桑比克	-10.5217
离不开	-10.5217
记者毛磊	-10.5217
中南海	-10.5218
的情景	-10.5219
薄弱	-10.5219
青年志愿者	-10.5219
委主任	-10.5219
充满信心	-10.522
武警部队	-10.522
射击	-10.522
核电站	-10.5221
导弹	-10.5222
干涉	-10.5222
奇迹	-10.5223
贝宁	-10.5224
照顾	-10.5225
叶利钦总统	-10.5226
组委会	-10.5227
抓紧	-10.5227
邮政	-10.5228
自豪	-10.5231
起诉	-10.5237
一旦	-10.5239
回族	-10.5246
高新技术产业	-10.5246
打假	-10.5247
困难职工	-10.5247
扩张	-10.5249
被告	-10.5254
调查研究	-10.5258
专家们	-10.5262
业余	-10.5266
赢得了	-10.5269
北京军区	-10.5273
牌子	-10.5274
政局	-10.5302
对象	-10.5311
研究人员	-10.5316
认识到	-10.532
岗位上	-10.532
主管	-10.5338
条件下	-10.534
汉语	-10.5362
感受到	-10.5369
尤其	-10.5404
合作关系	-10.5421
赢得	-10.5422
场比赛	-10.5426
斤	-10.5463
择	-10.5465
弗	-10.5467
阿尔及利亚	-10.5467
办实事	-10.5467
韵	-10.5467
实事求是	-10.5467
粒	-10.5467
肯尼亚	-10.5467
脆	-10.5467
参议议政	-10.5467
总统府邸	-10.5467
龚雯	-10.5467
御	-10.5467
布莱尔	-10.5467
翰	-10.5467
希拉克	-10.5467
科威特	-10.5467
太平洋	-10.5467
鼎	-10.5467
廖	-10.5467
膜	-10.5467
咱	-10.5467
顽	-10.5467
从业人员	-10.5467
自行车	-10.5468
常昊	-10.5468
▁深证	-10.5468
,195	-10.5468
大部地区	-10.5468
高速公路	-10.5468
廉洁	-10.5469
推迟	-10.5469
艰难	-10.5469
借鉴	-10.5469
在记者招待会上	-10.547
张万年	-10.5471
苗族	-10.5472
持久	-10.5472
竞选	-10.5472
现状	-10.5472
赞扬	-10.5473
衷心	-10.5473
有关各方	-10.5474
军事打击	-10.5474
送温暖	-10.5476
劳务	-10.5476
第九	-10.548
刑事	-10.5484
换届	-10.5484
亚太	-10.5484
掀起	-10.5485
反复	-10.5486
相继	-10.5486
30%	-10.5488
移民	-10.5488
近几年来	-10.5489
第八	-10.5489
确认	-10.5492
客户	-10.5494
之日起	-10.5494
取代	-10.5499
的到来	-10.5506
老板	-10.5507
表示祝贺	-10.5511
纳入	-10.5513
大使馆	-10.5513
精力	-10.5517
将于今年	-10.5522
第一届	-10.5523
想起	-10.5533
道理	-10.5533
带头	-10.5534
路线	-10.5536
2.6	-10.5541
3.5	-10.556
难点	-10.5569
公众	-10.5578
了解到	-10.5588
政权	-10.5598
物品	-10.5604
二百	-10.561
市市长	-10.5646
荣获	-10.5647
厦	-10.569
天空	-10.57
此事	-10.5707
琼	-10.5718
癌	-10.5723
拖	-10.5723
萨达姆	-10.5723
酿	-10.5723
坦桑尼亚	-10.5724
王兆国	-10.5724
挣	-10.5724
▁压题照片	-10.5724
绳	-10.5724
翁	-10.5724
遵循	-10.5724
博览会	-10.5724
灌	-10.5724
焕	-10.5724
逆	-10.5724
鸭	-10.5724
谱	-10.5724
1/3	-10.5724
涂	-10.5724
倡导	-10.5724
勘查许可证	-10.5724
错误	-10.5725
国家体委	-10.5726
发表谈话	-10.5726
知识分子	-10.5728
田径	-10.5728
配置	-10.5728
阵阵	-10.5728
外交大臣	-10.5728
铁道部	-10.5729
态势	-10.5729
表示赞赏	-10.5731
姐妹	-10.5734
1985	-10.5736
科学院	-10.5736
缺少	-10.5737
安曼	-10.5741
政务	-10.5746
喜爱	-10.5751
迈出	-10.5752
住院	-10.5753
核电	-10.5753
双边	-10.5754
供电	-10.5755
风采	-10.5755
前途	-10.576
排除	-10.5761
文献	-10.5763
客车	-10.5766
期望	-10.5768
面包	-10.5769
深受	-10.577
较高	-10.5782
2.8	-10.5811
2.7	-10.5823
看看	-10.5845
第一位	-10.5884
矿产	-10.591
民众	-10.5929
胆	-10.5935
三月十	-10.5948
毒品	-10.5953
符	-10.5973
陪	-10.5975
私营	-10.5977
征文	-10.598
绕	-10.5986
袭	-10.5986
蒙古	-10.5986
新年伊始	-10.5987
敞	-10.5987
彭珮云	-10.5987
亨	-10.5987
啦	-10.5987
弯	-10.5987
摄氏度	-10.5987
畔	-10.5987
梯	-10.5987
个百分点	-10.5987
肇	-10.5987
挫	-10.5987
国事访问	-10.5987
邹家华	-10.5987
闸	-10.5987
信用社	-10.5987
邵	-10.5987
紫	-10.5987
契	-10.5987
一九九七年	-10.5987
禽	-10.5987
温馨	-10.5987
困扰	-10.5987
激励	-10.5988
月参加工作	-10.5988
喜悦	-10.5989
补充	-10.5989
速滑	-10.5989
纠正	-10.599
春节前夕	-10.599
角逐	-10.599
储备	-10.599
否则	-10.599
宋健	-10.5991
振奋	-10.5992
提醒	-10.5992
赠送	-10.5993
显然	-10.5994
确立	-10.5994
新华社记者陈	-10.5994
干旱	-10.5995
副市长	-10.5995
邮票	-10.5995
依照	-10.5996
培训班	-10.6
历程	-10.6
改革开放以来	-10.6001
十分重视	-10.6001
突破口	-10.6002
潮流	-10.6002
十三届	-10.6003
陕西省	-10.6004
表示满意	-10.6006
水泥	-10.6006
征收	-10.6008
降价	-10.6008
.5%	-10.6011
县委书记	-10.6011
政委	-10.6015
积极作用	-10.6016
之所以	-10.6017
素质教育	-10.6019
荒山	-10.6019
无私	-10.6022
热爱	-10.6023
主持会议	-10.6023
迈向	-10.6028
步入	-10.603
世界冠军	-10.6035
耕地	-10.6037
修建	-10.6044
门口	-10.6051
介绍了中国	-10.6051
热心	-10.6063
学生们	-10.6076
1.9	-10.6108
江泽民同志	-10.6113
阳县	-10.6126
牧民	-10.6151
疆	-10.6237
损	-10.6253
秘书	-10.6255
全国人民代表大会常务委员会	-10.6256
督	-10.6256
塌	-10.6257
顷	-10.6257
帐篷	-10.6257
邹	-10.6257
尺	-10.6257
全国各族人民	-10.6257
纱	-10.6257
李贵鲜	-10.6257
俄罗斯总统叶利钦	-10.6257
丁关根	-10.6257
欺	-10.6257
催	-10.6257
竣工	-10.6257
杉	-10.6257
氧	-10.6257
曾庆红	-10.6257
芝	-10.6257
记者缪鲁	-10.6257
猫	-10.6257
傲	-10.6257
枯	-10.6257
民主党派	-10.6257
轿车	-10.6257
中小学生	-10.6257
碰	-10.6258
敦促	-10.6258
蒙古族	-10.6259
肩负	-10.626
司令员	-10.6262
通讯社	-10.6263
2.9	-10.6263
利用外资	-10.6263
植物	-10.6264
议论	-10.6264
战役	-10.6265
洪森	-10.6265
评论员	-10.6266
1987	-10.6267
普查	-10.627
亚太地区	-10.6271
预防	-10.6271
权威	-10.6272
联合国秘书长	-10.6272
审理	-10.6274
有关决议	-10.6278
此举	-10.6279
农历	-10.6279
光辉	-10.6281
尽早	-10.6281
苏联	-10.6282
排放	-10.6285
短期	-10.6288
比索	-10.629
歌声	-10.6294
招生	-10.6298
证书	-10.6298
太空	-10.6299
新闻单位	-10.63
首脑会议	-10.6313
合资	-10.6321
产业结构	-10.6349
五年来	-10.638
4.2	-10.6457
构	-10.6468
中央纪委	-10.6489
迎新春	-10.6494
效应	-10.6502
产销	-10.6514
邀	-10.6525
励	-10.6529
掌	-10.653
纺	-10.6535
宵	-10.6535
沛	-10.6535
阐述了	-10.6535
仗	-10.6535
诈	-10.6535
翠	-10.6535
萨哈夫	-10.6535
阎	-10.6535
丑	-10.6535
蒋新松	-10.6535
祸	-10.6535
G	-10.6535
马德里	-10.6535
呆	-10.6535
菌	-10.6535
农科院	-10.6535
阿尔巴尼亚	-10.6535
推荐	-10.6535
柔	-10.6535
拓展	-10.6535
框架	-10.6535
诱	-10.6535
“110”	-10.6536
支撑	-10.6536
第九届全国委员会第一次会议	-10.6538
系毕业	-10.6539
丛书	-10.654
相互了解	-10.654
截流	-10.6541
调控	-10.6541
水稻	-10.6541
琼斯	-10.6541
自治州	-10.6542
达成协议	-10.6542
研制成功	-10.6542
宣言	-10.6542
完整	-10.6542
制订	-10.6543
专家学者	-10.6543
巨额	-10.6543
整整	-10.6543
维持	-10.6544
短短	-10.6544
公益	-10.6545
小姐	-10.6545
进行为期	-10.6546
关心的问题	-10.6546
造福	-10.655
▁新华社莫斯科	-10.655
排球	-10.6555
的心情	-10.6562
所有制	-10.6563
临近	-10.6566
立足	-10.6566
沿海	-10.6568
诸多	-10.6568
跳水	-10.6574
警方	-10.6578
难关	-10.658
远远	-10.6582
精神文明	-10.6589
这几年	-10.6598
万多名	-10.6625
0.0	-10.6625
主要内容	-10.6654
个比例	-10.6702
十分重要	-10.6706
洛阳	-10.6766
陕	-10.679
半决赛	-10.6797
高速	-10.6801
筑	-10.6802
二月十	-10.6809
赢	-10.6811
妻	-10.6813
衷	-10.6813
纤	-10.6818
悦	-10.6818
频	-10.6819
刷	-10.6819
唤	-10.6819
仿	-10.682
黔	-10.682
卧	-10.682
塞拉利昂	-10.682
孙孚凌	-10.682
突尼斯	-10.682
挚	-10.682
立方米	-10.682
乒	-10.682
瞻	-10.6821
卜	-10.6821
O	-10.6821
缝	-10.6821
稽	-10.6821
捧	-10.6821
斋	-10.6821
祭	-10.6821
长征二号	-10.6821
鞭	-10.6821
骄	-10.6821
巾	-10.6821
浸	-10.6821
抬	-10.6821
E	-10.6821
党支部	-10.6821
拘	-10.6821
宰	-10.6821
炒	-10.6821
大中型	-10.6821
侦查	-10.6822
丈夫	-10.6822
拉开了	-10.6822
尊严	-10.6823
发出通知	-10.6824
兑换	-10.6824
芬兰	-10.6825
律师	-10.6825
火车站	-10.6825
救济	-10.6825
启示	-10.6825
指示	-10.6827
内涵	-10.6827
钢铁	-10.6827
观测	-10.6828
银川	-10.6828
联合声明	-10.6828
另一方面	-10.683
讲述	-10.6831
农技	-10.6833
若干	-10.6834
40%	-10.6835
阿盟	-10.6836
财政收入	-10.6839
注入	-10.6839
矿工	-10.684
满族	-10.684
鲜明	-10.6841
排列	-10.6843
最重要的	-10.6847
有力地	-10.685
演讲	-10.685
药物	-10.6853
银行行长	-10.6853
科技成果	-10.6853
伊拉克危机	-10.6858
客场	-10.6861
延长	-10.6861
世界各国	-10.6863
极其	-10.6863
公司总经理	-10.6906
露出	-10.6935
个国家的	-10.6937
5.5	-10.6943
人事部	-10.6953
贯彻落实	-10.6964
认真贯彻	-10.698
部分地区	-10.704
苏州	-10.7049
涵	-10.7108
丛	-10.7109
络	-10.7113
拒	-10.7114
搏	-10.7115
屠	-10.7115
泡沫	-10.7115
垒	-10.7115
渊	-10.7115
鲍	-10.7115
王国栋	-10.7115
粤	-10.7115
世纪之交	-10.7115
采矿许可证	-10.7115
记者顾正龙	-10.7115
韦德里纳	-10.7115
殿	-10.7115
徒	-10.7115
羽绒	-10.7115
国际奥委会	-10.7115
赦	-10.7115
清华大学	-10.7115
共青团	-10.7115
增添了	-10.7115
咸	-10.7115
倡议	-10.7115
巍	-10.7115
弥	-10.7115
百城万店无假货	-10.7115
恋	-10.7115
联谊会	-10.7115
雀	-10.7115
新闻发布会	-10.7115
凶	-10.7115
甫	-10.7115
俺	-10.7115
雕塑	-10.7115
提倡	-10.7115
清晰	-10.7116
帮扶	-10.7117
压缩	-10.7117
视察	-10.7117
金融动荡	-10.7118
发表声明	-10.7119
仪器	-10.7119
象征	-10.712
中央党校	-10.7121
90%	-10.7122
设备制造	-10.7123
跨越	-10.7123
8000	-10.7123
全国人大常委会委员	-10.7124
判处	-10.7124
课程	-10.7126
携	-10.7411
陷	-10.7413
障	-10.7414
询	-10.7415
殖	-10.7416
详	-10.7416
乏	-10.7417
旬	-10.7417
歉	-10.7418
禄	-10.7418
勉	-10.7418
抄	-10.7418
碱	-10.7418
铢	-10.7418
砖	-10.7418
蔚	-10.7418
沧	-10.7418
L	-10.7418
颖	-10.7418
幻	-10.7418
聪	-10.7418
坪	-10.7418
朔	-10.7418
愧	-10.7418
疲	-10.7418
浑	-10.7418
鄂	-10.7418
夹	-10.7418
纽	-10.7727
泛	-10.7729
麟	-10.773
V	-10.773
泼	-10.773
潭	-10.773
茅	-10.773
垂	-10.773
夸	-10.773
醉	-10.773
寅	-10.773
怡	-10.773
柯	-10.773
X	-10.773
梭	-10.773
晖	-10.773
臂	-10.773
舱	-10.773
瘦	-10.773
稍	-10.7731
伐	-10.805
遵	-10.8051
碗	-10.8052
栽	-10.8052
樱	-10.8052
喀	-10.8053
汕	-10.8053
碍	-10.8053
戚	-10.8053
悔	-10.8053
惨	-10.8053
笼	-10.8053
爬	-10.8053
葱	-10.8053
嫩	-10.8053
彪	-10.8053
吞	-10.8053
狮	-10.8053
糊	-10.8053
幢	-10.8053
券	-10.8375
壤	-10.838
措	-10.8383
泊	-10.8385
嫌	-10.8386
冀	-10.8386
巷	-10.8386
泡	-10.8386
斑	-10.8386
摔	-10.8386
卸	-10.8386
枣	-10.8386
寂	-10.8386
魁	-10.8386
醇	-10.8386
泄	-10.8386
盏	-10.8386
尧	-10.8386
曙	-10.8386
雇	-10.8386
玻	-10.8386
溢	-10.8386
锣	-10.8386
怒	-10.8386
恭	-10.8386
辨	-10.8386
劫	-10.8386
夕	-10.8696
盲	-10.8729
i	-10.8731
邢	-10.8731
踞	-10.8731
杏	-10.8731
搜	-10.8731
樊	-10.8731
H	-10.8731
娟	-10.8731
歇	-10.8731
竭	-10.8731
爽	-10.8731
簿	-10.8731
弦	-10.8731
骑	-10.8731
魄	-10.8731
誓	-10.8731
咬	-10.8731
惯	-10.9088
湛	-10.9088
嫁	-10.9088
僵	-10.9088
拾	-10.9088
坊	-10.9088
椅	-10.9088
澄	-10.9088
捞	-10.9088
棠	-10.9088
侠	-10.9088
韬	-10.9088
厘	-10.9088
衬	-10.9088
寸	-10.9088
冕	-10.9088
努	-10.9447
撰	-10.9455
撑	-10.9457
娥	-10.9458
厄	-10.9458
羽	-10.9458
蒲	-10.9458
棒	-10.9458
岂	-10.9458
阐	-10.9458
刮	-10.9459
割	-10.9459
钩	-10.9459
澜	-10.9459
藤	-10.9459
漆	-10.9459
贪	-10.9843
晃	-10.9843
挡	-10.9843
锤	-10.9843
汝	-10.9843
桔	-10.9843
擦	-10.9843
蕴	-10.9843
淀	-10.9843
莎	-10.9843
莹	-10.9843
瑶	-10.9843
垄	-10.9843
桩	-10.9843
羡	-10.9843
渣	-10.9843
抒	-10.9843
拂	-10.9843
鞍	-10.9843
逸	-10.9843
勾	-10.9843
烂	-10.9843
畏	-10.9843
脊	-10.9843
爸	-10.9843
掩	-10.9843
荆	-10.9843
讨	-11.0236
披	-11.0242
腐	-11.0242
爷	-11.0243
熙	-11.0243
牟	-11.0243
昏	-11.0243
镑	-11.0243
乾	-11.0243
拦	-11.0243
奢	-11.0243
趟	-11.0243
衍	-11.0243
啥	-11.0243
迭	-11.0243
芽	-11.0243
肝	-11.0243
恳	-11.0243
辱	-11.0243
浆	-11.0243
悟	-11.0243
肠	-11.0243
躺	-11.0243
旦	-11.0613
昨	-11.0649
稻	-11.065
谊	-11.0658
吟	-11.066
朽	-11.066
妈	-11.066
掏	-11.066
凑	-11.066
啸	-11.066
蕾	-11.066
楠	-11.066
撼	-11.066
赣	-11.066
蒸	-11.066
浇	-11.066
喂	-11.066
炬	-11.066
耘	-11.066
○	-11.066
喇	-11.066
肆	-11.066
×	-11.066
酬	-11.066
郝	-11.066
魔	-11.066
壳	-11.066
鹅	-11.066
父	-11.0989
桶	-11.1043
辟	-11.1086
缅	-11.1093
寥	-11.1094
饶	-11.1094
愤	-11.1094
猎	-11.1094
窑	-11.1094
剖	-11.1094
吾	-11.1094
轴	-11.1094
桐	-11.1094
倪	-11.1094
瞧	-11.1094
砍	-11.1095
帷	-11.1095
霖	-11.1095
匾	-11.1095
聊	-11.1095
哭	-11.1095
颈	-11.1095
坠	-11.1095
濒	-11.1095
瞬	-11.1095
刹	-11.1095
碟	-11.1095
哟	-11.1095
央	-11.1513
艰	-11.1542
逝	-11.1546
彻	-11.1548
削	-11.1548
窃	-11.1548
屯	-11.1549
鲸	-11.1549
嫂	-11.1549
厢	-11.1549
囊	-11.1549
踢	-11.1549
幽	-11.1549
拢	-11.1549
枢	-11.1549
绸	-11.1549
犁	-11.1549
缠	-11.1549
嘛	-11.1549
骆	-11.1549
募	-11.1549
瑟	-11.1549
荫	-11.1549
琪	-11.1549
瑰	-11.1549
腹	-11.1549
鞠	-11.1549
屡	-11.1549
铃	-11.1549
歧	-11.2015
履	-11.2016
蓬	-11.2025
媳	-11.2025
孜	-11.2025
●	-11.2025
秤	-11.2025
裔	-11.2025
喻	-11.2025
咏	-11.2025
龟	-11.2025
铮	-11.2025
佑	-11.2025
焰	-11.2025
忌	-11.2025
翩	-11.2025
腔	-11.2025
酷	-11.2025
喧	-11.2025
篆	-11.2025
辜	-11.2025
苹	-11.2025
恼	-11.2025
佟	-11.2025
饿	-11.2025
铝	-11.2026
俱	-11.2026
尿	-11.2026
俏	-11.2026
詹	-11.2026
栗	-11.2026
遂	-11.2026
够	-11.2448
纠	-11.2519
综	-11.2522
峻	-11.2524
煌	-11.2525
眠	-11.2525
霉	-11.2525
裹	-11.2525
僻	-11.2525
挨	-11.2525
钓	-11.2525
绽	-11.2525
兔	-11.2525
觅	-11.2525
肤	-11.2525
傍	-11.2525
陋	-11.2525
霜	-11.2525
妮	-11.2525
婉	-11.2525
缉	-11.2525
叮	-11.2525
陌	-11.2525
匹	-11.2525
琦	-11.2525
剥	-11.2525
抹	-11.2525
筋	-11.2525
遮	-11.2525
烯	-11.2525
鑫	-11.2525
泓	-11.2525
钮	-11.2525
曦	-11.2525
罐	-11.2526
傣	-11.2526
愚	-11.2526
肃	-11.2969
析	-11.3032
箭	-11.3048
辑	-11.3049
狠	-11.3049
侦	-11.3049
骤	-11.305
朋	-11.305
赋	-11.3051
铅	-11.3051
e	-11.3051
隶	-11.3051
鬼	-11.3051
扇	-11.3051
茬	-11.3051
竖	-11.3051
R	-11.3052
烽	-11.3052
缕	-11.3052
逛	-11.3052
蛇	-11.3052
扯	-11.3052
翅	-11.3052
捉	-11.3052
纹	-11.3052
婆	-11.3052
痕	-11.3052
赃	-11.3052
翟	-11.3052
鹰	-11.3052
猜	-11.3052
亟	-11.3052
闷	-11.3052
肺	-11.3052
疼	-11.3052
椒	-11.3052
寓	-11.3052
痴	-11.3052
贿	-11.3604
姑	-11.3607
卿	-11.3607
瞄	-11.3607
庸	-11.3607
漳	-11.3607
睦	-11.3607
亢	-11.3607
吻	-11.3607
窄	-11.3607
蔽	-11.3607
驳	-11.3607
氨	-11.3607
贼	-11.3607
蝉	-11.3607
埔	-11.3607
膀	-11.3607
烤	-11.3607
饼	-11.3607
厨	-11.3607
瑜	-11.3607
肿	-11.3607
庐	-11.3607
萃	-11.3607
霄	-11.3607
绥	-11.3607
*	-11.3607
漓	-11.3607
酋	-11.3607
嗬	-11.3607
壶	-11.3607
媚	-11.3607
绣	-11.3607
饥	-11.3607
庚	-11.3607
暇	-11.3607
豹	-11.3607
兽	-11.3608
柑	-11.3608
垫	-11.3608
诵	-11.3608
估	-11.4192
怎	-11.4193
扮	-11.4194
允	-11.4194
窦	-11.4194
丸	-11.4195
裴	-11.4195
蜀	-11.4195
虾	-11.4195
狐	-11.4195
砸	-11.4195
闽	-11.4195
芜	-11.4195
〉	-11.4195
淋	-11.4195
〈	-11.4195
俯	-11.4195
苑	-11.4195
榆	-11.4195
躁	-11.4195
锯	-11.4195
妆	-11.4195
芒	-11.4195
躲	-11.4195
驼	-11.4195
谜	-11.4195
恨	-11.4195
乍	-11.4195
簇	-11.4195
炊	-11.4195
骥	-11.4195
筒	-11.4196
叠	-11.4196
°	-11.4196
溜	-11.4196
聋	-11.4196
粪	-11.4196
聂	-11.4196
浴	-11.4196
芦	-11.4196
槐	-11.4196
仑	-11.4196
扔	-11.4196
坟	-11.4196
谓	-11.478
悉	-11.4811
勘	-11.4817
挪	-11.4819
伽	-11.482
斐	-11.482
砚	-11.482
姨	-11.482
赐	-11.482
阜	-11.482
炯	-11.482
堰	-11.482
洼	-11.482
禅	-11.482
茹	-11.482
璞	-11.482
粹	-11.482
穴	-11.482
帘	-11.482
曰	-11.482
扛	-11.482
蹲	-11.482
烁	-11.482
晒	-11.482
颠	-11.482
桓	-11.482
焉	-11.482
洙	-11.482
莽	-11.482
茵	-11.482
珊	-11.482
熏	-11.482
娅	-11.4821
庵	-11.4821
拐	-11.4821
纬	-11.4821
稚	-11.4821
腻	-11.4821
毯	-11.4821
脏	-11.5466
婴	-11.5485
睹	-11.5485
覆	-11.5486
缪	-11.5486
踩	-11.5486
萎	-11.5487
磷	-11.5487
噪	-11.5487
鼻	-11.5487
矮	-11.5487
芭	-11.5487
歪	-11.5487
躯	-11.5487
捍	-11.5487
枫	-11.5487
桦	-11.5487
菱	-11.5487
钉	-11.5487
娇	-11.5487
禹	-11.5487
捡	-11.5487
耿	-11.5487
拱	-11.5487
渭	-11.5487
砂	-11.5487
硅	-11.5487
颤	-11.5487
盯	-11.5487
纂	-11.5487
哄	-11.5487
麓	-11.5487
涅	-11.5487
铲	-11.5487
炜	-11.5487
o	-11.5487
恪	-11.5487
芹	-11.5487
蜂	-11.5487
赌	-11.5487
肚	-11.5487
蜜	-11.5488
仆	-11.6197
仔	-11.62
炭	-11.6201
雯	-11.6201
腺	-11.6201
硫	-11.6201
芯	-11.6201
溶	-11.6201
贞	-11.6201
蓉	-11.6201
裸	-11.6201
斥	-11.6201
掠	-11.6201
沂	-11.6201
冤	-11.6201
脂	-11.6201
慷	-11.6201
灶	-11.6201
爵	-11.6201
祁	-11.6201
敖	-11.6201
勿	-11.6201
厌	-11.6201
棍	-11.6201
襄	-11.6201
骚	-11.6201
苯	-11.6201
渤	-11.6201
唇	-11.6201
跤	-11.6201
挠	-11.6201
邑	-11.6201
眸	-11.6201
伞	-11.6201
狼	-11.6201
垮	-11.6201
莺	-11.6201
坷	-11.6202
淳	-11.6202
W	-11.6202
暑	-11.6202
熬	-11.6202
姻	-11.6202
昧	-11.6202
杭	-11.6893
掀	-11.6914
殊	-11.6965
丈	-11.6968
巩	-11.6969
涧	-11.697
鸽	-11.697
郴	-11.697
浚	-11.697
靖	-11.697
冽	-11.697
螺	-11.697
蹦	-11.697
兄	-11.697
瀛	-11.697
讽	-11.697
拯	-11.697
淫	-11.697
锚	-11.697
卑	-11.697
寰	-11.697
楷	-11.697
璐	-11.697
滇	-11.697
烘	-11.697
舌	-11.697
奴	-11.697
穗	-11.697
蚀	-11.697
沥	-11.697
沾	-11.697
滦	-11.697
耻	-11.697
扼	-11.697
抖	-11.697
跋	-11.697
倘	-11.697
旷	-11.697
讳	-11.697
媛	-11.6971
梧	-11.6971
萝	-11.6971
捏	-11.6971
榻	-11.6971
甩	-11.6971
衫	-11.6971
滕	-11.6971
轧	-11.6971
嘎	-11.6971
璀	-11.6971
吓	-11.6971
碳	-11.6971
叭	-11.6971
淘	-11.6971
苟	-11.6971
焚	-11.6971
嬉	-11.6971
焊	-11.6971
绑	-11.6971
楹	-11.6971
拌	-11.6971
渠	-11.7799
徽	-11.7799
袖	-11.7802
茄	-11.7803
淹	-11.7804
斜	-11.7804
氯	-11.7804
锈	-11.7804
倦	-11.7804
扳	-11.7804
暮	-11.7804
巢	-11.7804
罩	-11.7804
哦	-11.7804
宛	-11.7804
戊	-11.7804
瘠	-11.7804
蝶	-11.7804
熔	-11.7804
肴	-11.7804
捎	-11.7804
瑾	-11.7804
镐	-11.7804
仇	-11.7804
淌	-11.7804
臭	-11.7804
灿	-11.7804
弓	-11.7804
肌	-11.7804
隙	-11.7804
聆	-11.7804
靶	-11.7804
攒	-11.7804
沫	-11.7804
襟	-11.7804
骏	-11.7804
淤	-11.7804
谅	-11.7804
墒	-11.7804
骂	-11.7804
柿	-11.7804
匠	-11.7804
嵌	-11.7804
慌	-11.7804
荔	-11.7804
毓	-11.7804
皖	-11.7804
镶	-11.7804
尸	-11.7804
煞	-11.7804
穹	-11.7804
趁	-11.7804
棺	-11.7804
睁	-11.7804
陡	-11.7804
旨	-11.8634
颁	-11.8701
械	-11.8706
馨	-11.8711
循	-11.8711
贡	-11.8712
滤	-11.8712
狱	-11.8712
a	-11.8712
涿	-11.8713
厕	-11.8713
戎	-11.8713
侄	-11.8713
浠	-11.8713
寝	-11.8713
涝	-11.8713
瘟	-11.8713
邸	-11.8713
恕	-11.8713
胖	-11.8713
胺	-11.8713
豁	-11.8713
呐	-11.8713
稼	-11.8713
兜	-11.8713
彤	-11.8713
胀	-11.8713
瓣	-11.8713
耸	-11.8713
煦	-11.8713
皓	-11.8713
圃	-11.8713
凿	-11.8713
恍	-11.8713
r	-11.8713
萌	-11.8713
虞	-11.8713
笛	-11.8713
t	-11.8713
屹	-11.8713
沐	-11.8713
匮	-11.8713
呕	-11.8713
寞	-11.8713
棣	-11.8713
m	-11.8713
腕	-11.8713
膝	-11.8713
爪	-11.8713
阮	-11.8713
n	-11.8713
p	-11.8713
傻	-11.8713
哑	-11.8713
渝	-11.8713
泻	-11.8713
逗	-11.8713
憋	-11.8713
祈	-11.8713
U	-11.8713
岚	-11.8713
惹	-11.8713
隋	-11.8713
烫	-11.8713
竿	-11.8713
颐	-11.8713
橱	-11.8713
拣	-11.8714
琅	-11.8714
浙	-11.9659
么	-11.9676
恢	-11.971
愉	-11.9711
邯	-11.9711
弘	-11.9712
岐	-11.9713
坞	-11.9713
筷	-11.9713
羁	-11.9713
榨	-11.9713
汾	-11.9713
沦	-11.9713
蹄	-11.9713
J	-11.9713
哺	-11.9713
珂	-11.9713
桢	-11.9713
镀	-11.9713
齿	-11.9713
删	-11.9713
喉	-11.9713
晕	-11.9713
笋	-11.9713
藻	-11.9713
枉	-11.9713
沁	-11.9713
遐	-11.9713
圭	-11.9713
扈	-11.9713
曳	-11.9713
诫	-11.9713
陨	-11.9713
瀑	-11.9713
禾	-11.9713
肢	-11.9713
沓	-11.9713
忱	-11.9713
泣	-11.9713
玄	-11.9713
驹	-11.9713
砌	-11.9713
烨	-11.9713
峭	-11.9713
羞	-11.9713
椰	-11.9713
痹	-11.9713
绚	-11.9713
菇	-11.9713
璧	-11.9713
瀚	-11.9713
墩	-11.9713
巫	-11.9713
氟	-11.9713
铱	-11.9713
镰	-11.9713
链	-11.9713
馓	-11.9713
昔	-12.0793
晤	-12.0813
宅	-12.0822
框	-12.0823
啼	-12.0823
檀	-12.0823
褐	-12.0823
绒	-12.0824
邪	-12.0824
铎	-12.0824
娴	-12.0824
澈	-12.0824
篷	-12.0824
s	-12.0824
锌	-12.0824
瑛	-12.0824
珉	-12.0824
崖	-12.0824
揣	-12.0824
猴	-12.0824
钠	-12.0824
翘	-12.0824
烹	-12.0824
燮	-12.0824
眶	-12.0824
籁	-12.0824
颓	-12.0824
榕	-12.0824
缚	-12.0824
躬	-12.0824
酯	-12.0824
峨	-12.0824
拴	-12.0824
伺	-12.0824
咋	-12.0824
酣	-12.0824
袅	-12.0824
醋	-12.0824
嚣	-12.0824
孰	-12.0824
哉	-12.0824
秃	-12.0824
鄢	-12.0824
雏	-12.0824
掷	-12.0824
谣	-12.0824
侃	-12.0824
脖	-12.0824
辍	-12.0824
郡	-12.0824
窖	-12.0824
枕	-12.0824
殡	-12.0824
Y	-12.0824
葆	-12.0824
蕊	-12.0824
钰	-12.0824
玫	-12.0824
匡	-12.0824
菁	-12.0824
庶	-12.0824
昕	-12.0824
朦	-12.0824
栖	-12.0824
锂	-12.0824
锄	-12.0824
刨	-12.0824
撕	-12.0824
渲	-12.0824
哩	-12.0824
跪	-12.0824
梓	-12.0824
卵	-12.0825
胫	-12.0825
裤	-12.0825
苇	-12.0825
窟	-12.0825
鳗	-12.0826
擅	-12.2045
键	-12.2048
晰	-12.207
薯	-12.207
胥	-12.2073
摧	-12.2074
磅	-12.2074
俳	-12.2074
臻	-12.2074
钛	-12.2074
僧	-12.2074
琛	-12.2074
靡	-12.2074
糟	-12.2074
鲲	-12.2074
苛	-12.2074
辄	-12.2074
捣	-12.2074
邕	-12.2074
贻	-12.2074
镛	-12.2074
涪	-12.2074
鹊	-12.2074
粘	-12.2074
蛮	-12.2074
贮	-12.2074
拙	-12.2074
矢	-12.2074
膛	-12.2074
亥	-12.2074
燥	-12.2074
琐	-12.2074
聿	-12.2074
钾	-12.2074
凄	-12.2074
匈	-12.2074
擒	-12.2074
熹	-12.2074
腌	-12.2074
荻	-12.2074
筱	-12.2074
哇	-12.2074
姬	-12.2074
惟	-12.2074
喘	-12.2074
氮	-12.2074
涩	-12.2074
锵	-12.2074
攘	-12.2074
薇	-12.2074
‰	-12.2074
佘	-12.2074
眷	-12.2074
梢	-12.2074
韶	-12.2074
黯	-12.2074
嚼	-12.2074
镌	-12.2074
靳	-12.2074
峦	-12.2074
棘	-12.2074
鸥	-12.2074
憨	-12.2074
汁	-12.2074
绮	-12.2074
诀	-12.2075
雌	-12.2075
嚷	-12.2075
兮	-12.2075
籽	-12.2075
践	-12.3498
碌	-12.3501
荐	-12.3501
贬	-12.3501
泵	-12.3502
箴	-12.3502
兖	-12.3502
倚	-12.3502
娄	-12.3502
楞	-12.3502
舸	-12.3502
煮	-12.3502
垣	-12.3502
奕	-12.3502
惶	-12.3502
搅	-12.3502
槽	-12.3502
漾	-12.3502
袜	-12.3502
檐	-12.3502
窜	-12.3502
裳	-12.3502
酱	-12.3502
倩	-12.3502
钙	-12.3502
扒	-12.3502
眨	-12.3502
蚌	-12.3502
汰	-12.3502
绢	-12.3502
泾	-12.3503
c	-12.3503
侗	-12.3503
叩	-12.3503
壑	-12.3503
摞	-12.3503
瞒	-12.3503
撂	-12.3503
浊	-12.3503
瘾	-12.3503
銮	-12.3503
雹	-12.3503
昶	-12.3503
擎	-12.3503
叛	-12.3503
埂	-12.3503
炽	-12.3503
乖	-12.3503
汶	-12.3503
雍	-12.3503
宠	-12.3503
娶	-12.3503
寡	-12.3503
郜	-12.3503
妄	-12.3503
夭	-12.3503
樟	-12.3503
圪	-12.3503
琢	-12.3503
笙	-12.3503
羚	-12.3503
皱	-12.3503
婿	-12.3503
拎	-12.3503
狭	-12.3503
陇	-12.3503
怜	-12.3503
茗	-12.3503
锹	-12.3503
梨	-12.3503
翥	-12.3503
舷	-12.3503
匿	-12.3503
钞	-12.3503
熄	-12.3503
戍	-12.3503
胃	-12.3503
寇	-12.3503
藉	-12.3503
迢	-12.3503
哼	-12.3504
拓	-12.5158
妍	-12.516
倡	-12.5164
俘	-12.5164
娱	-12.5167
憾	-12.5168
矛	-12.5168
蹈	-12.5169
瞿	-12.5169
漪	-12.5169
嵩	-12.5169
冗	-12.5169
崽	-12.5169
氢	-12.5169
祠	-12.5169
薰	-12.5169
蜡	-12.5169
祯	-12.5169
晾	-12.5169
驷	-12.5169
镍	-12.5169
l	-12.5169
坯	-12.5169
夷	-12.5169
晔	-12.5169
淅	-12.5169
藩	-12.5169
蚕	-12.5169
沅	-12.5169
溅	-12.5169
窥	-12.5169
谒	-12.5169
纶	-12.5169
栾	-12.5169
璜	-12.5169
褥	-12.5169
跷	-12.5169
佣	-12.5169
澎	-12.5169
琨	-12.5169
涤	-12.5169
凳	-12.5169
咽	-12.5169
悍	-12.5169
渺	-12.5169
耍	-12.5169
裙	-12.5169
迂	-12.5169
烛	-12.5169
翦	-12.5169
敷	-12.5169
蛟	-12.5169
嚓	-12.5169
栓	-12.5169
犬	-12.5169
甬	-12.5169
筛	-12.5169
茸	-12.5169
廓	-12.5169
璇	-12.5169
阀	-12.5169
碾	-12.5169
茧	-12.5169
咎	-12.517
愣	-12.517
杖	-12.517
淼	-12.517
苞	-12.517
蒜	-12.517
蝇	-12.517
铿	-12.517
弧	-12.517
敛	-12.517
斩	-12.517
祷	-12.517
葵	-12.517
吼	-12.517
邃	-12.517
绷	-12.517
弈	-12.517
拽	-12.517
颅	-12.517
乞	-12.517
迥	-12.517
巅	-12.517
邛	-12.517
霆	-12.517
楣	-12.517
嗅	-12.517
弛	-12.517
摹	-12.517
玖	-12.517
蠢	-12.517
奸	-12.517
筐	-12.517
犟	-12.517
柚	-12.517
疤	-12.517
亳	-12.517
珀	-12.7163
劈	-12.7168
桨	-12.7168
吁	-12.7168
酉	-12.7169
抡	-12.7169
h	-12.7169
蔓	-12.7169
瘤	-12.7169
宙	-12.7169
莘	-12.7169
棱	-12.7169
腮	-12.7169
贱	-12.7169
赊	-12.7169
垛	-12.7169
"	-12.7169
哎	-12.7169
杞	-12.7169
闺	-12.7169
剔	-12.7169
畴	-12.7169
舵	-12.7169
袍	-12.7169
馁	-12.7169
屑	-12.7169
焘	-12.7169
仕	-12.7169
匪	-12.7169
掺	-12.7169
煜	-12.7169
祀	-12.7169
肄	-12.7169
岫	-12.7169
菅	-12.7169
屿	-12.7169
撩	-12.7169
泗	-12.7169
玮	-12.7169
诠	-12.7169
谚	-12.7169
荪	-12.7169
溯	-12.7169
锰	-12.7169
d	-12.7169
灼	-12.7169
玺	-12.7169
琏	-12.7169
卞	-12.7169
瞪	-12.7169
斧	-12.7169
吭	-12.7169
嫣	-12.7169
撷	-12.7169
疮	-12.7169
秆	-12.7169
韫	-12.7169
笆	-12.7169
啃	-12.7169
岔	-12.7169
恬	-12.7169
绞	-12.7169
[	-12.717
]	-12.717
懒	-12.717
挎	-12.717
煎	-12.717
贲	-12.717
杠	-12.717
珑	-12.717
肘	-12.717
酌	-12.717
弋	-12.717
戳	-12.717
篓	-12.717
梳	-12.717
耙	-12.717
俐	-12.717
鳞	-12.717
掬	-12.717
沼	-12.717
偃	-12.717
骅	-12.717
岱	-12.717
稠	-12.717
帧	-12.717
馅	-12.717
昊	-12.9666
括	-12.9666
彰	-12.9668
弩	-12.9668
榭	-12.9668
琮	-12.9668
槟	-12.9669
涡	-12.9669
喆	-12.9669
遒	-12.9669
烃	-12.9669
粱	-12.9669
钴	-12.9669
咪	-12.9669
翌	-12.9669
闵	-12.9669
熨	-12.9669
禧	-12.9669
柄	-12.9669
蛐	-12.9669
俑	-12.9669
唁	-12.9669
惚	-12.9669
懋	-12.9669
晟	-12.9669
梗	-12.9669
砺	-12.9669
蕙	-12.9669
糜	-12.9669
兀	-12.9669
嘟	-12.9669
孚	-12.9669
峒	-12.9669
矣	-12.9669
磐	-12.9669
粥	-12.9669
缮	-12.9669
蹬	-12.9669
绯	-12.9669
萦	-12.9669
掰	-12.9669
婷	-12.9669
酰	-12.9669
亘	-12.9669
锑	-12.9669
g	-12.9669
枷	-12.9669
桅	-12.9669
棕	-12.9669
瓯	-12.9669
缭	-12.9669
谛	-12.9669
驿	-12.9669
鬓	-12.9669
鹜	-12.9669
蹊	-12.9669
吵	-12.9669
唾	-12.9669
姗	-12.9669
怯	-12.9669
捅	-12.9669
撇	-12.9669
栉	-12.9669
洱	-12.9669
笪	-12.9669
肾	-12.9669
芸	-12.9669
札	-12.9669
钊	-12.9669
侍	-12.9669
坂	-12.9669
孽	-12.9669
扁	-12.9669
狡	-12.9669
箩	-12.9669
耦	-12.9669
霭	-12.9669
攥	-12.9669
绊	-12.967
+	-12.967
慑	-12.967
炙	-12.967
镁	-12.967
吏	-12.967
斟	-12.967
毙	-12.967
舜	-12.967
骇	-12.967
侮	-12.967
囤	-12.967
褒	-12.967
刃	-12.967
栅	-12.967
橙	-12.967
毡	-12.967
濮	-12.967
砭	-12.967
羹	-12.967
骧	-12.967
奚	-12.967
樵	-12.967
歼	-12.967
腆	-12.967
逞	-12.967
驯	-12.967
仄	-12.967
缸	-12.967
屁	-12.967
柘	-12.9671
讼	-13.2974
饺	-13.2995
竣	-13.2998
睛	-13.3
彝	-13.3
y	-13.3002
瑕	-13.3002
缎	-13.3002
勺	-13.3002
氰	-13.3002
浜	-13.3002
怵	-13.3002
歙	-13.3002
趴	-13.3002
怅	-13.3002
捺	-13.3002
漱	-13.3002
吝	-13.3002
涟	-13.3002
蒯	-13.3002
蕉	-13.3002
牡	-13.3002
嘿	-13.3002
岷	-13.3002
帚	-13.3002
畲	-13.3002
陀	-13.3002
蛙	-13.3002
烙	-13.3002
俾	-13.3002
冥	-13.3002
卒	-13.3002
晌	-13.3002
煊	-13.3002
煽	-13.3002
瞥	-13.3002
翳	-13.3002
虬	-13.3002
褂	-13.3002
呗	-13.3002
唉	-13.3003
宦	-13.3003
抠	-13.3003
掖	-13.3003
搂	-13.3003
汀	-13.3003
濡	-13.3003
瞅	-13.3003
簧	-13.3003
袒	-13.3003
讥	-13.3003
轶	-13.3003
迤	-13.3003
槌	-13.3003
沱	-13.3003
貂	-13.3003
膏	-13.3003
喋	-13.3003
婕	-13.3003
怠	-13.3003
悻	-13.3003
懊	-13.3003
泠	-13.3003
涣	-13.3003
滂	-13.3003
瘪	-13.3003
皋	-13.3003
眯	-13.3003
稷	-13.3003
缰	-13.3003
褶	-13.3003
轲	-13.3003
伉	-13.3003
诡	-13.3003
恺	-13.3003
稔	-13.3003
卤	-13.3003
壕	-13.3003
晏	-13.3003
殉	-13.3003
珩	-13.3003
箔	-13.3003
浔	-13.3003
刁	-13.3003
殃	-13.3003
浣	-13.3003
猩	-13.3003
瞎	-13.3003
祉	-13.3003
篁	-13.3003
脐	-13.3003
赓	-13.3003
仃	-13.3003
孺	-13.3003
幌	-13.3003
恤	-13.3003
抻	-13.3003
昝	-13.3003
灏	-13.3003
覃	-13.3003
伶	-13.3003
呜	-13.3003
呱	-13.3003
娣	-13.3003
岑	-13.3003
揉	-13.3003
渍	-13.3003
犀	-13.3003
蛰	-13.3003
杈	-13.3003
篾	-13.3003
潼	-13.3003
叨	-13.3003
敕	-13.3003
祺	-13.3003
褚	-13.3003
褪	-13.3003
梵	-13.3003
殴	-13.3003
羲	-13.3003
踱	-13.3003
叽	-13.3004
蹒	-13.3004
嗜	-13.3004
跚	-13.3004
勐	-13.3005
辘	-13.3005
轿	-13.7997
葫	-13.8001
蔬	-13.8001
咨	-13.8002
铨	-13.8002
锻	-13.8002
膨	-13.8003
逮	-13.8003
帐	-13.8004
迸	-14.7581
诹	-14.7582
诤	-14.7583
讴	-14.7584
譬	-14.7585
訇	-14.7586
蠹	-14.7587
蜚	-14.7588
虔	-14.7589
蓖	-14.759
葩	-14.7591
膺	-14.7592
腼	-14.7593
脍	-14.7594
肪	-14.7595
绛	-14.7596
纭	-14.7597
箫	-14.7598
祜	-14.7599
磴	-14.76
砥	-14.7601
砀	-14.7602
畈	-14.7603
璪	-14.7604
琶	-14.7605
琵	-14.7606
珲	-14.7607
牦	-14.7608
炀	-14.7609
澡	-14.761
洌	-14.7611
楦	-14.7612
攸	-14.7613
撬	-14.7614
摁	-14.7615
搐	-14.7616
恸	-14.7617
忑	-14.7618
忐	-14.7619
徨	-14.762
徜	-14.7621
徉	-14.7622
彷	-14.7623
崆	-14.7624
尕	-14.7625
宕	-14.7626
嫖	-14.7627
婀	-14.7628
娼	-14.7629
姹	-14.763
妪	-14.7631
垭	-14.7632
坍	-14.7633
圻	-14.7634
喃	-14.7635
咔	-14.7636
厮	-14.7637
冮	-14.7638
丐	-14.7639
鹃	-14.764
鸠	-14.7641
驮	-14.7642
隅	-14.7643
阪	-14.7644
阂	-14.7645
镠	-14.7646
铤	-14.7647
迦	-14.7648
诧	-14.7649
衙	-14.765
蜗	-14.7651
蚁	-14.7652
蓟	-14.7653
莠	-14.7654
荼	-14.7655
荃	-14.7656
芮	-14.7657
艮	-14.7658
聩	-14.7659
耋	-14.766
耄	-14.7661
罹	-14.7662
缜	-14.7663
绰	-14.7664
糙	-14.7665
篱	-14.7666
秸	-14.7667
秭	-14.7668
祚	-14.7669
礴	-14.767
疟	-14.7671
疚	-14.7672
琉	-14.7673
犊	-14.7674
牍	-14.7675
漉	-14.7676
溧	-14.7677
溃	-14.7678
沮	-14.7679
氓	-14.768
殆	-14.7681
栈	-14.7682
揪	-14.7683
掣	-14.7684
掂	-14.7685
拇	-14.7686
抉	-14.7687
戥	-14.7688
恙	-14.7689
忏	-14.769
廿	-14.7691
庥	-14.7692
峪	-14.7693
岖	-14.7694
岌	-14.7695
屉	-14.7696
寮	-14.7697
寐	-14.7698
娩	-14.7699
娓	-14.77
姊	-14.7701
夙	-14.7702
堕	-14.7703
噼	-14.7704
嗲	-14.7705
喳	-14.7706
啪	-14.7707
唧	-14.7708
咀	-14.7709
儋	-14.771
偎	-14.7711
′	-14.7712
髦	-14.7713
骝	-14.7714
饪	-14.7715
遨	-14.7716
逄	-14.7717
踵	-14.7718
蜿	-14.7719
蜕	-14.772
蜒	-14.7721
蚂	-14.7722
虏	-14.7723
葺	-14.7724
莒	-14.7725
荚	-14.7726
茭	-14.7727
苣	-14.7728
膊	-14.7729
耽	-14.773
缨	-14.7731
纫	-14.7732
紊	-14.7733
篝	-14.7734
笨	-14.7735
瘩	-14.7736
疙	-14.7737
甥	-14.7738
瑚	-14.7739
猥	-14.774
炫	-14.7741
泞	-14.7742
毋	-14.7743
橇	-14.7744
朐	-14.7745
晞	-14.7746
搓	-14.7747
扉	-14.7748
愫	-14.7749
惬	-14.775
惫	-14.7751
惋	-14.7752
徙	-14.7753
徕	-14.7754
崃	-14.7755
塚	-14.7756
嘘	-14.7757
吩	-14.7758
吆	-14.7759
匣	-14.776
偌	-14.7761
侥	-14.7762
伫	-14.7763
★	-14.7764
鳄	-14.7765
骸	-14.7766
馒	-14.7767
袤	-14.7768
蝴	-14.7769
莆	-14.777
茁	-14.7771
芙	-14.7772
胳	-14.7773
簸	-14.7774
獗	-14.7775
犷	-14.7776
潺	-14.7777
汩	-14.7778
殚	-14.7779
暹	-14.778
抨	-14.7781
憬	-14.7782
憧	-14.7783
孀	-14.7784
垠	-14.7785
囡	-14.7786
嘹	-14.7787
啧	-14.7788
凸	-14.7789
麒	-14.779
鹭	-14.7791
鸵	-14.7792
鸦	-14.7793
飨	-14.7794
飙	-14.7795
陛	-14.7796
铧	-14.7797
谧	-14.7798
谍	-14.7799
蔼	-14.78
胧	-14.7801
胚	-14.7802
礽	-14.7803
矗	-14.7804
汲	-14.7805
毗	-14.7806
拮	-14.7807
惧	-14.7808
夯	-14.7809
佤	-14.781
鹄	-14.7811
骋	-14.7812
霏	-14.7813
铉	-14.7814
诙	-14.7815
袂	-14.7816
菏	-14.7817
缀	-14.7818
磕	-14.7819
烷	-14.782
淞	-14.7821
槛	-14.7822
悖	-14.7823
忡	-14.7824
孵	-14.7825
哗	-14.7826
咐	-14.7827
亵	-14.7828
飒	-14.7829
郸	-14.783
谎	-14.7831
诲	-14.7832
蔗	-14.7833
臃	-14.7834
矫	-14.7835
睫	-14.7836
猿	-14.7837
炕	-14.7838
斓	-14.7839
摒	-14.784
搀	-14.7841
墅	-14.7842
骼	-14.7843
谆	-14.7844
觐	-14.7845
虐	-14.7846
禺	-14.7847
瞰	-14.7848
眺	-14.7849
皑	-14.785
痪	-14.7851
猖	-14.7852
潢	-14.7853
渎	-14.7854
涸	-14.7855
汹	-14.7856
囚	-14.7857
侏	-14.7858
馈	-14.7859
韧	-14.786
锲	-14.7861
郧	-14.7862
赈	-14.7863
豚	-14.7864
腑	-14.7865
脾	-14.7866
秽	-14.7867
睐	-14.7868
惦	-14.7869
徇	-14.787
尴	-14.7871
尬	-14.7872
髓	-14.7873
霓	-14.7874
郅	-14.7875
赝	-14.7876
赁	-14.7877
讶	-14.7878
袱	-14.7879
篪	-14.788
窘	-14.7881
碘	-14.7882
璨	-14.7883
椎	-14.7884
杼	-14.7885
徘	-14.7886
徊	-14.7887
墟	-14.7888
僚	-14.7889
佼	-14.789
陲	-14.7891
荟	-14.7892
硝	-14.7893
瘁	-14.7894
潍	-14.7895
捆	-14.7896
嗓	-14.7897
凰	-14.7898
缤	-14.7899
珺	-14.79
灸	-14.7901
曝	-14.7902
崎	-14.7903
叉	-14.7904
蒿	-14.7905
莞	-14.7906
舫	-14.7907
昼	-14.7908
卉	-14.7909
莓	-14.791
藜	-14.7911
淄	-14.7912
浒	-14.7913
浏	-14.7914
泸	-14.7915
沽	-14.7916
峙	-14.7917
埠	-14.7918
凛	-14.7919
矩	-14.792
熠	-14.7921
椿	-14.7922
跻	-14.7923
糕	-14.7924
盎	-14.7925
崩	-14.7926
钥	-14.7927
荧	-14.7928
舶	-14.7929
潇	-14.793
滔	-14.7931
渗	-14.7932
橡	-14.7933
惕	-14.7934
匙	-14.7935
侈	-14.7936
瘫	-14.7937
±	-14.7938
帼	-14.7939
姥	-14.794
沸	-14.7941
驭	-14.7942
酝	-14.7943
辐	-14.7944
搁	-14.7945
谐	-14.7946
筝	-14.7947
牺	-14.7948
啡	-14.7949
咖	-14.795
绎	-14.7951
矶	-14.7952
嘱	-14.7953
璃	-14.7954
冉	-14.7955
隧	-14.7956
泌	-14.7957
崛	-14.7958
妨	-14.7959
兢	-14.796
崭	-14.7961
萄	-14.7962
逻	-14.7963
缔	-14.7964
珮	-14.7965
踊	-14.7966
谴	-14.7967
疯	-14.7968
甸	-14.7969
挝	-14.797
抑	-14.7971
橄	-14.7972
榄	-14.7973
匆	-14.7974
斡	-14.7975
饲	-14.7976
遏	-14.7977
啤	-14.7978
瞩	-14.7979
慨	-14.798
魅	-14.7981
茫	-14.7982
悄	-14.7983
奠	-14.7984
赂	-14.7985
惩	-14.7985
乓	-14.7986
圾	-14.7987
懈	-14.7988
悠	-14.7989
胁	-14.799
妥	-14.7991
怖	-14.7992
尉	-14.7993
舆	-14.7994
磋	-14.7995
帜	-14.7996
胞	-14.7997
圳	-14.7998
媒	-14.7999
氛	-14.8
伙	-14.8001
溉	-14.8001
诞	-14.8002
垃	-14.8003
渥	-14.8003
皎	-14.8003
秩	-14.8003
崴	-14.8003
镕	-14.8003
歹	-14.8003
础	-14.8004
究	-14.8005
迄	-14.8005
